const unsigned int g_int8_model_data_size = 18400;

alignas(16) const unsigned char g_int8_model_data[] = {
  0x1c, 0x00, 0x00, 0x00, 0x54, 0x46, 0x4c, 0x33, 0x14, 0x00, 0x20, 0x00,
  0x1c, 0x00, 0x18, 0x00, 0x14, 0x00, 0x10, 0x00, 0x0c, 0x00, 0x00, 0x00,
  0x08, 0x00, 0x04, 0x00, 0x14, 0x00, 0x00, 0x00, 0x1c, 0x00, 0x00, 0x00,
  0xc0, 0x00, 0x00, 0x00, 0x18, 0x01, 0x00, 0x00, 0xec, 0x0c, 0x00, 0x00,
  0xfc, 0x0c, 0x00, 0x00, 0x00, 0x47, 0x00, 0x00, 0x03, 0x00, 0x00, 0x00,
  0x01, 0x00, 0x00, 0x00, 0x04, 0x00, 0x00, 0x00, 0x1e, 0xe9, 0xff, 0xff,
  0x0c, 0x00, 0x00, 0x00, 0x1c, 0x00, 0x00, 0x00, 0x5c, 0x00, 0x00, 0x00,
  0x0f, 0x00, 0x00, 0x00, 0x73, 0x65, 0x72, 0x76, 0x69, 0x6e, 0x67, 0x5f,
  0x64, 0x65, 0x66, 0x61, 0x75, 0x6c, 0x74, 0x00, 0x02, 0x00, 0x00, 0x00,
  0x24, 0x00, 0x00, 0x00, 0x04, 0x00, 0x00, 0x00, 0x60, 0xff, 0xff, 0xff,
  0x5b, 0x00, 0x00, 0x00, 0x04, 0x00, 0x00, 0x00, 0x08, 0x00, 0x00, 0x00,
  0x6f, 0x75, 0x74, 0x70, 0x75, 0x74, 0x5f, 0x31, 0x00, 0x00, 0x00, 0x00,
  0x7c, 0xff, 0xff, 0xff, 0x5e, 0x00, 0x00, 0x00, 0x04, 0x00, 0x00, 0x00,
  0x08, 0x00, 0x00, 0x00, 0x6f, 0x75, 0x74, 0x70, 0x75, 0x74, 0x5f, 0x30,
  0x00, 0x00, 0x00, 0x00, 0x02, 0x00, 0x00, 0x00, 0x20, 0x00, 0x00, 0x00,
  0x04, 0x00, 0x00, 0x00, 0xa4, 0xff, 0xff, 0xff, 0x01, 0x00, 0x00, 0x00,
  0x04, 0x00, 0x00, 0x00, 0x06, 0x00, 0x00, 0x00, 0x61, 0x72, 0x67, 0x73,
  0x5f, 0x31, 0x00, 0x00, 0xe2, 0xf3, 0xff, 0xff, 0x04, 0x00, 0x00, 0x00,
  0x06, 0x00, 0x00, 0x00, 0x61, 0x72, 0x67, 0x73, 0x5f, 0x30, 0x00, 0x00,
  0x02, 0x00, 0x00, 0x00, 0x34, 0x00, 0x00, 0x00, 0x04, 0x00, 0x00, 0x00,
  0xdc, 0xff, 0xff, 0xff, 0x61, 0x00, 0x00, 0x00, 0x04, 0x00, 0x00, 0x00,
  0x13, 0x00, 0x00, 0x00, 0x43, 0x4f, 0x4e, 0x56, 0x45, 0x52, 0x53, 0x49,
  0x4f, 0x4e, 0x5f, 0x4d, 0x45, 0x54, 0x41, 0x44, 0x41, 0x54, 0x41, 0x00,
  0x08, 0x00, 0x0c, 0x00, 0x08, 0x00, 0x04, 0x00, 0x08, 0x00, 0x00, 0x00,
  0x60, 0x00, 0x00, 0x00, 0x04, 0x00, 0x00, 0x00, 0x13, 0x00, 0x00, 0x00,
  0x6d, 0x69, 0x6e, 0x5f, 0x72, 0x75, 0x6e, 0x74, 0x69, 0x6d, 0x65, 0x5f,
  0x76, 0x65, 0x72, 0x73, 0x69, 0x6f, 0x6e, 0x00, 0x62, 0x00, 0x00, 0x00,
  0xd0, 0x0b, 0x00, 0x00, 0xc8, 0x0b, 0x00, 0x00, 0xc0, 0x0b, 0x00, 0x00,
  0xa4, 0x0b, 0x00, 0x00, 0x80, 0x0b, 0x00, 0x00, 0x68, 0x0b, 0x00, 0x00,
  0x4c, 0x0b, 0x00, 0x00, 0x30, 0x0b, 0x00, 0x00, 0x14, 0x0b, 0x00, 0x00,
  0xf8, 0x0a, 0x00, 0x00, 0xe0, 0x0a, 0x00, 0x00, 0xc8, 0x0a, 0x00, 0x00,
  0xb0, 0x0a, 0x00, 0x00, 0x94, 0x0a, 0x00, 0x00, 0x78, 0x0a, 0x00, 0x00,
  0x48, 0x0a, 0x00, 0x00, 0x34, 0x0a, 0x00, 0x00, 0xc4, 0x09, 0x00, 0x00,
  0x54, 0x09, 0x00, 0x00, 0xe4, 0x08, 0x00, 0x00, 0x74, 0x08, 0x00, 0x00,
  0x04, 0x08, 0x00, 0x00, 0x94, 0x07, 0x00, 0x00, 0xc4, 0x06, 0x00, 0x00,
  0xf4, 0x05, 0x00, 0x00, 0x24, 0x05, 0x00, 0x00, 0x54, 0x04, 0x00, 0x00,
  0x84, 0x03, 0x00, 0x00, 0x14, 0x03, 0x00, 0x00, 0xc4, 0x02, 0x00, 0x00,
  0xac, 0x02, 0x00, 0x00, 0xa4, 0x02, 0x00, 0x00, 0x9c, 0x02, 0x00, 0x00,
  0x94, 0x02, 0x00, 0x00, 0x8c, 0x02, 0x00, 0x00, 0x84, 0x02, 0x00, 0x00,
  0x7c, 0x02, 0x00, 0x00, 0x74, 0x02, 0x00, 0x00, 0x6c, 0x02, 0x00, 0x00,
  0x64, 0x02, 0x00, 0x00, 0x5c, 0x02, 0x00, 0x00, 0x54, 0x02, 0x00, 0x00,
  0x4c, 0x02, 0x00, 0x00, 0x44, 0x02, 0x00, 0x00, 0x3c, 0x02, 0x00, 0x00,
  0x34, 0x02, 0x00, 0x00, 0x2c, 0x02, 0x00, 0x00, 0x24, 0x02, 0x00, 0x00,
  0x1c, 0x02, 0x00, 0x00, 0x14, 0x02, 0x00, 0x00, 0x0c, 0x02, 0x00, 0x00,
  0x04, 0x02, 0x00, 0x00, 0xfc, 0x01, 0x00, 0x00, 0xf4, 0x01, 0x00, 0x00,
  0xec, 0x01, 0x00, 0x00, 0xe4, 0x01, 0x00, 0x00, 0xdc, 0x01, 0x00, 0x00,
  0xd4, 0x01, 0x00, 0x00, 0xcc, 0x01, 0x00, 0x00, 0xc4, 0x01, 0x00, 0x00,
  0xbc, 0x01, 0x00, 0x00, 0xb4, 0x01, 0x00, 0x00, 0xac, 0x01, 0x00, 0x00,
  0xa4, 0x01, 0x00, 0x00, 0x9c, 0x01, 0x00, 0x00, 0x94, 0x01, 0x00, 0x00,
  0x8c, 0x01, 0x00, 0x00, 0x84, 0x01, 0x00, 0x00, 0x7c, 0x01, 0x00, 0x00,
  0x74, 0x01, 0x00, 0x00, 0x6c, 0x01, 0x00, 0x00, 0x64, 0x01, 0x00, 0x00,
  0x5c, 0x01, 0x00, 0x00, 0x54, 0x01, 0x00, 0x00, 0x4c, 0x01, 0x00, 0x00,
  0x44, 0x01, 0x00, 0x00, 0x3c, 0x01, 0x00, 0x00, 0x34, 0x01, 0x00, 0x00,
  0x2c, 0x01, 0x00, 0x00, 0x24, 0x01, 0x00, 0x00, 0x1c, 0x01, 0x00, 0x00,
  0x14, 0x01, 0x00, 0x00, 0x0c, 0x01, 0x00, 0x00, 0x04, 0x01, 0x00, 0x00,
  0xfc, 0x00, 0x00, 0x00, 0xf4, 0x00, 0x00, 0x00, 0xec, 0x00, 0x00, 0x00,
  0xe4, 0x00, 0x00, 0x00, 0xdc, 0x00, 0x00, 0x00, 0xd4, 0x00, 0x00, 0x00,
  0xcc, 0x00, 0x00, 0x00, 0xc4, 0x00, 0x00, 0x00, 0xbc, 0x00, 0x00, 0x00,
  0xb4, 0x00, 0x00, 0x00, 0xac, 0x00, 0x00, 0x00, 0xa4, 0x00, 0x00, 0x00,
  0x84, 0x00, 0x00, 0x00, 0x04, 0x00, 0x00, 0x00, 0xde, 0xf5, 0xff, 0xff,
  0x04, 0x00, 0x00, 0x00, 0x70, 0x00, 0x00, 0x00, 0x10, 0x00, 0x00, 0x00,
  0x00, 0x00, 0x00, 0x00, 0x08, 0x00, 0x0e, 0x00, 0x08, 0x00, 0x04, 0x00,
  0x08, 0x00, 0x00, 0x00, 0x10, 0x00, 0x00, 0x00, 0x24, 0x00, 0x00, 0x00,
  0x00, 0x00, 0x06, 0x00, 0x08, 0x00, 0x04, 0x00, 0x06, 0x00, 0x00, 0x00,
  0x04, 0x00, 0x00, 0x00, 0x00, 0x00, 0x00, 0x00, 0x0c, 0x00, 0x1c, 0x00,
  0x18, 0x00, 0x14, 0x00, 0x10, 0x00, 0x04, 0x00, 0x0c, 0x00, 0x00, 0x00,
  0x39, 0x08, 0x20, 0x20, 0xa1, 0xe1, 0x5d, 0xd2, 0x00, 0x00, 0x00, 0x00,
  0x01, 0x00, 0x00, 0x00, 0x02, 0x00, 0x00, 0x00, 0x04, 0x00, 0x00, 0x00,
  0x12, 0x00, 0x00, 0x00, 0x32, 0x2e, 0x32, 0x31, 0x2e, 0x30, 0x2d, 0x64,
  0x65, 0x76, 0x32, 0x30, 0x32, 0x35, 0x31, 0x31, 0x31, 0x30, 0x00, 0x00,
  0x5a, 0xf6, 0xff, 0xff, 0x04, 0x00, 0x00, 0x00, 0x10, 0x00, 0x00, 0x00,
  0x32, 0x2e, 0x31, 0x37, 0x2e, 0x30, 0x00, 0x00, 0x00, 0x00, 0x00, 0x00,
  0x00, 0x00, 0x00, 0x00, 0xc0, 0xbb, 0xff, 0xff, 0xc4, 0xbb, 0xff, 0xff,
  0xc8, 0xbb, 0xff, 0xff, 0xcc, 0xbb, 0xff, 0xff, 0xd0, 0xbb, 0xff, 0xff,
  0xd4, 0xbb, 0xff, 0xff, 0xd8, 0xbb, 0xff, 0xff, 0xdc, 0xbb, 0xff, 0xff,
  0xe0, 0xbb, 0xff, 0xff, 0xe4, 0xbb, 0xff, 0xff, 0xe8, 0xbb, 0xff, 0xff,
  0xec, 0xbb, 0xff, 0xff, 0xf0, 0xbb, 0xff, 0xff, 0xf4, 0xbb, 0xff, 0xff,
  0xf8, 0xbb, 0xff, 0xff, 0xfc, 0xbb, 0xff, 0xff, 0x00, 0xbc, 0xff, 0xff,
  0x04, 0xbc, 0xff, 0xff, 0x08, 0xbc, 0xff, 0xff, 0x0c, 0xbc, 0xff, 0xff,
  0x10, 0xbc, 0xff, 0xff, 0x14, 0xbc, 0xff, 0xff, 0x18, 0xbc, 0xff, 0xff,
  0x1c, 0xbc, 0xff, 0xff, 0x20, 0xbc, 0xff, 0xff, 0x24, 0xbc, 0xff, 0xff,
  0x28, 0xbc, 0xff, 0xff, 0x2c, 0xbc, 0xff, 0xff, 0x30, 0xbc, 0xff, 0xff,
  0x34, 0xbc, 0xff, 0xff, 0x38, 0xbc, 0xff, 0xff, 0x3c, 0xbc, 0xff, 0xff,
  0x40, 0xbc, 0xff, 0xff, 0x44, 0xbc, 0xff, 0xff, 0x48, 0xbc, 0xff, 0xff,
  0x4c, 0xbc, 0xff, 0xff, 0x50, 0xbc, 0xff, 0xff, 0x54, 0xbc, 0xff, 0xff,
  0x58, 0xbc, 0xff, 0xff, 0x5c, 0xbc, 0xff, 0xff, 0x60, 0xbc, 0xff, 0xff,
  0x64, 0xbc, 0xff, 0xff, 0x68, 0xbc, 0xff, 0xff, 0x6c, 0xbc, 0xff, 0xff,
  0x70, 0xbc, 0xff, 0xff, 0x74, 0xbc, 0xff, 0xff, 0x78, 0xbc, 0xff, 0xff,
  0x7c, 0xbc, 0xff, 0xff, 0x80, 0xbc, 0xff, 0xff, 0x84, 0xbc, 0xff, 0xff,
  0x88, 0xbc, 0xff, 0xff, 0x8c, 0xbc, 0xff, 0xff, 0x90, 0xbc, 0xff, 0xff,
  0x94, 0xbc, 0xff, 0xff, 0x98, 0xbc, 0xff, 0xff, 0x9c, 0xbc, 0xff, 0xff,
  0xa0, 0xbc, 0xff, 0xff, 0xa4, 0xbc, 0xff, 0xff, 0xa8, 0xbc, 0xff, 0xff,
  0xac, 0xbc, 0xff, 0xff, 0xb0, 0xbc, 0xff, 0xff, 0xb4, 0xbc, 0xff, 0xff,
  0xb8, 0xbc, 0xff, 0xff, 0xbc, 0xbc, 0xff, 0xff, 0xc0, 0xbc, 0xff, 0xff,
  0x7a, 0xf7, 0xff, 0xff, 0x04, 0x00, 0x00, 0x00, 0x08, 0x00, 0x00, 0x00,
  0xbb, 0x81, 0x19, 0x3c, 0xaf, 0x81, 0x67, 0xcb, 0x8e, 0xf7, 0xff, 0xff,
  0x04, 0x00, 0x00, 0x00, 0x40, 0x00, 0x00, 0x00, 0x46, 0x83, 0x72, 0xcd,
  0xd4, 0xed, 0x47, 0x7f, 0x4d, 0x2a, 0x01, 0x74, 0x33, 0xf9, 0x7f, 0x50,
  0x52, 0x4e, 0x7f, 0xd5, 0x52, 0xa5, 0xa6, 0x8a, 0xb9, 0xbd, 0xd0, 0x2b,
  0xcf, 0x04, 0xb6, 0x7f, 0x58, 0x2c, 0x66, 0x7a, 0x81, 0x13, 0xca, 0xe7,
  0x8d, 0x81, 0xb9, 0xbc, 0x68, 0xc8, 0x56, 0xc6, 0x85, 0xf1, 0x7f, 0x4e,
  0xc8, 0x95, 0xab, 0xe3, 0x81, 0x8c, 0x38, 0x76, 0xd8, 0xa2, 0x4f, 0x30,
  0xda, 0xf7, 0xff, 0xff, 0x04, 0x00, 0x00, 0x00, 0x60, 0x00, 0x00, 0x00,
  0xed, 0x89, 0xa2, 0x7f, 0xbf, 0xf3, 0x54, 0x7f, 0x69, 0x6a, 0x7f, 0x12,
  0x81, 0x54, 0xd2, 0x48, 0x81, 0x9d, 0xe3, 0x66, 0x6d, 0x7f, 0x75, 0xcb,
  0xf7, 0x7f, 0x21, 0xa3, 0x42, 0x7f, 0xbe, 0x16, 0xee, 0xda, 0xdb, 0x81,
  0x8b, 0x7f, 0xc1, 0xa2, 0xe0, 0x2d, 0x9c, 0x81, 0xf9, 0xd6, 0x81, 0xfc,
  0x7e, 0x81, 0x9c, 0x14, 0xfc, 0x81, 0xfc, 0xcf, 0x9b, 0x7f, 0x5d, 0xbb,
  0xec, 0x2f, 0x60, 0x81, 0x53, 0x2a, 0xa5, 0x81, 0x8f, 0x69, 0x2e, 0x81,
  0x87, 0x08, 0xc2, 0x7f, 0x30, 0xec, 0x43, 0x81, 0xd3, 0x63, 0xbe, 0x7f,
  0xf7, 0x62, 0x4f, 0x81, 0x81, 0x94, 0x61, 0x37, 0xd4, 0xb2, 0x8f, 0x81,
  0x46, 0xf8, 0xff, 0xff, 0x04, 0x00, 0x00, 0x00, 0xc0, 0x00, 0x00, 0x00,
  0x81, 0x52, 0x8c, 0xf0, 0x4e, 0x14, 0xc1, 0x6f, 0x56, 0x7f, 0x45, 0x59,
  0xf2, 0x8d, 0x29, 0x9d, 0x27, 0xde, 0x81, 0x32, 0x7b, 0xa9, 0xfd, 0x4b,
  0xae, 0xdf, 0x8c, 0x81, 0x53, 0xa2, 0x90, 0xaf, 0x81, 0x13, 0x15, 0xac,
  0xae, 0x5b, 0x18, 0x93, 0xb0, 0x17, 0xc3, 0x93, 0x81, 0x2a, 0x49, 0xef,
  0x56, 0x63, 0x60, 0xd1, 0xe6, 0x4a, 0x7f, 0x2c, 0x16, 0xd4, 0xd5, 0x81,
  0x46, 0x7e, 0xfd, 0xd9, 0xb4, 0xef, 0x7f, 0x81, 0x98, 0xe6, 0x7f, 0x52,
  0xd3, 0xf8, 0xab, 0x81, 0xcb, 0x2b, 0x84, 0x16, 0x54, 0x08, 0x6e, 0xef,
  0x83, 0xf9, 0x81, 0x09, 0x1b, 0xd3, 0x82, 0x7a, 0xbe, 0x1c, 0x81, 0x55,
  0x1d, 0x7f, 0x47, 0x22, 0xc5, 0x82, 0x30, 0xfe, 0x53, 0x47, 0x56, 0x81,
  0xce, 0xf1, 0xc1, 0xeb, 0x63, 0xdc, 0x2d, 0x81, 0xf8, 0xfb, 0x8a, 0x1b,
  0x02, 0x08, 0x51, 0x65, 0xcf, 0x7f, 0x94, 0x57, 0xce, 0x7f, 0xb0, 0x9b,
  0x40, 0xbb, 0x32, 0xe8, 0xc0, 0x60, 0xda, 0x7f, 0x7b, 0xeb, 0xf5, 0x18,
  0xad, 0x81, 0x84, 0x26, 0x13, 0xae, 0x64, 0xe0, 0x68, 0xf1, 0x72, 0x22,
  0x1d, 0xcf, 0x82, 0x7f, 0xdf, 0xa2, 0xd3, 0x38, 0x30, 0x81, 0x5a, 0x01,
  0x81, 0x2d, 0x19, 0xfb, 0x2a, 0x13, 0x87, 0xa9, 0x10, 0x7f, 0x64, 0xd9,
  0x23, 0xfe, 0x7f, 0x37, 0xb3, 0x57, 0x76, 0x78, 0x8d, 0xf8, 0x7f, 0x62,
  0x12, 0xf9, 0xff, 0xff, 0x04, 0x00, 0x00, 0x00, 0xc0, 0x00, 0x00, 0x00,
  0xaa, 0xb8, 0xd2, 0x65, 0x7f, 0x5e, 0xbe, 0x7e, 0x21, 0x7f, 0xe7, 0x49,
  0xc5, 0x73, 0xfa, 0x3c, 0xb6, 0x13, 0x09, 0x31, 0x4b, 0xc9, 0x7f, 0xc7,
  0xa8, 0xd9, 0x89, 0x4b, 0x98, 0x7f, 0xf3, 0x51, 0x44, 0x00, 0x81, 0x03,
  0x17, 0x14, 0xc1, 0xb9, 0x2e, 0x81, 0x3e, 0x96, 0xc3, 0x77, 0x44, 0x7d,
  0x03, 0x31, 0x85, 0xa9, 0xc7, 0x7f, 0xa8, 0xb5, 0x81, 0x18, 0xe2, 0xdc,
  0xec, 0x9a, 0xe6, 0x9f, 0x81, 0x9d, 0x6e, 0x28, 0xe8, 0x38, 0x4f, 0x77,
  0x24, 0x52, 0x88, 0x03, 0xf8, 0x25, 0xfe, 0x81, 0x2d, 0x1a, 0x51, 0x7f,
  0x51, 0xb4, 0xfd, 0x3c, 0x81, 0x44, 0x96, 0x6d, 0xe9, 0x97, 0x83, 0x53,
  0x0d, 0x0b, 0xbc, 0x02, 0xab, 0x3f, 0x81, 0x9b, 0x15, 0x0e, 0x9c, 0x81,
  0x56, 0x84, 0x07, 0x95, 0x7f, 0x90, 0x52, 0xfc, 0x98, 0xc7, 0x81, 0x1e,
  0x39, 0xed, 0x70, 0xf6, 0x14, 0x81, 0xf2, 0xbf, 0xd4, 0xae, 0x81, 0x2a,
  0x0b, 0x48, 0x84, 0xcd, 0x71, 0x44, 0x81, 0x02, 0xdf, 0xd2, 0x1f, 0x4e,
  0x2d, 0x59, 0x5a, 0x52, 0x94, 0x7f, 0x89, 0xdd, 0xe6, 0x81, 0x26, 0xad,
  0x28, 0x83, 0x3c, 0xf2, 0x54, 0x5c, 0x7f, 0x48, 0x15, 0xa9, 0x98, 0x37,
  0xf1, 0x9f, 0x41, 0x14, 0xf8, 0x81, 0xb0, 0xd4, 0x33, 0x81, 0x84, 0x30,
  0x4d, 0xa0, 0x68, 0xa1, 0xe0, 0x07, 0x7f, 0x4e, 0x01, 0x70, 0xf3, 0xea,
  0xde, 0xf9, 0xff, 0xff, 0x04, 0x00, 0x00, 0x00, 0xc0, 0x00, 0x00, 0x00,
  0x81, 0x81, 0x38, 0xa4, 0xd8, 0x39, 0x4f, 0x81, 0xa4, 0x57, 0x65, 0xff,
  0x95, 0x6a, 0x8a, 0x7f, 0x68, 0x4a, 0xb8, 0x5d, 0x2c, 0x92, 0x77, 0x7f,
  0xf7, 0x43, 0xa0, 0xe4, 0x81, 0xd4, 0x91, 0x6c, 0xed, 0x01, 0x53, 0xa4,
  0x6a, 0x26, 0x81, 0xaa, 0x35, 0x2e, 0xfb, 0x7f, 0x1f, 0x0e, 0xd8, 0x67,
  0xd9, 0x8b, 0x7f, 0x17, 0xf4, 0x8b, 0x0f, 0x3f, 0x30, 0x3f, 0xd7, 0xca,
  0x6e, 0x81, 0xf5, 0xe1, 0xe4, 0xa1, 0xb4, 0x89, 0x7f, 0xf5, 0x0d, 0x4d,
  0x9e, 0x81, 0x55, 0xe8, 0x2b, 0xca, 0xd6, 0x13, 0x78, 0x30, 0x81, 0xc5,
  0x3d, 0x5c, 0x38, 0x41, 0x92, 0x7f, 0x63, 0xd6, 0x11, 0x21, 0xc2, 0xe9,
  0x7f, 0xba, 0xd0, 0x09, 0x79, 0x48, 0xb7, 0x2b, 0x64, 0x01, 0xda, 0xea,
  0x7f, 0x07, 0x2c, 0x7a, 0x34, 0x7f, 0x25, 0x39, 0xcd, 0x5e, 0x7f, 0x24,
  0x7f, 0xd3, 0x02, 0xf3, 0x94, 0x34, 0xa7, 0x4c, 0xf2, 0x09, 0x2f, 0xc0,
  0xb5, 0x56, 0x81, 0x73, 0x6d, 0x81, 0x60, 0x41, 0x33, 0x8b, 0x44, 0x63,
  0x1d, 0xae, 0x81, 0x42, 0x5c, 0x18, 0xbc, 0x7a, 0xe1, 0x7f, 0x2f, 0x28,
  0xab, 0xdf, 0x78, 0x78, 0x77, 0x3c, 0x1e, 0x79, 0x7f, 0x51, 0xce, 0xe0,
  0xba, 0x8f, 0x93, 0x3d, 0x4b, 0x81, 0x0d, 0xa2, 0xaa, 0xca, 0x62, 0xb7,
  0x82, 0xc1, 0x95, 0x7f, 0xa8, 0x95, 0x68, 0xa1, 0xeb, 0x81, 0x22, 0xed,
  0xaa, 0xfa, 0xff, 0xff, 0x04, 0x00, 0x00, 0x00, 0xc0, 0x00, 0x00, 0x00,
  0x31, 0x35, 0xc9, 0x15, 0xcf, 0x81, 0x3a, 0x01, 0x3c, 0x37, 0x05, 0x27,
  0x7f, 0x55, 0x86, 0x6d, 0xf2, 0xc4, 0x87, 0x92, 0x92, 0x7f, 0x59, 0x8b,
  0x21, 0x52, 0xe6, 0x83, 0x91, 0x7f, 0xc2, 0xc8, 0x47, 0x81, 0x12, 0x38,
  0x73, 0x2c, 0xd4, 0xb1, 0x81, 0x04, 0x0d, 0x6c, 0x9a, 0xf0, 0x99, 0xf3,
  0x06, 0xe4, 0x90, 0x7f, 0x52, 0x89, 0xbd, 0x5f, 0xb6, 0xa6, 0x3a, 0x3b,
  0x81, 0x7f, 0xae, 0x9b, 0x14, 0x67, 0x12, 0xd9, 0xb5, 0x02, 0x81, 0xdc,
  0x8b, 0x6f, 0x41, 0xd4, 0xdb, 0xb7, 0x7f, 0xee, 0x18, 0x81, 0x90, 0xe7,
  0xc7, 0x8b, 0xea, 0x61, 0x19, 0x79, 0x7f, 0xff, 0xa9, 0xbb, 0xf4, 0xa2,
  0x1a, 0x29, 0xd4, 0x81, 0x8d, 0x56, 0x8e, 0x19, 0x29, 0x66, 0x7e, 0xe5,
  0xa4, 0x37, 0x81, 0x24, 0x15, 0x54, 0x7f, 0x27, 0xed, 0xd4, 0xe8, 0xee,
  0x23, 0x55, 0xff, 0xca, 0x62, 0x6d, 0xf8, 0x81, 0xc1, 0x8a, 0x71, 0x7f,
  0xa3, 0x27, 0xf0, 0xe0, 0x69, 0x3b, 0x43, 0xe7, 0x89, 0x28, 0xa7, 0x81,
  0xb8, 0x86, 0x92, 0x7f, 0xe7, 0x1f, 0xd4, 0x67, 0x31, 0x7f, 0x79, 0x9f,
  0x2a, 0x43, 0x49, 0x21, 0xa7, 0xb6, 0xdc, 0x39, 0x7f, 0x69, 0xc0, 0xdd,
  0x1a, 0x47, 0x81, 0x83, 0xa6, 0x58, 0x41, 0xb1, 0xc2, 0x8a, 0x81, 0xd8,
  0x67, 0xb7, 0x10, 0x2a, 0xf3, 0x75, 0x14, 0x7f, 0x50, 0x4d, 0xc5, 0x5a,
  0x76, 0xfb, 0xff, 0xff, 0x04, 0x00, 0x00, 0x00, 0xc0, 0x00, 0x00, 0x00,
  0x5c, 0xcf, 0x0a, 0xad, 0x00, 0x7f, 0xfa, 0xa1, 0x7f, 0xaa, 0x3f, 0x82,
  0xa6, 0xc3, 0xa6, 0x44, 0x7f, 0x06, 0x1a, 0x31, 0x87, 0x42, 0x6d, 0xe9,
  0x05, 0x50, 0xbd, 0x6a, 0xa6, 0xe6, 0x93, 0x81, 0xba, 0x2e, 0x49, 0xc9,
  0xc8, 0x29, 0x88, 0x81, 0x67, 0x7f, 0x37, 0xae, 0xb6, 0xea, 0x4f, 0x71,
  0xd7, 0x68, 0x28, 0x49, 0x81, 0x93, 0x7c, 0x19, 0xde, 0x81, 0x96, 0xc3,
  0xa9, 0x92, 0xa4, 0x93, 0x26, 0x39, 0xef, 0x40, 0xf1, 0x84, 0xc2, 0x7f,
  0x99, 0x38, 0x81, 0x60, 0x69, 0x3c, 0x09, 0xba, 0x81, 0x2e, 0x54, 0xc9,
  0xbb, 0xe4, 0xd0, 0xfb, 0x7f, 0x98, 0x70, 0xe1, 0xa5, 0x45, 0x42, 0x5f,
  0xbb, 0x4a, 0x7f, 0x41, 0x04, 0xe8, 0xe2, 0x51, 0x7f, 0xe8, 0x2f, 0x2f,
  0xf4, 0x20, 0xf0, 0x98, 0x70, 0x87, 0xbc, 0xb6, 0x96, 0x0e, 0x81, 0xb1,
  0x81, 0xd6, 0xa0, 0x9b, 0x6d, 0x6c, 0x20, 0x26, 0x09, 0x30, 0x81, 0xd4,
  0xa3, 0x54, 0xc0, 0x7b, 0x32, 0x25, 0x9d, 0xc7, 0xae, 0x3e, 0x97, 0x7f,
  0xf8, 0x18, 0x86, 0x81, 0x14, 0xb7, 0x23, 0x5b, 0x4c, 0x4c, 0x31, 0x81,
  0xc5, 0x46, 0xfd, 0xa2, 0xce, 0x04, 0x0e, 0x58, 0x7f, 0xa6, 0xb8, 0xb1,
  0x4c, 0x7f, 0x57, 0x8c, 0xec, 0x82, 0x9d, 0x24, 0x94, 0x81, 0x49, 0x71,
  0x13, 0x06, 0x7f, 0x98, 0x59, 0xec, 0x09, 0x1f, 0xd8, 0x7f, 0x94, 0x15,
  0x42, 0xfc, 0xff, 0xff, 0x04, 0x00, 0x00, 0x00, 0x60, 0x00, 0x00, 0x00,
  0x3a, 0x86, 0x8b, 0x3e, 0xa4, 0x23, 0x94, 0xbe, 0x25, 0x47, 0x74, 0xbe,
  0xfe, 0xa7, 0x0c, 0x3e, 0x79, 0xf5, 0x66, 0x3e, 0x91, 0xf7, 0x93, 0xbd,
  0xe1, 0xca, 0x04, 0xbe, 0x33, 0xa5, 0x59, 0xbd, 0xe0, 0x89, 0x1a, 0x3e,
  0x2e, 0xe3, 0x2c, 0x3b, 0xc2, 0xcf, 0x87, 0x3e, 0xe2, 0x8e, 0xab, 0xbe,
  0x29, 0x5b, 0x93, 0xbe, 0x17, 0xc6, 0xe7, 0x3d, 0xea, 0xb3, 0x34, 0xbd,
  0x87, 0xc8, 0x93, 0x3d, 0x62, 0xf8, 0x9f, 0x3e, 0x5d, 0x5c, 0x98, 0x3e,
  0xb2, 0x70, 0xaf, 0xbe, 0x01, 0x34, 0x6b, 0x3e, 0x24, 0x90, 0x22, 0xbe,
  0x91, 0xfe, 0x22, 0xbd, 0xfd, 0xec, 0x86, 0x3d, 0x7e, 0xbf, 0x00, 0xbb,
  0xae, 0xfc, 0xff, 0xff, 0x04, 0x00, 0x00, 0x00, 0x60, 0x00, 0x00, 0x00,
  0xd1, 0xd0, 0xf5, 0xbc, 0xf9, 0xef, 0x04, 0x3e, 0xe4, 0x44, 0x17, 0xbe,
  0xd7, 0xd0, 0x51, 0xbe, 0xa5, 0x4d, 0x78, 0x3e, 0x69, 0x1c, 0xdd, 0xbc,
  0x59, 0xf4, 0x91, 0xbe, 0x75, 0xf0, 0x17, 0x3e, 0x97, 0x70, 0x62, 0x3d,
  0x21, 0x20, 0x9d, 0x3e, 0x48, 0x01, 0xa0, 0xbe, 0xa9, 0xe3, 0xce, 0x3d,
  0xef, 0x24, 0xa7, 0xbe, 0xc8, 0x0e, 0x91, 0x3e, 0x96, 0x9b, 0x84, 0x3e,
  0x90, 0x43, 0xa8, 0x3e, 0xf8, 0x52, 0xa4, 0xbe, 0xee, 0x22, 0x90, 0xbe,
  0xa8, 0xcf, 0xab, 0x3d, 0xd2, 0x59, 0x65, 0x3d, 0xca, 0x2a, 0x90, 0xbe,
  0x3a, 0xce, 0xa6, 0xbc, 0x35, 0x5c, 0x83, 0xbe, 0x38, 0xbe, 0xa9, 0x3e,
  0x1a, 0xfd, 0xff, 0xff, 0x04, 0x00, 0x00, 0x00, 0x60, 0x00, 0x00, 0x00,
  0xac, 0xe7, 0x20, 0xbe, 0x09, 0x05, 0x2b, 0x3e, 0x31, 0xd7, 0x5e, 0x3d,
  0x56, 0x46, 0x94, 0xbe, 0xfb, 0x94, 0x87, 0xbe, 0x58, 0x59, 0x11, 0xbd,
  0x9a, 0x8e, 0x58, 0xbe, 0x8d, 0xb2, 0x8f, 0xbe, 0xba, 0xde, 0xdd, 0xbd,
  0x5a, 0x0b, 0xd8, 0x3d, 0x56, 0xce, 0x6e, 0x3e, 0x9c, 0x1b, 0xd2, 0xbd,
  0x7f, 0xa4, 0x9d, 0xbe, 0x61, 0xb8, 0x32, 0x3e, 0x60, 0xb2, 0x76, 0xbd,
  0xbf, 0x53, 0x01, 0xbe, 0x3b, 0xb5, 0x8b, 0x3e, 0xab, 0x44, 0x48, 0xbe,
  0x8e, 0x2d, 0xfd, 0x3d, 0xb7, 0xdd, 0x55, 0xbe, 0xf6, 0x4e, 0x56, 0xbb,
  0xef, 0x10, 0x84, 0x3d, 0x64, 0x60, 0xe5, 0x3c, 0x2e, 0xed, 0xb2, 0xbe,
  0x86, 0xfd, 0xff, 0xff, 0x04, 0x00, 0x00, 0x00, 0x60, 0x00, 0x00, 0x00,
  0x12, 0xeb, 0x95, 0x3e, 0xd6, 0x56, 0xde, 0xbd, 0xfc, 0x5c, 0x37, 0x3e,
  0x7f, 0xcc, 0x44, 0xbe, 0xb8, 0xa6, 0x0c, 0x3e, 0xc8, 0x40, 0x60, 0xbd,
  0x2a, 0xde, 0xdb, 0x3d, 0x44, 0xb2, 0x8a, 0x3e, 0x7e, 0x49, 0xec, 0xbd,
  0x99, 0x66, 0x45, 0xbe, 0xfa, 0xe1, 0x63, 0x3e, 0x65, 0x6a, 0xc5, 0xbc,
  0x9b, 0x70, 0x98, 0x3e, 0xfa, 0x2e, 0x14, 0xbc, 0x97, 0x64, 0x37, 0x3e,
  0x97, 0x40, 0x5f, 0xbe, 0x2c, 0x91, 0x07, 0x3e, 0x0f, 0xf3, 0x88, 0xbe,
  0x16, 0x62, 0x02, 0xbe, 0xe5, 0x2f, 0x07, 0x3e, 0x20, 0xc1, 0x54, 0xbe,
  0x5e, 0xc2, 0x98, 0x3e, 0xb9, 0x22, 0x0e, 0x3d, 0x94, 0x76, 0x80, 0xbe,
  0xf2, 0xfd, 0xff, 0xff, 0x04, 0x00, 0x00, 0x00, 0x60, 0x00, 0x00, 0x00,
  0x2f, 0x5d, 0x80, 0x3e, 0x34, 0x39, 0x4c, 0xbe, 0x33, 0xc3, 0xac, 0x3c,
  0xdc, 0xee, 0x5c, 0x3e, 0xdc, 0x5d, 0xde, 0xbc, 0x26, 0x77, 0x36, 0xbe,
  0xa9, 0x16, 0xb7, 0xbd, 0x52, 0x30, 0x8f, 0xbe, 0x44, 0x5c, 0x59, 0x3e,
  0xd7, 0xc1, 0xe7, 0x3c, 0x5f, 0xcd, 0x64, 0xbe, 0x97, 0x8a, 0x05, 0xbe,
  0x21, 0xf4, 0x6c, 0xbe, 0x16, 0x37, 0x9b, 0xbe, 0x1e, 0x55, 0x40, 0xbe,
  0x2f, 0xd5, 0x01, 0x3e, 0xc7, 0xae, 0xb9, 0x3d, 0x21, 0x50, 0x1d, 0x3e,
  0x2d, 0xb0, 0x9b, 0xbd, 0xf7, 0xc0, 0x34, 0x3e, 0xaf, 0xed, 0xa1, 0x3c,
  0x4b, 0x5f, 0x38, 0xbe, 0x6c, 0xfd, 0x2a, 0xbe, 0xfc, 0x4d, 0xb0, 0x3e,
  0x5e, 0xfe, 0xff, 0xff, 0x04, 0x00, 0x00, 0x00, 0x60, 0x00, 0x00, 0x00,
  0xfe, 0xeb, 0x10, 0xbc, 0x88, 0x7b, 0xa7, 0xbd, 0x8a, 0x23, 0x81, 0xbe,
  0xde, 0xdb, 0x9c, 0x3e, 0x52, 0xe7, 0xba, 0xbd, 0x0a, 0x54, 0x97, 0xbe,
  0x72, 0x7b, 0x0c, 0x3e, 0x9b, 0xd4, 0x8c, 0x3e, 0xd0, 0x09, 0x71, 0xbe,
  0x0e, 0xe3, 0xb1, 0x3e, 0xe8, 0x63, 0x92, 0x3b, 0xc7, 0xeb, 0xd1, 0xbd,
  0x6f, 0x07, 0x70, 0x3e, 0xdd, 0x1b, 0x92, 0x3e, 0xc8, 0x9f, 0xd2, 0xbd,
  0x3a, 0x47, 0xb0, 0xbe, 0x46, 0x87, 0x87, 0x3e, 0xa7, 0xdf, 0x00, 0xbc,
  0x31, 0xcb, 0x80, 0xbe, 0xfa, 0x7b, 0xb0, 0xbe, 0x00, 0x00, 0x3e, 0x3e,
  0x76, 0xc9, 0x49, 0xbe, 0x49, 0xf0, 0x71, 0x3e, 0x73, 0x26, 0x69, 0x3e,
  0xca, 0xfe, 0xff, 0xff, 0x04, 0x00, 0x00, 0x00, 0x04, 0x00, 0x00, 0x00,
  0xfb, 0x79, 0x29, 0x3e, 0xda, 0xfe, 0xff, 0xff, 0x04, 0x00, 0x00, 0x00,
  0x20, 0x00, 0x00, 0x00, 0x09, 0xa1, 0x82, 0xbe, 0x9f, 0xf6, 0x46, 0x3e,
  0x2e, 0x0a, 0x17, 0xbe, 0xf1, 0xf9, 0xd0, 0x3d, 0x1f, 0x67, 0x70, 0x3e,
  0x03, 0x41, 0x7a, 0x3e, 0x82, 0x5e, 0x8a, 0xbe, 0x5c, 0x36, 0xfc, 0xbd,
  0x06, 0xff, 0xff, 0xff, 0x04, 0x00, 0x00, 0x00, 0x0c, 0x00, 0x00, 0x00,
  0x00, 0x00, 0x00, 0x00, 0x00, 0x00, 0x00, 0x00, 0x10, 0x00, 0x00, 0x00,
  0x1e, 0xff, 0xff, 0xff, 0x04, 0x00, 0x00, 0x00, 0x0c, 0x00, 0x00, 0x00,
  0x00, 0x00, 0x00, 0x00, 0x00, 0x00, 0x00, 0x00, 0x08, 0x00, 0x00, 0x00,
  0x36, 0xff, 0xff, 0xff, 0x04, 0x00, 0x00, 0x00, 0x08, 0x00, 0x00, 0x00,
  0x00, 0x00, 0x00, 0x00, 0x10, 0x00, 0x00, 0x00, 0x4a, 0xff, 0xff, 0xff,
  0x04, 0x00, 0x00, 0x00, 0x08, 0x00, 0x00, 0x00, 0x00, 0x00, 0x00, 0x00,
  0x08, 0x00, 0x00, 0x00, 0x5e, 0xff, 0xff, 0xff, 0x04, 0x00, 0x00, 0x00,
  0x08, 0x00, 0x00, 0x00, 0x00, 0x00, 0x00, 0x00, 0x00, 0x00, 0x00, 0x00,
  0x72, 0xff, 0xff, 0xff, 0x04, 0x00, 0x00, 0x00, 0x0c, 0x00, 0x00, 0x00,
  0x02, 0x00, 0x00, 0x00, 0x00, 0x00, 0x00, 0x00, 0x00, 0x00, 0x00, 0x00,
  0x8a, 0xff, 0xff, 0xff, 0x04, 0x00, 0x00, 0x00, 0x0c, 0x00, 0x00, 0x00,
  0x01, 0x00, 0x00, 0x00, 0x00, 0x00, 0x00, 0x00, 0x00, 0x00, 0x00, 0x00,
  0xa2, 0xff, 0xff, 0xff, 0x04, 0x00, 0x00, 0x00, 0x0c, 0x00, 0x00, 0x00,
  0x01, 0x00, 0x00, 0x00, 0x01, 0x00, 0x00, 0x00, 0x08, 0x00, 0x00, 0x00,
  0xba, 0xff, 0xff, 0xff, 0x04, 0x00, 0x00, 0x00, 0x0c, 0x00, 0x00, 0x00,
  0x00, 0x00, 0x00, 0x00, 0x00, 0x00, 0x00, 0x00, 0x00, 0x00, 0x00, 0x00,
  0xd2, 0xff, 0xff, 0xff, 0x04, 0x00, 0x00, 0x00, 0x08, 0x00, 0x00, 0x00,
  0x01, 0x00, 0x00, 0x00, 0x08, 0x00, 0x00, 0x00, 0xe6, 0xff, 0xff, 0xff,
  0x04, 0x00, 0x00, 0x00, 0x0c, 0x00, 0x00, 0x00, 0x03, 0x00, 0x00, 0x00,
  0x01, 0x00, 0x00, 0x00, 0x08, 0x00, 0x00, 0x00, 0x00, 0x00, 0x06, 0x00,
  0x08, 0x00, 0x04, 0x00, 0x06, 0x00, 0x00, 0x00, 0x04, 0x00, 0x00, 0x00,
  0x0c, 0x00, 0x00, 0x00, 0x01, 0x00, 0x00, 0x00, 0x01, 0x00, 0x00, 0x00,
  0x01, 0x00, 0x00, 0x00, 0x68, 0xc5, 0xff, 0xff, 0x6c, 0xc5, 0xff, 0xff,
  0x70, 0xc5, 0xff, 0xff, 0x0f, 0x00, 0x00, 0x00, 0x4d, 0x4c, 0x49, 0x52,
  0x20, 0x43, 0x6f, 0x6e, 0x76, 0x65, 0x72, 0x74, 0x65, 0x64, 0x2e, 0x00,
  0x01, 0x00, 0x00, 0x00, 0x14, 0x00, 0x00, 0x00, 0x00, 0x00, 0x0e, 0x00,
  0x18, 0x00, 0x14, 0x00, 0x10, 0x00, 0x0c, 0x00, 0x08, 0x00, 0x04, 0x00,
  0x0e, 0x00, 0x00, 0x00, 0x14, 0x00, 0x00, 0x00, 0x1c, 0x00, 0x00, 0x00,
  0x18, 0x0c, 0x00, 0x00, 0x20, 0x0c, 0x00, 0x00, 0x28, 0x0c, 0x00, 0x00,
  0x04, 0x00, 0x00, 0x00, 0x6d, 0x61, 0x69, 0x6e, 0x00, 0x00, 0x00, 0x00,
  0x41, 0x00, 0x00, 0x00, 0xd8, 0x0b, 0x00, 0x00, 0xa4, 0x0b, 0x00, 0x00,
  0x7c, 0x0b, 0x00, 0x00, 0x44, 0x0b, 0x00, 0x00, 0x0c, 0x0b, 0x00, 0x00,
  0xe4, 0x0a, 0x00, 0x00, 0xbc, 0x0a, 0x00, 0x00, 0x74, 0x0a, 0x00, 0x00,
  0x3c, 0x0a, 0x00, 0x00, 0x14, 0x0a, 0x00, 0x00, 0xec, 0x09, 0x00, 0x00,
  0xb8, 0x09, 0x00, 0x00, 0x94, 0x09, 0x00, 0x00, 0x54, 0x09, 0x00, 0x00,
  0x30, 0x09, 0x00, 0x00, 0xfc, 0x08, 0x00, 0x00, 0xc8, 0x08, 0x00, 0x00,
  0xa4, 0x08, 0x00, 0x00, 0x70, 0x08, 0x00, 0x00, 0x3c, 0x08, 0x00, 0x00,
  0x08, 0x08, 0x00, 0x00, 0xe0, 0x07, 0x00, 0x00, 0xa8, 0x07, 0x00, 0x00,
  0x80, 0x07, 0x00, 0x00, 0x58, 0x07, 0x00, 0x00, 0x30, 0x07, 0x00, 0x00,
  0xf4, 0x06, 0x00, 0x00, 0xcc, 0x06, 0x00, 0x00, 0xa4, 0x06, 0x00, 0x00,
  0x7c, 0x06, 0x00, 0x00, 0x48, 0x06, 0x00, 0x00, 0x24, 0x06, 0x00, 0x00,
  0xf0, 0x05, 0x00, 0x00, 0xcc, 0x05, 0x00, 0x00, 0x98, 0x05, 0x00, 0x00,
  0x64, 0x05, 0x00, 0x00, 0x40, 0x05, 0x00, 0x00, 0x0c, 0x05, 0x00, 0x00,
  0xd8, 0x04, 0x00, 0x00, 0xa4, 0x04, 0x00, 0x00, 0x7c, 0x04, 0x00, 0x00,
  0x44, 0x04, 0x00, 0x00, 0x1c, 0x04, 0x00, 0x00, 0xf4, 0x03, 0x00, 0x00,
  0xcc, 0x03, 0x00, 0x00, 0x90, 0x03, 0x00, 0x00, 0x68, 0x03, 0x00, 0x00,
  0x40, 0x03, 0x00, 0x00, 0x18, 0x03, 0x00, 0x00, 0xe4, 0x02, 0x00, 0x00,
  0xc0, 0x02, 0x00, 0x00, 0x8c, 0x02, 0x00, 0x00, 0x68, 0x02, 0x00, 0x00,
  0x34, 0x02, 0x00, 0x00, 0x00, 0x02, 0x00, 0x00, 0xdc, 0x01, 0x00, 0x00,
  0xa8, 0x01, 0x00, 0x00, 0x74, 0x01, 0x00, 0x00, 0x40, 0x01, 0x00, 0x00,
  0x18, 0x01, 0x00, 0x00, 0xe0, 0x00, 0x00, 0x00, 0xb8, 0x00, 0x00, 0x00,
  0x74, 0x00, 0x00, 0x00, 0x2c, 0x00, 0x00, 0x00, 0x04, 0x00, 0x00, 0x00,
  0x4a, 0xf7, 0xff, 0xff, 0x0c, 0x00, 0x00, 0x00, 0x10, 0x00, 0x00, 0x00,
  0x07, 0x00, 0x00, 0x00, 0x01, 0x00, 0x00, 0x00, 0x5e, 0x00, 0x00, 0x00,
  0x02, 0x00, 0x00, 0x00, 0x5d, 0x00, 0x00, 0x00, 0x02, 0x00, 0x00, 0x00,
  0xa6, 0xf6, 0xff, 0xff, 0x20, 0x00, 0x00, 0x00, 0x00, 0x00, 0x00, 0x08,
  0x20, 0x00, 0x00, 0x00, 0x24, 0x00, 0x00, 0x00, 0x01, 0x00, 0x00, 0x00,
  0x00, 0x00, 0x0a, 0x00, 0x08, 0x00, 0x07, 0x00, 0x00, 0x00, 0x06, 0x00,
  0x0a, 0x00, 0x00, 0x00, 0x00, 0x00, 0x01, 0x01, 0x01, 0x00, 0x00, 0x00,
  0x5d, 0x00, 0x00, 0x00, 0x03, 0x00, 0x00, 0x00, 0x5c, 0x00, 0x00, 0x00,
  0x1d, 0x00, 0x00, 0x00, 0x0f, 0x00, 0x00, 0x00, 0xea, 0xf6, 0xff, 0xff,
  0x1c, 0x00, 0x00, 0x00, 0x00, 0x00, 0x00, 0x08, 0x1c, 0x00, 0x00, 0x00,
  0x20, 0x00, 0x00, 0x00, 0x01, 0x00, 0x00, 0x00, 0x00, 0x00, 0x06, 0x00,
  0x08, 0x00, 0x07, 0x00, 0x06, 0x00, 0x00, 0x00, 0x00, 0x00, 0x00, 0x01,
  0x01, 0x00, 0x00, 0x00, 0x5c, 0x00, 0x00, 0x00, 0x03, 0x00, 0x00, 0x00,
  0x58, 0x00, 0x00, 0x00, 0x1c, 0x00, 0x00, 0x00, 0x0e, 0x00, 0x00, 0x00,
  0xf2, 0xf7, 0xff, 0xff, 0x0c, 0x00, 0x00, 0x00, 0x10, 0x00, 0x00, 0x00,
  0x07, 0x00, 0x00, 0x00, 0x01, 0x00, 0x00, 0x00, 0x5b, 0x00, 0x00, 0x00,
  0x02, 0x00, 0x00, 0x00, 0x5a, 0x00, 0x00, 0x00, 0x03, 0x00, 0x00, 0x00,
  0x8e, 0xf6, 0xff, 0xff, 0x14, 0x00, 0x00, 0x00, 0x00, 0x00, 0x00, 0x0a,
  0x10, 0x00, 0x00, 0x00, 0x14, 0x00, 0x00, 0x00, 0x08, 0x00, 0x00, 0x00,
  0xb0, 0xc7, 0xff, 0xff, 0x01, 0x00, 0x00, 0x00, 0x5a, 0x00, 0x00, 0x00,
  0x03, 0x00, 0x00, 0x00, 0x33, 0x00, 0x00, 0x00, 0x46, 0x00, 0x00, 0x00,
  0x59, 0x00, 0x00, 0x00, 0x4a, 0xf8, 0xff, 0xff, 0x0c, 0x00, 0x00, 0x00,
  0x10, 0x00, 0x00, 0x00, 0x07, 0x00, 0x00, 0x00, 0x01, 0x00, 0x00, 0x00,
  0x59, 0x00, 0x00, 0x00, 0x02, 0x00, 0x00, 0x00, 0x58, 0x00, 0x00, 0x00,
  0x04, 0x00, 0x00, 0x00, 0xe6, 0xf6, 0xff, 0xff, 0x14, 0x00, 0x00, 0x00,
  0x00, 0x00, 0x00, 0x0b, 0x10, 0x00, 0x00, 0x00, 0x14, 0x00, 0x00, 0x00,
  0x02, 0x00, 0x00, 0x00, 0x08, 0xc8, 0xff, 0xff, 0x01, 0x00, 0x00, 0x00,
  0x58, 0x00, 0x00, 0x00, 0x02, 0x00, 0x00, 0x00, 0x57, 0x00, 0x00, 0x00,
  0x55, 0x00, 0x00, 0x00, 0x16, 0xf7, 0xff, 0xff, 0x14, 0x00, 0x00, 0x00,
  0x00, 0x00, 0x00, 0x15, 0x10, 0x00, 0x00, 0x00, 0x14, 0x00, 0x00, 0x00,
  0x04, 0x00, 0x00, 0x00, 0x38, 0xc8, 0xff, 0xff, 0x01, 0x00, 0x00, 0x00,
  0x57, 0x00, 0x00, 0x00, 0x02, 0x00, 0x00, 0x00, 0x56, 0x00, 0x00, 0x00,
  0x52, 0x00, 0x00, 0x00, 0x46, 0xf7, 0xff, 0xff, 0x14, 0x00, 0x00, 0x00,
  0x00, 0x00, 0x00, 0x1c, 0x10, 0x00, 0x00, 0x00, 0x14, 0x00, 0x00, 0x00,
  0x06, 0x00, 0x00, 0x00, 0x68, 0xc8, 0xff, 0xff, 0x01, 0x00, 0x00, 0x00,
  0x56, 0x00, 0x00, 0x00, 0x02, 0x00, 0x00, 0x00, 0x20, 0x00, 0x00, 0x00,
  0x55, 0x00, 0x00, 0x00, 0xfe, 0xf8, 0xff, 0xff, 0x0c, 0x00, 0x00, 0x00,
  0x10, 0x00, 0x00, 0x00, 0x05, 0x00, 0x00, 0x00, 0x01, 0x00, 0x00, 0x00,
  0x55, 0x00, 0x00, 0x00, 0x01, 0x00, 0x00, 0x00, 0x54, 0x00, 0x00, 0x00,
  0x96, 0xf7, 0xff, 0xff, 0x14, 0x00, 0x00, 0x00, 0x00, 0x00, 0x00, 0x0b,
  0x10, 0x00, 0x00, 0x00, 0x14, 0x00, 0x00, 0x00, 0x02, 0x00, 0x00, 0x00,
  0xb8, 0xc8, 0xff, 0xff, 0x01, 0x00, 0x00, 0x00, 0x54, 0x00, 0x00, 0x00,
  0x02, 0x00, 0x00, 0x00, 0x4a, 0x00, 0x00, 0x00, 0x53, 0x00, 0x00, 0x00,
  0xc6, 0xf7, 0xff, 0xff, 0x14, 0x00, 0x00, 0x00, 0x00, 0x00, 0x00, 0x15,
  0x10, 0x00, 0x00, 0x00, 0x14, 0x00, 0x00, 0x00, 0x04, 0x00, 0x00, 0x00,
  0xe8, 0xc8, 0xff, 0xff, 0x01, 0x00, 0x00, 0x00, 0x53, 0x00, 0x00, 0x00,
  0x02, 0x00, 0x00, 0x00, 0x4e, 0x00, 0x00, 0x00, 0x50, 0x00, 0x00, 0x00,
  0x7e, 0xf9, 0xff, 0xff, 0x0c, 0x00, 0x00, 0x00, 0x10, 0x00, 0x00, 0x00,
  0x03, 0x00, 0x00, 0x00, 0x01, 0x00, 0x00, 0x00, 0x52, 0x00, 0x00, 0x00,
  0x01, 0x00, 0x00, 0x00, 0x51, 0x00, 0x00, 0x00, 0x16, 0xf8, 0xff, 0xff,
  0x14, 0x00, 0x00, 0x00, 0x00, 0x00, 0x00, 0x0b, 0x10, 0x00, 0x00, 0x00,
  0x14, 0x00, 0x00, 0x00, 0x02, 0x00, 0x00, 0x00, 0x38, 0xc9, 0xff, 0xff,
  0x01, 0x00, 0x00, 0x00, 0x51, 0x00, 0x00, 0x00, 0x02, 0x00, 0x00, 0x00,
  0x4d, 0x00, 0x00, 0x00, 0x49, 0x00, 0x00, 0x00, 0xce, 0xf9, 0xff, 0xff,
  0x0c, 0x00, 0x00, 0x00, 0x10, 0x00, 0x00, 0x00, 0x03, 0x00, 0x00, 0x00,
  0x01, 0x00, 0x00, 0x00, 0x50, 0x00, 0x00, 0x00, 0x01, 0x00, 0x00, 0x00,
  0x4f, 0x00, 0x00, 0x00, 0x66, 0xf8, 0xff, 0xff, 0x14, 0x00, 0x00, 0x00,
  0x00, 0x00, 0x00, 0x0b, 0x10, 0x00, 0x00, 0x00, 0x14, 0x00, 0x00, 0x00,
  0x02, 0x00, 0x00, 0x00, 0x88, 0xc9, 0xff, 0xff, 0x01, 0x00, 0x00, 0x00,
  0x4f, 0x00, 0x00, 0x00, 0x02, 0x00, 0x00, 0x00, 0x4c, 0x00, 0x00, 0x00,
  0x48, 0x00, 0x00, 0x00, 0x0a, 0xf8, 0xff, 0xff, 0x08, 0x00, 0x00, 0x00,
  0x0c, 0x00, 0x00, 0x00, 0x01, 0x00, 0x00, 0x00, 0x4e, 0x00, 0x00, 0x00,
  0x03, 0x00, 0x00, 0x00, 0x4b, 0x00, 0x00, 0x00, 0x0d, 0x00, 0x00, 0x00,
  0x06, 0x00, 0x00, 0x00, 0x2e, 0xf8, 0xff, 0xff, 0x08, 0x00, 0x00, 0x00,
  0x0c, 0x00, 0x00, 0x00, 0x01, 0x00, 0x00, 0x00, 0x4d, 0x00, 0x00, 0x00,
  0x03, 0x00, 0x00, 0x00, 0x4b, 0x00, 0x00, 0x00, 0x0c, 0x00, 0x00, 0x00,
  0x06, 0x00, 0x00, 0x00, 0x52, 0xf8, 0xff, 0xff, 0x08, 0x00, 0x00, 0x00,
  0x0c, 0x00, 0x00, 0x00, 0x01, 0x00, 0x00, 0x00, 0x4c, 0x00, 0x00, 0x00,
  0x03, 0x00, 0x00, 0x00, 0x4b, 0x00, 0x00, 0x00, 0x05, 0x00, 0x00, 0x00,
  0x06, 0x00, 0x00, 0x00, 0x02, 0xf9, 0xff, 0xff, 0x14, 0x00, 0x00, 0x00,
  0x00, 0x00, 0x00, 0x08, 0x14, 0x00, 0x00, 0x00, 0x18, 0x00, 0x00, 0x00,
  0x01, 0x00, 0x00, 0x00, 0xb2, 0xf9, 0xff, 0xff, 0x00, 0x00, 0x00, 0x01,
  0x01, 0x00, 0x00, 0x00, 0x4b, 0x00, 0x00, 0x00, 0x03, 0x00, 0x00, 0x00,
  0x20, 0x00, 0x00, 0x00, 0x16, 0x00, 0x00, 0x00, 0x10, 0x00, 0x00, 0x00,
  0xae, 0xf8, 0xff, 0xff, 0x08, 0x00, 0x00, 0x00, 0x0c, 0x00, 0x00, 0x00,
  0x01, 0x00, 0x00, 0x00, 0x4a, 0x00, 0x00, 0x00, 0x03, 0x00, 0x00, 0x00,
  0x47, 0x00, 0x00, 0x00, 0x0b, 0x00, 0x00, 0x00, 0x04, 0x00, 0x00, 0x00,
  0xd2, 0xf8, 0xff, 0xff, 0x08, 0x00, 0x00, 0x00, 0x0c, 0x00, 0x00, 0x00,
  0x01, 0x00, 0x00, 0x00, 0x49, 0x00, 0x00, 0x00, 0x03, 0x00, 0x00, 0x00,
  0x47, 0x00, 0x00, 0x00, 0x0a, 0x00, 0x00, 0x00, 0x04, 0x00, 0x00, 0x00,
  0xf6, 0xf8, 0xff, 0xff, 0x08, 0x00, 0x00, 0x00, 0x0c, 0x00, 0x00, 0x00,
  0x01, 0x00, 0x00, 0x00, 0x48, 0x00, 0x00, 0x00, 0x03, 0x00, 0x00, 0x00,
  0x47, 0x00, 0x00, 0x00, 0x09, 0x00, 0x00, 0x00, 0x04, 0x00, 0x00, 0x00,
  0xa6, 0xf9, 0xff, 0xff, 0x14, 0x00, 0x00, 0x00, 0x00, 0x00, 0x00, 0x08,
  0x10, 0x00, 0x00, 0x00, 0x14, 0x00, 0x00, 0x00, 0x01, 0x00, 0x00, 0x00,
  0xc8, 0xca, 0xff, 0xff, 0x01, 0x00, 0x00, 0x00, 0x47, 0x00, 0x00, 0x00,
  0x03, 0x00, 0x00, 0x00, 0x45, 0x00, 0x00, 0x00, 0x17, 0x00, 0x00, 0x00,
  0x11, 0x00, 0x00, 0x00, 0x62, 0xfb, 0xff, 0xff, 0x0c, 0x00, 0x00, 0x00,
  0x10, 0x00, 0x00, 0x00, 0x07, 0x00, 0x00, 0x00, 0x01, 0x00, 0x00, 0x00,
  0x46, 0x00, 0x00, 0x00, 0x02, 0x00, 0x00, 0x00, 0x45, 0x00, 0x00, 0x00,
  0x04, 0x00, 0x00, 0x00, 0xfe, 0xf9, 0xff, 0xff, 0x14, 0x00, 0x00, 0x00,
  0x00, 0x00, 0x00, 0x0b, 0x10, 0x00, 0x00, 0x00, 0x14, 0x00, 0x00, 0x00,
  0x02, 0x00, 0x00, 0x00, 0x20, 0xcb, 0xff, 0xff, 0x01, 0x00, 0x00, 0x00,
  0x45, 0x00, 0x00, 0x00, 0x02, 0x00, 0x00, 0x00, 0x44, 0x00, 0x00, 0x00,
  0x42, 0x00, 0x00, 0x00, 0x2e, 0xfa, 0xff, 0xff, 0x14, 0x00, 0x00, 0x00,
  0x00, 0x00, 0x00, 0x15, 0x10, 0x00, 0x00, 0x00, 0x14, 0x00, 0x00, 0x00,
  0x04, 0x00, 0x00, 0x00, 0x50, 0xcb, 0xff, 0xff, 0x01, 0x00, 0x00, 0x00,
  0x44, 0x00, 0x00, 0x00, 0x02, 0x00, 0x00, 0x00, 0x43, 0x00, 0x00, 0x00,
  0x3f, 0x00, 0x00, 0x00, 0x5e, 0xfa, 0xff, 0xff, 0x14, 0x00, 0x00, 0x00,
  0x00, 0x00, 0x00, 0x1c, 0x10, 0x00, 0x00, 0x00, 0x14, 0x00, 0x00, 0x00,
  0x06, 0x00, 0x00, 0x00, 0x80, 0xcb, 0xff, 0xff, 0x01, 0x00, 0x00, 0x00,
  0x43, 0x00, 0x00, 0x00, 0x02, 0x00, 0x00, 0x00, 0x1f, 0x00, 0x00, 0x00,
  0x42, 0x00, 0x00, 0x00, 0x16, 0xfc, 0xff, 0xff, 0x0c, 0x00, 0x00, 0x00,
  0x10, 0x00, 0x00, 0x00, 0x05, 0x00, 0x00, 0x00, 0x01, 0x00, 0x00, 0x00,
  0x42, 0x00, 0x00, 0x00, 0x01, 0x00, 0x00, 0x00, 0x41, 0x00, 0x00, 0x00,
  0xae, 0xfa, 0xff, 0xff, 0x14, 0x00, 0x00, 0x00, 0x00, 0x00, 0x00, 0x0b,
  0x10, 0x00, 0x00, 0x00, 0x14, 0x00, 0x00, 0x00, 0x02, 0x00, 0x00, 0x00,
  0xd0, 0xcb, 0xff, 0xff, 0x01, 0x00, 0x00, 0x00, 0x41, 0x00, 0x00, 0x00,
  0x02, 0x00, 0x00, 0x00, 0x37, 0x00, 0x00, 0x00, 0x40, 0x00, 0x00, 0x00,
  0xde, 0xfa, 0xff, 0xff, 0x14, 0x00, 0x00, 0x00, 0x00, 0x00, 0x00, 0x15,
  0x10, 0x00, 0x00, 0x00, 0x14, 0x00, 0x00, 0x00, 0x04, 0x00, 0x00, 0x00,
  0x00, 0xcc, 0xff, 0xff, 0x01, 0x00, 0x00, 0x00, 0x40, 0x00, 0x00, 0x00,
  0x02, 0x00, 0x00, 0x00, 0x3b, 0x00, 0x00, 0x00, 0x3d, 0x00, 0x00, 0x00,
  0x96, 0xfc, 0xff, 0xff, 0x0c, 0x00, 0x00, 0x00, 0x10, 0x00, 0x00, 0x00,
  0x03, 0x00, 0x00, 0x00, 0x01, 0x00, 0x00, 0x00, 0x3f, 0x00, 0x00, 0x00,
  0x01, 0x00, 0x00, 0x00, 0x3e, 0x00, 0x00, 0x00, 0x2e, 0xfb, 0xff, 0xff,
  0x14, 0x00, 0x00, 0x00, 0x00, 0x00, 0x00, 0x0b, 0x10, 0x00, 0x00, 0x00,
  0x14, 0x00, 0x00, 0x00, 0x02, 0x00, 0x00, 0x00, 0x50, 0xcc, 0xff, 0xff,
  0x01, 0x00, 0x00, 0x00, 0x3e, 0x00, 0x00, 0x00, 0x02, 0x00, 0x00, 0x00,
  0x3a, 0x00, 0x00, 0x00, 0x36, 0x00, 0x00, 0x00, 0xe6, 0xfc, 0xff, 0xff,
  0x0c, 0x00, 0x00, 0x00, 0x10, 0x00, 0x00, 0x00, 0x03, 0x00, 0x00, 0x00,
  0x01, 0x00, 0x00, 0x00, 0x3d, 0x00, 0x00, 0x00, 0x01, 0x00, 0x00, 0x00,
  0x3c, 0x00, 0x00, 0x00, 0x7e, 0xfb, 0xff, 0xff, 0x14, 0x00, 0x00, 0x00,
  0x00, 0x00, 0x00, 0x0b, 0x10, 0x00, 0x00, 0x00, 0x14, 0x00, 0x00, 0x00,
  0x02, 0x00, 0x00, 0x00, 0xa0, 0xcc, 0xff, 0xff, 0x01, 0x00, 0x00, 0x00,
  0x3c, 0x00, 0x00, 0x00, 0x02, 0x00, 0x00, 0x00, 0x39, 0x00, 0x00, 0x00,
  0x35, 0x00, 0x00, 0x00, 0x22, 0xfb, 0xff, 0xff, 0x08, 0x00, 0x00, 0x00,
  0x0c, 0x00, 0x00, 0x00, 0x01, 0x00, 0x00, 0x00, 0x3b, 0x00, 0x00, 0x00,
  0x03, 0x00, 0x00, 0x00, 0x38, 0x00, 0x00, 0x00, 0x0d, 0x00, 0x00, 0x00,
  0x06, 0x00, 0x00, 0x00, 0x46, 0xfb, 0xff, 0xff, 0x08, 0x00, 0x00, 0x00,
  0x0c, 0x00, 0x00, 0x00, 0x01, 0x00, 0x00, 0x00, 0x3a, 0x00, 0x00, 0x00,
  0x03, 0x00, 0x00, 0x00, 0x38, 0x00, 0x00, 0x00, 0x0c, 0x00, 0x00, 0x00,
  0x06, 0x00, 0x00, 0x00, 0x6a, 0xfb, 0xff, 0xff, 0x08, 0x00, 0x00, 0x00,
  0x0c, 0x00, 0x00, 0x00, 0x01, 0x00, 0x00, 0x00, 0x39, 0x00, 0x00, 0x00,
  0x03, 0x00, 0x00, 0x00, 0x38, 0x00, 0x00, 0x00, 0x05, 0x00, 0x00, 0x00,
  0x06, 0x00, 0x00, 0x00, 0x1a, 0xfc, 0xff, 0xff, 0x14, 0x00, 0x00, 0x00,
  0x00, 0x00, 0x00, 0x08, 0x14, 0x00, 0x00, 0x00, 0x18, 0x00, 0x00, 0x00,
  0x01, 0x00, 0x00, 0x00, 0xca, 0xfc, 0xff, 0xff, 0x00, 0x00, 0x00, 0x01,
  0x01, 0x00, 0x00, 0x00, 0x38, 0x00, 0x00, 0x00, 0x03, 0x00, 0x00, 0x00,
  0x1f, 0x00, 0x00, 0x00, 0x18, 0x00, 0x00, 0x00, 0x12, 0x00, 0x00, 0x00,
  0xc6, 0xfb, 0xff, 0xff, 0x08, 0x00, 0x00, 0x00, 0x0c, 0x00, 0x00, 0x00,
  0x01, 0x00, 0x00, 0x00, 0x37, 0x00, 0x00, 0x00, 0x03, 0x00, 0x00, 0x00,
  0x34, 0x00, 0x00, 0x00, 0x0b, 0x00, 0x00, 0x00, 0x04, 0x00, 0x00, 0x00,
  0xea, 0xfb, 0xff, 0xff, 0x08, 0x00, 0x00, 0x00, 0x0c, 0x00, 0x00, 0x00,
  0x01, 0x00, 0x00, 0x00, 0x36, 0x00, 0x00, 0x00, 0x03, 0x00, 0x00, 0x00,
  0x34, 0x00, 0x00, 0x00, 0x0a, 0x00, 0x00, 0x00, 0x04, 0x00, 0x00, 0x00,
  0x0e, 0xfc, 0xff, 0xff, 0x08, 0x00, 0x00, 0x00, 0x0c, 0x00, 0x00, 0x00,
  0x01, 0x00, 0x00, 0x00, 0x35, 0x00, 0x00, 0x00, 0x03, 0x00, 0x00, 0x00,
  0x34, 0x00, 0x00, 0x00, 0x09, 0x00, 0x00, 0x00, 0x04, 0x00, 0x00, 0x00,
  0xbe, 0xfc, 0xff, 0xff, 0x14, 0x00, 0x00, 0x00, 0x00, 0x00, 0x00, 0x08,
  0x10, 0x00, 0x00, 0x00, 0x14, 0x00, 0x00, 0x00, 0x01, 0x00, 0x00, 0x00,
  0xe0, 0xcd, 0xff, 0xff, 0x01, 0x00, 0x00, 0x00, 0x34, 0x00, 0x00, 0x00,
  0x03, 0x00, 0x00, 0x00, 0x32, 0x00, 0x00, 0x00, 0x19, 0x00, 0x00, 0x00,
  0x13, 0x00, 0x00, 0x00, 0x7a, 0xfe, 0xff, 0xff, 0x0c, 0x00, 0x00, 0x00,
  0x10, 0x00, 0x00, 0x00, 0x07, 0x00, 0x00, 0x00, 0x01, 0x00, 0x00, 0x00,
  0x33, 0x00, 0x00, 0x00, 0x02, 0x00, 0x00, 0x00, 0x32, 0x00, 0x00, 0x00,
  0x04, 0x00, 0x00, 0x00, 0x16, 0xfd, 0xff, 0xff, 0x14, 0x00, 0x00, 0x00,
  0x00, 0x00, 0x00, 0x0b, 0x10, 0x00, 0x00, 0x00, 0x14, 0x00, 0x00, 0x00,
  0x02, 0x00, 0x00, 0x00, 0x38, 0xce, 0xff, 0xff, 0x01, 0x00, 0x00, 0x00,
  0x32, 0x00, 0x00, 0x00, 0x02, 0x00, 0x00, 0x00, 0x31, 0x00, 0x00, 0x00,
  0x2f, 0x00, 0x00, 0x00, 0x46, 0xfd, 0xff, 0xff, 0x14, 0x00, 0x00, 0x00,
  0x00, 0x00, 0x00, 0x15, 0x10, 0x00, 0x00, 0x00, 0x14, 0x00, 0x00, 0x00,
  0x04, 0x00, 0x00, 0x00, 0x68, 0xce, 0xff, 0xff, 0x01, 0x00, 0x00, 0x00,
  0x31, 0x00, 0x00, 0x00, 0x02, 0x00, 0x00, 0x00, 0x30, 0x00, 0x00, 0x00,
  0x2c, 0x00, 0x00, 0x00, 0x76, 0xfd, 0xff, 0xff, 0x14, 0x00, 0x00, 0x00,
  0x00, 0x00, 0x00, 0x1c, 0x10, 0x00, 0x00, 0x00, 0x14, 0x00, 0x00, 0x00,
  0x06, 0x00, 0x00, 0x00, 0x98, 0xce, 0xff, 0xff, 0x01, 0x00, 0x00, 0x00,
  0x30, 0x00, 0x00, 0x00, 0x02, 0x00, 0x00, 0x00, 0x1e, 0x00, 0x00, 0x00,
  0x2f, 0x00, 0x00, 0x00, 0x2e, 0xff, 0xff, 0xff, 0x0c, 0x00, 0x00, 0x00,
  0x10, 0x00, 0x00, 0x00, 0x05, 0x00, 0x00, 0x00, 0x01, 0x00, 0x00, 0x00,
  0x2f, 0x00, 0x00, 0x00, 0x01, 0x00, 0x00, 0x00, 0x2e, 0x00, 0x00, 0x00,
  0xc6, 0xfd, 0xff, 0xff, 0x14, 0x00, 0x00, 0x00, 0x00, 0x00, 0x00, 0x0b,
  0x10, 0x00, 0x00, 0x00, 0x14, 0x00, 0x00, 0x00, 0x02, 0x00, 0x00, 0x00,
  0xe8, 0xce, 0xff, 0xff, 0x01, 0x00, 0x00, 0x00, 0x2e, 0x00, 0x00, 0x00,
  0x02, 0x00, 0x00, 0x00, 0x24, 0x00, 0x00, 0x00, 0x2d, 0x00, 0x00, 0x00,
  0xf6, 0xfd, 0xff, 0xff, 0x14, 0x00, 0x00, 0x00, 0x00, 0x00, 0x00, 0x15,
  0x10, 0x00, 0x00, 0x00, 0x14, 0x00, 0x00, 0x00, 0x04, 0x00, 0x00, 0x00,
  0x18, 0xcf, 0xff, 0xff, 0x01, 0x00, 0x00, 0x00, 0x2d, 0x00, 0x00, 0x00,
  0x02, 0x00, 0x00, 0x00, 0x28, 0x00, 0x00, 0x00, 0x2a, 0x00, 0x00, 0x00,
  0xae, 0xff, 0xff, 0xff, 0x0c, 0x00, 0x00, 0x00, 0x10, 0x00, 0x00, 0x00,
  0x03, 0x00, 0x00, 0x00, 0x01, 0x00, 0x00, 0x00, 0x2c, 0x00, 0x00, 0x00,
  0x01, 0x00, 0x00, 0x00, 0x2b, 0x00, 0x00, 0x00, 0x46, 0xfe, 0xff, 0xff,
  0x14, 0x00, 0x00, 0x00, 0x00, 0x00, 0x00, 0x0b, 0x10, 0x00, 0x00, 0x00,
  0x14, 0x00, 0x00, 0x00, 0x02, 0x00, 0x00, 0x00, 0x68, 0xcf, 0xff, 0xff,
  0x01, 0x00, 0x00, 0x00, 0x2b, 0x00, 0x00, 0x00, 0x02, 0x00, 0x00, 0x00,
  0x27, 0x00, 0x00, 0x00, 0x23, 0x00, 0x00, 0x00, 0x00, 0x00, 0x0a, 0x00,
  0x10, 0x00, 0x0c, 0x00, 0x08, 0x00, 0x04, 0x00, 0x0a, 0x00, 0x00, 0x00,
  0x0c, 0x00, 0x00, 0x00, 0x10, 0x00, 0x00, 0x00, 0x03, 0x00, 0x00, 0x00,
  0x01, 0x00, 0x00, 0x00, 0x2a, 0x00, 0x00, 0x00, 0x01, 0x00, 0x00, 0x00,
  0x29, 0x00, 0x00, 0x00, 0xa2, 0xfe, 0xff, 0xff, 0x14, 0x00, 0x00, 0x00,
  0x00, 0x00, 0x00, 0x0b, 0x10, 0x00, 0x00, 0x00, 0x14, 0x00, 0x00, 0x00,
  0x02, 0x00, 0x00, 0x00, 0xc4, 0xcf, 0xff, 0xff, 0x01, 0x00, 0x00, 0x00,
  0x29, 0x00, 0x00, 0x00, 0x02, 0x00, 0x00, 0x00, 0x26, 0x00, 0x00, 0x00,
  0x22, 0x00, 0x00, 0x00, 0x46, 0xfe, 0xff, 0xff, 0x08, 0x00, 0x00, 0x00,
  0x0c, 0x00, 0x00, 0x00, 0x01, 0x00, 0x00, 0x00, 0x28, 0x00, 0x00, 0x00,
  0x03, 0x00, 0x00, 0x00, 0x25, 0x00, 0x00, 0x00, 0x0d, 0x00, 0x00, 0x00,
  0x06, 0x00, 0x00, 0x00, 0x6a, 0xfe, 0xff, 0xff, 0x08, 0x00, 0x00, 0x00,
  0x0c, 0x00, 0x00, 0x00, 0x01, 0x00, 0x00, 0x00, 0x27, 0x00, 0x00, 0x00,
  0x03, 0x00, 0x00, 0x00, 0x25, 0x00, 0x00, 0x00, 0x0c, 0x00, 0x00, 0x00,
  0x06, 0x00, 0x00, 0x00, 0x8e, 0xfe, 0xff, 0xff, 0x08, 0x00, 0x00, 0x00,
  0x0c, 0x00, 0x00, 0x00, 0x01, 0x00, 0x00, 0x00, 0x26, 0x00, 0x00, 0x00,
  0x03, 0x00, 0x00, 0x00, 0x25, 0x00, 0x00, 0x00, 0x05, 0x00, 0x00, 0x00,
  0x06, 0x00, 0x00, 0x00, 0x00, 0x00, 0x0e, 0x00, 0x1a, 0x00, 0x14, 0x00,
  0x10, 0x00, 0x0c, 0x00, 0x0b, 0x00, 0x04, 0x00, 0x0e, 0x00, 0x00, 0x00,
  0x20, 0x00, 0x00, 0x00, 0x00, 0x00, 0x00, 0x08, 0x20, 0x00, 0x00, 0x00,
  0x24, 0x00, 0x00, 0x00, 0x01, 0x00, 0x00, 0x00, 0x00, 0x00, 0x0a, 0x00,
  0x08, 0x00, 0x00, 0x00, 0x00, 0x00, 0x07, 0x00, 0x0a, 0x00, 0x00, 0x00,
  0x00, 0x00, 0x00, 0x01, 0x01, 0x00, 0x00, 0x00, 0x25, 0x00, 0x00, 0x00,
  0x03, 0x00, 0x00, 0x00, 0x1e, 0x00, 0x00, 0x00, 0x1a, 0x00, 0x00, 0x00,
  0x14, 0x00, 0x00, 0x00, 0x06, 0xff, 0xff, 0xff, 0x08, 0x00, 0x00, 0x00,
  0x0c, 0x00, 0x00, 0x00, 0x01, 0x00, 0x00, 0x00, 0x24, 0x00, 0x00, 0x00,
  0x03, 0x00, 0x00, 0x00, 0x21, 0x00, 0x00, 0x00, 0x0b, 0x00, 0x00, 0x00,
  0x04, 0x00, 0x00, 0x00, 0x2a, 0xff, 0xff, 0xff, 0x08, 0x00, 0x00, 0x00,
  0x0c, 0x00, 0x00, 0x00, 0x01, 0x00, 0x00, 0x00, 0x23, 0x00, 0x00, 0x00,
  0x03, 0x00, 0x00, 0x00, 0x21, 0x00, 0x00, 0x00, 0x0a, 0x00, 0x00, 0x00,
  0x04, 0x00, 0x00, 0x00, 0x4e, 0xff, 0xff, 0xff, 0x08, 0x00, 0x00, 0x00,
  0x0c, 0x00, 0x00, 0x00, 0x01, 0x00, 0x00, 0x00, 0x22, 0x00, 0x00, 0x00,
  0x03, 0x00, 0x00, 0x00, 0x21, 0x00, 0x00, 0x00, 0x09, 0x00, 0x00, 0x00,
  0x04, 0x00, 0x00, 0x00, 0x00, 0x00, 0x0e, 0x00, 0x18, 0x00, 0x14, 0x00,
  0x10, 0x00, 0x0c, 0x00, 0x0b, 0x00, 0x04, 0x00, 0x0e, 0x00, 0x00, 0x00,
  0x14, 0x00, 0x00, 0x00, 0x00, 0x00, 0x00, 0x08, 0x10, 0x00, 0x00, 0x00,
  0x14, 0x00, 0x00, 0x00, 0x01, 0x00, 0x00, 0x00, 0x30, 0xd1, 0xff, 0xff,
  0x01, 0x00, 0x00, 0x00, 0x21, 0x00, 0x00, 0x00, 0x03, 0x00, 0x00, 0x00,
  0x00, 0x00, 0x00, 0x00, 0x1b, 0x00, 0x00, 0x00, 0x15, 0x00, 0x00, 0x00,
  0xb6, 0xff, 0xff, 0xff, 0x08, 0x00, 0x00, 0x00, 0x0c, 0x00, 0x00, 0x00,
  0x01, 0x00, 0x00, 0x00, 0x20, 0x00, 0x00, 0x00, 0x03, 0x00, 0x00, 0x00,
  0x01, 0x00, 0x00, 0x00, 0x08, 0x00, 0x00, 0x00, 0x06, 0x00, 0x00, 0x00,
  0xda, 0xff, 0xff, 0xff, 0x08, 0x00, 0x00, 0x00, 0x0c, 0x00, 0x00, 0x00,
  0x01, 0x00, 0x00, 0x00, 0x1f, 0x00, 0x00, 0x00, 0x03, 0x00, 0x00, 0x00,
  0x01, 0x00, 0x00, 0x00, 0x07, 0x00, 0x00, 0x00, 0x06, 0x00, 0x00, 0x00,
  0x00, 0x00, 0x0a, 0x00, 0x0c, 0x00, 0x00, 0x00, 0x08, 0x00, 0x04, 0x00,
  0x0a, 0x00, 0x00, 0x00, 0x08, 0x00, 0x00, 0x00, 0x0c, 0x00, 0x00, 0x00,
  0x01, 0x00, 0x00, 0x00, 0x1e, 0x00, 0x00, 0x00, 0x03, 0x00, 0x00, 0x00,
  0x01, 0x00, 0x00, 0x00, 0x05, 0x00, 0x00, 0x00, 0x06, 0x00, 0x00, 0x00,
  0x02, 0x00, 0x00, 0x00, 0x5b, 0x00, 0x00, 0x00, 0x5e, 0x00, 0x00, 0x00,
  0x02, 0x00, 0x00, 0x00, 0x00, 0x00, 0x00, 0x00, 0x01, 0x00, 0x00, 0x00,
  0x5f, 0x00, 0x00, 0x00, 0x64, 0x2d, 0x00, 0x00, 0xfc, 0x2c, 0x00, 0x00,
  0xbc, 0x2c, 0x00, 0x00, 0x64, 0x2c, 0x00, 0x00, 0x24, 0x2c, 0x00, 0x00,
  0xe4, 0x2b, 0x00, 0x00, 0xa4, 0x2b, 0x00, 0x00, 0x44, 0x2b, 0x00, 0x00,
  0xe0, 0x2a, 0x00, 0x00, 0xa0, 0x2a, 0x00, 0x00, 0x60, 0x2a, 0x00, 0x00,
  0x20, 0x2a, 0x00, 0x00, 0xe0, 0x29, 0x00, 0x00, 0xa0, 0x29, 0x00, 0x00,
  0x04, 0x29, 0x00, 0x00, 0x68, 0x28, 0x00, 0x00, 0x08, 0x28, 0x00, 0x00,
  0xa8, 0x27, 0x00, 0x00, 0x48, 0x27, 0x00, 0x00, 0xe8, 0x26, 0x00, 0x00,
  0x88, 0x26, 0x00, 0x00, 0x28, 0x26, 0x00, 0x00, 0x84, 0x24, 0x00, 0x00,
  0xec, 0x22, 0x00, 0x00, 0x50, 0x21, 0x00, 0x00, 0xb4, 0x1f, 0x00, 0x00,
  0x18, 0x1e, 0x00, 0x00, 0x7c, 0x1c, 0x00, 0x00, 0x60, 0x1b, 0x00, 0x00,
  0x9c, 0x1a, 0x00, 0x00, 0x34, 0x1a, 0x00, 0x00, 0xcc, 0x19, 0x00, 0x00,
  0x64, 0x19, 0x00, 0x00, 0x00, 0x19, 0x00, 0x00, 0x9c, 0x18, 0x00, 0x00,
  0x38, 0x18, 0x00, 0x00, 0xd4, 0x17, 0x00, 0x00, 0x6c, 0x17, 0x00, 0x00,
  0x04, 0x17, 0x00, 0x00, 0x9c, 0x16, 0x00, 0x00, 0x34, 0x16, 0x00, 0x00,
  0xcc, 0x15, 0x00, 0x00, 0x64, 0x15, 0x00, 0x00, 0xfc, 0x14, 0x00, 0x00,
  0x94, 0x14, 0x00, 0x00, 0x2c, 0x14, 0x00, 0x00, 0xc4, 0x13, 0x00, 0x00,
  0x5c, 0x13, 0x00, 0x00, 0xf4, 0x12, 0x00, 0x00, 0x8c, 0x12, 0x00, 0x00,
  0x24, 0x12, 0x00, 0x00, 0xc0, 0x11, 0x00, 0x00, 0x5c, 0x11, 0x00, 0x00,
  0xf8, 0x10, 0x00, 0x00, 0x94, 0x10, 0x00, 0x00, 0x30, 0x10, 0x00, 0x00,
  0xc8, 0x0f, 0x00, 0x00, 0x60, 0x0f, 0x00, 0x00, 0xf8, 0x0e, 0x00, 0x00,
  0x90, 0x0e, 0x00, 0x00, 0x28, 0x0e, 0x00, 0x00, 0xc0, 0x0d, 0x00, 0x00,
  0x58, 0x0d, 0x00, 0x00, 0xf0, 0x0c, 0x00, 0x00, 0x88, 0x0c, 0x00, 0x00,
  0x20, 0x0c, 0x00, 0x00, 0xb8, 0x0b, 0x00, 0x00, 0x50, 0x0b, 0x00, 0x00,
  0xe8, 0x0a, 0x00, 0x00, 0x80, 0x0a, 0x00, 0x00, 0x1c, 0x0a, 0x00, 0x00,
  0xb8, 0x09, 0x00, 0x00, 0x54, 0x09, 0x00, 0x00, 0xf0, 0x08, 0x00, 0x00,
  0x8c, 0x08, 0x00, 0x00, 0x24, 0x08, 0x00, 0x00, 0xbc, 0x07, 0x00, 0x00,
  0x54, 0x07, 0x00, 0x00, 0xec, 0x06, 0x00, 0x00, 0x84, 0x06, 0x00, 0x00,
  0x1c, 0x06, 0x00, 0x00, 0xb4, 0x05, 0x00, 0x00, 0x4c, 0x05, 0x00, 0x00,
  0xe4, 0x04, 0x00, 0x00, 0x7c, 0x04, 0x00, 0x00, 0x14, 0x04, 0x00, 0x00,
  0xac, 0x03, 0x00, 0x00, 0x44, 0x03, 0x00, 0x00, 0xdc, 0x02, 0x00, 0x00,
  0x78, 0x02, 0x00, 0x00, 0x14, 0x02, 0x00, 0x00, 0xc4, 0x01, 0x00, 0x00,
  0xf4, 0x00, 0x00, 0x00, 0x54, 0x00, 0x00, 0x00, 0x04, 0x00, 0x00, 0x00,
  0x2e, 0xd4, 0xff, 0xff, 0x00, 0x00, 0x00, 0x01, 0x10, 0x00, 0x00, 0x00,
  0x10, 0x00, 0x00, 0x00, 0x5f, 0x00, 0x00, 0x00, 0x28, 0x00, 0x00, 0x00,
  0x74, 0xd3, 0xff, 0xff, 0x19, 0x00, 0x00, 0x00, 0x53, 0x74, 0x61, 0x74,
  0x65, 0x66, 0x75, 0x6c, 0x50, 0x61, 0x72, 0x74, 0x69, 0x74, 0x69, 0x6f,
  0x6e, 0x65, 0x64, 0x43, 0x61, 0x6c, 0x6c, 0x3a, 0x30, 0x00, 0x00, 0x00,
  0x03, 0x00, 0x00, 0x00, 0x01, 0x00, 0x00, 0x00, 0x01, 0x00, 0x00, 0x00,
  0x01, 0x00, 0x00, 0x00, 0x7a, 0xd4, 0xff, 0xff, 0x00, 0x00, 0x00, 0x01,
  0x10, 0x00, 0x00, 0x00, 0x10, 0x00, 0x00, 0x00, 0x5e, 0x00, 0x00, 0x00,
  0x7c, 0x00, 0x00, 0x00, 0xc0, 0xd3, 0xff, 0xff, 0x6e, 0x00, 0x00, 0x00,
  0x5f, 0x5f, 0x6d, 0x61, 0x69, 0x6e, 0x5f, 0x5f, 0x2e, 0x47, 0x52, 0x55,
  0x5f, 0x4e, 0x4e, 0x5f, 0x32, 0x2f, 0x74, 0x6f, 0x72, 0x63, 0x68, 0x2e,
  0x6e, 0x6e, 0x2e, 0x6d, 0x6f, 0x64, 0x75, 0x6c, 0x65, 0x73, 0x2e, 0x6c,
  0x69, 0x6e, 0x65, 0x61, 0x72, 0x2e, 0x4c, 0x69, 0x6e, 0x65, 0x61, 0x72,
  0x5f, 0x66, 0x63, 0x32, 0x3b, 0x3b, 0x5f, 0x5f, 0x6d, 0x61, 0x69, 0x6e,
  0x5f, 0x5f, 0x2e, 0x47, 0x52, 0x55, 0x5f, 0x4e, 0x4e, 0x5f, 0x32, 0x2f,
  0x74, 0x6f, 0x72, 0x63, 0x68, 0x2e, 0x6e, 0x6e, 0x2e, 0x6d, 0x6f, 0x64,
  0x75, 0x6c, 0x65, 0x73, 0x2e, 0x61, 0x63, 0x74, 0x69, 0x76, 0x61, 0x74,
  0x69, 0x6f, 0x6e, 0x2e, 0x52, 0x65, 0x4c, 0x55, 0x5f, 0x72, 0x65, 0x6c,
  0x75, 0x3b, 0x00, 0x00, 0x02, 0x00, 0x00, 0x00, 0x01, 0x00, 0x00, 0x00,
  0x01, 0x00, 0x00, 0x00, 0x16, 0xd5, 0xff, 0xff, 0x00, 0x00, 0x00, 0x01,
  0x10, 0x00, 0x00, 0x00, 0x10, 0x00, 0x00, 0x00, 0x5d, 0x00, 0x00, 0x00,
  0xac, 0x00, 0x00, 0x00, 0x5c, 0xd4, 0xff, 0xff, 0x9e, 0x00, 0x00, 0x00,
  0x5f, 0x5f, 0x6d, 0x61, 0x69, 0x6e, 0x5f, 0x5f, 0x2e, 0x47, 0x52, 0x55,
  0x5f, 0x4e, 0x4e, 0x5f, 0x32, 0x2f, 0x74, 0x6f, 0x72, 0x63, 0x68, 0x2e,
  0x6e, 0x6e, 0x2e, 0x6d, 0x6f, 0x64, 0x75, 0x6c, 0x65, 0x73, 0x2e, 0x6c,
  0x69, 0x6e, 0x65, 0x61, 0x72, 0x2e, 0x4c, 0x69, 0x6e, 0x65, 0x61, 0x72,
  0x5f, 0x66, 0x63, 0x31, 0x3b, 0x3b, 0x5f, 0x5f, 0x6d, 0x61, 0x69, 0x6e,
  0x5f, 0x5f, 0x2e, 0x47, 0x52, 0x55, 0x5f, 0x4e, 0x4e, 0x5f, 0x32, 0x2f,
  0x74, 0x6f, 0x72, 0x63, 0x68, 0x2e, 0x6e, 0x6e, 0x2e, 0x6d, 0x6f, 0x64,
  0x75, 0x6c, 0x65, 0x73, 0x2e, 0x72, 0x6e, 0x6e, 0x2e, 0x47, 0x52, 0x55,
  0x5f, 0x67, 0x72, 0x75, 0x3b, 0x3b, 0x5f, 0x5f, 0x6d, 0x61, 0x69, 0x6e,
  0x5f, 0x5f, 0x2e, 0x47, 0x52, 0x55, 0x5f, 0x4e, 0x4e, 0x5f, 0x32, 0x2f,
  0x74, 0x6f, 0x72, 0x63, 0x68, 0x2e, 0x6e, 0x6e, 0x2e, 0x6d, 0x6f, 0x64,
  0x75, 0x6c, 0x65, 0x73, 0x2e, 0x61, 0x63, 0x74, 0x69, 0x76, 0x61, 0x74,
  0x69, 0x6f, 0x6e, 0x2e, 0x52, 0x65, 0x4c, 0x55, 0x5f, 0x72, 0x65, 0x6c,
  0x75, 0x3b, 0x00, 0x00, 0x02, 0x00, 0x00, 0x00, 0x01, 0x00, 0x00, 0x00,
  0x08, 0x00, 0x00, 0x00, 0xe2, 0xd5, 0xff, 0xff, 0x00, 0x00, 0x00, 0x01,
  0x10, 0x00, 0x00, 0x00, 0x10, 0x00, 0x00, 0x00, 0x5c, 0x00, 0x00, 0x00,
  0x28, 0x00, 0x00, 0x00, 0x28, 0xd5, 0xff, 0xff, 0x19, 0x00, 0x00, 0x00,
  0x53, 0x74, 0x61, 0x74, 0x65, 0x66, 0x75, 0x6c, 0x50, 0x61, 0x72, 0x74,
  0x69, 0x74, 0x69, 0x6f, 0x6e, 0x65, 0x64, 0x43, 0x61, 0x6c, 0x6c, 0x3a,
  0x31, 0x00, 0x00, 0x00, 0x03, 0x00, 0x00, 0x00, 0x03, 0x00, 0x00, 0x00,
  0x01, 0x00, 0x00, 0x00, 0x08, 0x00, 0x00, 0x00, 0x2e, 0xd6, 0xff, 0xff,
  0x00, 0x00, 0x00, 0x01, 0x10, 0x00, 0x00, 0x00, 0x10, 0x00, 0x00, 0x00,
  0x5b, 0x00, 0x00, 0x00, 0x40, 0x00, 0x00, 0x00, 0x74, 0xd5, 0xff, 0xff,
  0x31, 0x00, 0x00, 0x00, 0x5f, 0x5f, 0x6d, 0x61, 0x69, 0x6e, 0x5f, 0x5f,
  0x2e, 0x47, 0x52, 0x55, 0x5f, 0x4e, 0x4e, 0x5f, 0x32, 0x2f, 0x74, 0x6f,
  0x72, 0x63, 0x68, 0x2e, 0x6e, 0x6e, 0x2e, 0x6d, 0x6f, 0x64, 0x75, 0x6c,
  0x65, 0x73, 0x2e, 0x72, 0x6e, 0x6e, 0x2e, 0x47, 0x52, 0x55, 0x5f, 0x67,
  0x72, 0x75, 0x3b, 0x37, 0x34, 0x00, 0x00, 0x00, 0x02, 0x00, 0x00, 0x00,
  0x03, 0x00, 0x00, 0x00, 0x08, 0x00, 0x00, 0x00, 0x8e, 0xd6, 0xff, 0xff,
  0x00, 0x00, 0x00, 0x01, 0x10, 0x00, 0x00, 0x00, 0x10, 0x00, 0x00, 0x00,
  0x5a, 0x00, 0x00, 0x00, 0x40, 0x00, 0x00, 0x00, 0xd4, 0xd5, 0xff, 0xff,
  0x31, 0x00, 0x00, 0x00, 0x5f, 0x5f, 0x6d, 0x61, 0x69, 0x6e, 0x5f, 0x5f,
  0x2e, 0x47, 0x52, 0x55, 0x5f, 0x4e, 0x4e, 0x5f, 0x32, 0x2f, 0x74, 0x6f,
  0x72, 0x63, 0x68, 0x2e, 0x6e, 0x6e, 0x2e, 0x6d, 0x6f, 0x64, 0x75, 0x6c,
  0x65, 0x73, 0x2e, 0x72, 0x6e, 0x6e, 0x2e, 0x47, 0x52, 0x55, 0x5f, 0x67,
  0x72, 0x75, 0x3b, 0x37, 0x33, 0x00, 0x00, 0x00, 0x02, 0x00, 0x00, 0x00,
  0x01, 0x00, 0x00, 0x00, 0x08, 0x00, 0x00, 0x00, 0xee, 0xd6, 0xff, 0xff,
  0x00, 0x00, 0x00, 0x01, 0x10, 0x00, 0x00, 0x00, 0x10, 0x00, 0x00, 0x00,
  0x59, 0x00, 0x00, 0x00, 0x40, 0x00, 0x00, 0x00, 0x34, 0xd6, 0xff, 0xff,
  0x31, 0x00, 0x00, 0x00, 0x5f, 0x5f, 0x6d, 0x61, 0x69, 0x6e, 0x5f, 0x5f,
  0x2e, 0x47, 0x52, 0x55, 0x5f, 0x4e, 0x4e, 0x5f, 0x32, 0x2f, 0x74, 0x6f,
  0x72, 0x63, 0x68, 0x2e, 0x6e, 0x6e, 0x2e, 0x6d, 0x6f, 0x64, 0x75, 0x6c,
  0x65, 0x73, 0x2e, 0x72, 0x6e, 0x6e, 0x2e, 0x47, 0x52, 0x55, 0x5f, 0x67,
  0x72, 0x75, 0x3b, 0x37, 0x32, 0x00, 0x00, 0x00, 0x03, 0x00, 0x00, 0x00,
  0x01, 0x00, 0x00, 0x00, 0x01, 0x00, 0x00, 0x00, 0x08, 0x00, 0x00, 0x00,
  0x52, 0xd7, 0xff, 0xff, 0x00, 0x00, 0x00, 0x01, 0x10, 0x00, 0x00, 0x00,
  0x10, 0x00, 0x00, 0x00, 0x58, 0x00, 0x00, 0x00, 0x40, 0x00, 0x00, 0x00,
  0x98, 0xd6, 0xff, 0xff, 0x31, 0x00, 0x00, 0x00, 0x5f, 0x5f, 0x6d, 0x61,
  0x69, 0x6e, 0x5f, 0x5f, 0x2e, 0x47, 0x52, 0x55, 0x5f, 0x4e, 0x4e, 0x5f,
  0x32, 0x2f, 0x74, 0x6f, 0x72, 0x63, 0x68, 0x2e, 0x6e, 0x6e, 0x2e, 0x6d,
  0x6f, 0x64, 0x75, 0x6c, 0x65, 0x73, 0x2e, 0x72, 0x6e, 0x6e, 0x2e, 0x47,
  0x52, 0x55, 0x5f, 0x67, 0x72, 0x75, 0x3b, 0x37, 0x31, 0x00, 0x00, 0x00,
  0x03, 0x00, 0x00, 0x00, 0x01, 0x00, 0x00, 0x00, 0x01, 0x00, 0x00, 0x00,
  0x08, 0x00, 0x00, 0x00, 0xb6, 0xd7, 0xff, 0xff, 0x00, 0x00, 0x00, 0x01,
  0x10, 0x00, 0x00, 0x00, 0x10, 0x00, 0x00, 0x00, 0x57, 0x00, 0x00, 0x00,
  0x40, 0x00, 0x00, 0x00, 0xfc, 0xd6, 0xff, 0xff, 0x31, 0x00, 0x00, 0x00,
  0x5f, 0x5f, 0x6d, 0x61, 0x69, 0x6e, 0x5f, 0x5f, 0x2e, 0x47, 0x52, 0x55,
  0x5f, 0x4e, 0x4e, 0x5f, 0x32, 0x2f, 0x74, 0x6f, 0x72, 0x63, 0x68, 0x2e,
  0x6e, 0x6e, 0x2e, 0x6d, 0x6f, 0x64, 0x75, 0x6c, 0x65, 0x73, 0x2e, 0x72,
  0x6e, 0x6e, 0x2e, 0x47, 0x52, 0x55, 0x5f, 0x67, 0x72, 0x75, 0x3b, 0x37,
  0x30, 0x00, 0x00, 0x00, 0x03, 0x00, 0x00, 0x00, 0x01, 0x00, 0x00, 0x00,
  0x01, 0x00, 0x00, 0x00, 0x08, 0x00, 0x00, 0x00, 0x1a, 0xd8, 0xff, 0xff,
  0x00, 0x00, 0x00, 0x01, 0x10, 0x00, 0x00, 0x00, 0x10, 0x00, 0x00, 0x00,
  0x56, 0x00, 0x00, 0x00, 0x40, 0x00, 0x00, 0x00, 0x60, 0xd7, 0xff, 0xff,
  0x31, 0x00, 0x00, 0x00, 0x5f, 0x5f, 0x6d, 0x61, 0x69, 0x6e, 0x5f, 0x5f,
  0x2e, 0x47, 0x52, 0x55, 0x5f, 0x4e, 0x4e, 0x5f, 0x32, 0x2f, 0x74, 0x6f,
  0x72, 0x63, 0x68, 0x2e, 0x6e, 0x6e, 0x2e, 0x6d, 0x6f, 0x64, 0x75, 0x6c,
  0x65, 0x73, 0x2e, 0x72, 0x6e, 0x6e, 0x2e, 0x47, 0x52, 0x55, 0x5f, 0x67,
  0x72, 0x75, 0x3b, 0x36, 0x39, 0x00, 0x00, 0x00, 0x03, 0x00, 0x00, 0x00,
  0x01, 0x00, 0x00, 0x00, 0x01, 0x00, 0x00, 0x00, 0x08, 0x00, 0x00, 0x00,
  0x7e, 0xd8, 0xff, 0xff, 0x00, 0x00, 0x00, 0x01, 0x10, 0x00, 0x00, 0x00,
  0x10, 0x00, 0x00, 0x00, 0x55, 0x00, 0x00, 0x00, 0x40, 0x00, 0x00, 0x00,
  0xc4, 0xd7, 0xff, 0xff, 0x31, 0x00, 0x00, 0x00, 0x5f, 0x5f, 0x6d, 0x61,
  0x69, 0x6e, 0x5f, 0x5f, 0x2e, 0x47, 0x52, 0x55, 0x5f, 0x4e, 0x4e, 0x5f,
  0x32, 0x2f, 0x74, 0x6f, 0x72, 0x63, 0x68, 0x2e, 0x6e, 0x6e, 0x2e, 0x6d,
  0x6f, 0x64, 0x75, 0x6c, 0x65, 0x73, 0x2e, 0x72, 0x6e, 0x6e, 0x2e, 0x47,
  0x52, 0x55, 0x5f, 0x67, 0x72, 0x75, 0x3b, 0x36, 0x38, 0x00, 0x00, 0x00,
  0x03, 0x00, 0x00, 0x00, 0x01, 0x00, 0x00, 0x00, 0x01, 0x00, 0x00, 0x00,
  0x08, 0x00, 0x00, 0x00, 0xe2, 0xd8, 0xff, 0xff, 0x00, 0x00, 0x00, 0x01,
  0x10, 0x00, 0x00, 0x00, 0x10, 0x00, 0x00, 0x00, 0x54, 0x00, 0x00, 0x00,
  0x40, 0x00, 0x00, 0x00, 0x28, 0xd8, 0xff, 0xff, 0x31, 0x00, 0x00, 0x00,
  0x5f, 0x5f, 0x6d, 0x61, 0x69, 0x6e, 0x5f, 0x5f, 0x2e, 0x47, 0x52, 0x55,
  0x5f, 0x4e, 0x4e, 0x5f, 0x32, 0x2f, 0x74, 0x6f, 0x72, 0x63, 0x68, 0x2e,
  0x6e, 0x6e, 0x2e, 0x6d, 0x6f, 0x64, 0x75, 0x6c, 0x65, 0x73, 0x2e, 0x72,
  0x6e, 0x6e, 0x2e, 0x47, 0x52, 0x55, 0x5f, 0x67, 0x72, 0x75, 0x3b, 0x36,
  0x37, 0x00, 0x00, 0x00, 0x03, 0x00, 0x00, 0x00, 0x01, 0x00, 0x00, 0x00,
  0x01, 0x00, 0x00, 0x00, 0x08, 0x00, 0x00, 0x00, 0x46, 0xd9, 0xff, 0xff,
  0x00, 0x00, 0x00, 0x01, 0x10, 0x00, 0x00, 0x00, 0x10, 0x00, 0x00, 0x00,
  0x53, 0x00, 0x00, 0x00, 0x40, 0x00, 0x00, 0x00, 0x8c, 0xd8, 0xff, 0xff,
  0x31, 0x00, 0x00, 0x00, 0x5f, 0x5f, 0x6d, 0x61, 0x69, 0x6e, 0x5f, 0x5f,
  0x2e, 0x47, 0x52, 0x55, 0x5f, 0x4e, 0x4e, 0x5f, 0x32, 0x2f, 0x74, 0x6f,
  0x72, 0x63, 0x68, 0x2e, 0x6e, 0x6e, 0x2e, 0x6d, 0x6f, 0x64, 0x75, 0x6c,
  0x65, 0x73, 0x2e, 0x72, 0x6e, 0x6e, 0x2e, 0x47, 0x52, 0x55, 0x5f, 0x67,
  0x72, 0x75, 0x3b, 0x36, 0x36, 0x00, 0x00, 0x00, 0x03, 0x00, 0x00, 0x00,
  0x01, 0x00, 0x00, 0x00, 0x01, 0x00, 0x00, 0x00, 0x08, 0x00, 0x00, 0x00,
  0xaa, 0xd9, 0xff, 0xff, 0x00, 0x00, 0x00, 0x01, 0x10, 0x00, 0x00, 0x00,
  0x10, 0x00, 0x00, 0x00, 0x52, 0x00, 0x00, 0x00, 0x40, 0x00, 0x00, 0x00,
  0xf0, 0xd8, 0xff, 0xff, 0x31, 0x00, 0x00, 0x00, 0x5f, 0x5f, 0x6d, 0x61,
  0x69, 0x6e, 0x5f, 0x5f, 0x2e, 0x47, 0x52, 0x55, 0x5f, 0x4e, 0x4e, 0x5f,
  0x32, 0x2f, 0x74, 0x6f, 0x72, 0x63, 0x68, 0x2e, 0x6e, 0x6e, 0x2e, 0x6d,
  0x6f, 0x64, 0x75, 0x6c, 0x65, 0x73, 0x2e, 0x72, 0x6e, 0x6e, 0x2e, 0x47,
  0x52, 0x55, 0x5f, 0x67, 0x72, 0x75, 0x3b, 0x36, 0x35, 0x00, 0x00, 0x00,
  0x03, 0x00, 0x00, 0x00, 0x01, 0x00, 0x00, 0x00, 0x01, 0x00, 0x00, 0x00,
  0x08, 0x00, 0x00, 0x00, 0x0e, 0xda, 0xff, 0xff, 0x00, 0x00, 0x00, 0x01,
  0x10, 0x00, 0x00, 0x00, 0x10, 0x00, 0x00, 0x00, 0x51, 0x00, 0x00, 0x00,
  0x40, 0x00, 0x00, 0x00, 0x54, 0xd9, 0xff, 0xff, 0x31, 0x00, 0x00, 0x00,
  0x5f, 0x5f, 0x6d, 0x61, 0x69, 0x6e, 0x5f, 0x5f, 0x2e, 0x47, 0x52, 0x55,
  0x5f, 0x4e, 0x4e, 0x5f, 0x32, 0x2f, 0x74, 0x6f, 0x72, 0x63, 0x68, 0x2e,
  0x6e, 0x6e, 0x2e, 0x6d, 0x6f, 0x64, 0x75, 0x6c, 0x65, 0x73, 0x2e, 0x72,
  0x6e, 0x6e, 0x2e, 0x47, 0x52, 0x55, 0x5f, 0x67, 0x72, 0x75, 0x3b, 0x36,
  0x34, 0x00, 0x00, 0x00, 0x03, 0x00, 0x00, 0x00, 0x01, 0x00, 0x00, 0x00,
  0x01, 0x00, 0x00, 0x00, 0x08, 0x00, 0x00, 0x00, 0x72, 0xda, 0xff, 0xff,
  0x00, 0x00, 0x00, 0x01, 0x10, 0x00, 0x00, 0x00, 0x10, 0x00, 0x00, 0x00,
  0x50, 0x00, 0x00, 0x00, 0x40, 0x00, 0x00, 0x00, 0xb8, 0xd9, 0xff, 0xff,
  0x31, 0x00, 0x00, 0x00, 0x5f, 0x5f, 0x6d, 0x61, 0x69, 0x6e, 0x5f, 0x5f,
  0x2e, 0x47, 0x52, 0x55, 0x5f, 0x4e, 0x4e, 0x5f, 0x32, 0x2f, 0x74, 0x6f,
  0x72, 0x63, 0x68, 0x2e, 0x6e, 0x6e, 0x2e, 0x6d, 0x6f, 0x64, 0x75, 0x6c,
  0x65, 0x73, 0x2e, 0x72, 0x6e, 0x6e, 0x2e, 0x47, 0x52, 0x55, 0x5f, 0x67,
  0x72, 0x75, 0x3b, 0x36, 0x33, 0x00, 0x00, 0x00, 0x03, 0x00, 0x00, 0x00,
  0x01, 0x00, 0x00, 0x00, 0x01, 0x00, 0x00, 0x00, 0x08, 0x00, 0x00, 0x00,
  0xd6, 0xda, 0xff, 0xff, 0x00, 0x00, 0x00, 0x01, 0x10, 0x00, 0x00, 0x00,
  0x10, 0x00, 0x00, 0x00, 0x4f, 0x00, 0x00, 0x00, 0x40, 0x00, 0x00, 0x00,
  0x1c, 0xda, 0xff, 0xff, 0x31, 0x00, 0x00, 0x00, 0x5f, 0x5f, 0x6d, 0x61,
  0x69, 0x6e, 0x5f, 0x5f, 0x2e, 0x47, 0x52, 0x55, 0x5f, 0x4e, 0x4e, 0x5f,
  0x32, 0x2f, 0x74, 0x6f, 0x72, 0x63, 0x68, 0x2e, 0x6e, 0x6e, 0x2e, 0x6d,
  0x6f, 0x64, 0x75, 0x6c, 0x65, 0x73, 0x2e, 0x72, 0x6e, 0x6e, 0x2e, 0x47,
  0x52, 0x55, 0x5f, 0x67, 0x72, 0x75, 0x3b, 0x36, 0x32, 0x00, 0x00, 0x00,
  0x03, 0x00, 0x00, 0x00, 0x01, 0x00, 0x00, 0x00, 0x01, 0x00, 0x00, 0x00,
  0x08, 0x00, 0x00, 0x00, 0x3a, 0xdb, 0xff, 0xff, 0x00, 0x00, 0x00, 0x01,
  0x10, 0x00, 0x00, 0x00, 0x10, 0x00, 0x00, 0x00, 0x4e, 0x00, 0x00, 0x00,
  0x40, 0x00, 0x00, 0x00, 0x80, 0xda, 0xff, 0xff, 0x31, 0x00, 0x00, 0x00,
  0x5f, 0x5f, 0x6d, 0x61, 0x69, 0x6e, 0x5f, 0x5f, 0x2e, 0x47, 0x52, 0x55,
  0x5f, 0x4e, 0x4e, 0x5f, 0x32, 0x2f, 0x74, 0x6f, 0x72, 0x63, 0x68, 0x2e,
  0x6e, 0x6e, 0x2e, 0x6d, 0x6f, 0x64, 0x75, 0x6c, 0x65, 0x73, 0x2e, 0x72,
  0x6e, 0x6e, 0x2e, 0x47, 0x52, 0x55, 0x5f, 0x67, 0x72, 0x75, 0x3b, 0x36,
  0x31, 0x00, 0x00, 0x00, 0x03, 0x00, 0x00, 0x00, 0x01, 0x00, 0x00, 0x00,
  0x01, 0x00, 0x00, 0x00, 0x08, 0x00, 0x00, 0x00, 0x9e, 0xdb, 0xff, 0xff,
  0x00, 0x00, 0x00, 0x01, 0x10, 0x00, 0x00, 0x00, 0x10, 0x00, 0x00, 0x00,
  0x4d, 0x00, 0x00, 0x00, 0x40, 0x00, 0x00, 0x00, 0xe4, 0xda, 0xff, 0xff,
  0x31, 0x00, 0x00, 0x00, 0x5f, 0x5f, 0x6d, 0x61, 0x69, 0x6e, 0x5f, 0x5f,
  0x2e, 0x47, 0x52, 0x55, 0x5f, 0x4e, 0x4e, 0x5f, 0x32, 0x2f, 0x74, 0x6f,
  0x72, 0x63, 0x68, 0x2e, 0x6e, 0x6e, 0x2e, 0x6d, 0x6f, 0x64, 0x75, 0x6c,
  0x65, 0x73, 0x2e, 0x72, 0x6e, 0x6e, 0x2e, 0x47, 0x52, 0x55, 0x5f, 0x67,
  0x72, 0x75, 0x3b, 0x36, 0x30, 0x00, 0x00, 0x00, 0x03, 0x00, 0x00, 0x00,
  0x01, 0x00, 0x00, 0x00, 0x01, 0x00, 0x00, 0x00, 0x08, 0x00, 0x00, 0x00,
  0x02, 0xdc, 0xff, 0xff, 0x00, 0x00, 0x00, 0x01, 0x10, 0x00, 0x00, 0x00,
  0x10, 0x00, 0x00, 0x00, 0x4c, 0x00, 0x00, 0x00, 0x40, 0x00, 0x00, 0x00,
  0x48, 0xdb, 0xff, 0xff, 0x31, 0x00, 0x00, 0x00, 0x5f, 0x5f, 0x6d, 0x61,
  0x69, 0x6e, 0x5f, 0x5f, 0x2e, 0x47, 0x52, 0x55, 0x5f, 0x4e, 0x4e, 0x5f,
  0x32, 0x2f, 0x74, 0x6f, 0x72, 0x63, 0x68, 0x2e, 0x6e, 0x6e, 0x2e, 0x6d,
  0x6f, 0x64, 0x75, 0x6c, 0x65, 0x73, 0x2e, 0x72, 0x6e, 0x6e, 0x2e, 0x47,
  0x52, 0x55, 0x5f, 0x67, 0x72, 0x75, 0x3b, 0x35, 0x39, 0x00, 0x00, 0x00,
  0x03, 0x00, 0x00, 0x00, 0x01, 0x00, 0x00, 0x00, 0x01, 0x00, 0x00, 0x00,
  0x18, 0x00, 0x00, 0x00, 0x66, 0xdc, 0xff, 0xff, 0x00, 0x00, 0x00, 0x01,
  0x10, 0x00, 0x00, 0x00, 0x10, 0x00, 0x00, 0x00, 0x4b, 0x00, 0x00, 0x00,
  0x40, 0x00, 0x00, 0x00, 0xac, 0xdb, 0xff, 0xff, 0x31, 0x00, 0x00, 0x00,
  0x5f, 0x5f, 0x6d, 0x61, 0x69, 0x6e, 0x5f, 0x5f, 0x2e, 0x47, 0x52, 0x55,
  0x5f, 0x4e, 0x4e, 0x5f, 0x32, 0x2f, 0x74, 0x6f, 0x72, 0x63, 0x68, 0x2e,
  0x6e, 0x6e, 0x2e, 0x6d, 0x6f, 0x64, 0x75, 0x6c, 0x65, 0x73, 0x2e, 0x72,
  0x6e, 0x6e, 0x2e, 0x47, 0x52, 0x55, 0x5f, 0x67, 0x72, 0x75, 0x3b, 0x35,
  0x38, 0x00, 0x00, 0x00, 0x02, 0x00, 0x00, 0x00, 0x01, 0x00, 0x00, 0x00,
  0x08, 0x00, 0x00, 0x00, 0xc6, 0xdc, 0xff, 0xff, 0x00, 0x00, 0x00, 0x01,
  0x10, 0x00, 0x00, 0x00, 0x10, 0x00, 0x00, 0x00, 0x4a, 0x00, 0x00, 0x00,
  0x40, 0x00, 0x00, 0x00, 0x0c, 0xdc, 0xff, 0xff, 0x31, 0x00, 0x00, 0x00,
  0x5f, 0x5f, 0x6d, 0x61, 0x69, 0x6e, 0x5f, 0x5f, 0x2e, 0x47, 0x52, 0x55,
  0x5f, 0x4e, 0x4e, 0x5f, 0x32, 0x2f, 0x74, 0x6f, 0x72, 0x63, 0x68, 0x2e,
  0x6e, 0x6e, 0x2e, 0x6d, 0x6f, 0x64, 0x75, 0x6c, 0x65, 0x73, 0x2e, 0x72,
  0x6e, 0x6e, 0x2e, 0x47, 0x52, 0x55, 0x5f, 0x67, 0x72, 0x75, 0x3b, 0x35,
  0x37, 0x00, 0x00, 0x00, 0x02, 0x00, 0x00, 0x00, 0x01, 0x00, 0x00, 0x00,
  0x08, 0x00, 0x00, 0x00, 0x26, 0xdd, 0xff, 0xff, 0x00, 0x00, 0x00, 0x01,
  0x10, 0x00, 0x00, 0x00, 0x10, 0x00, 0x00, 0x00, 0x49, 0x00, 0x00, 0x00,
  0x40, 0x00, 0x00, 0x00, 0x6c, 0xdc, 0xff, 0xff, 0x31, 0x00, 0x00, 0x00,
  0x5f, 0x5f, 0x6d, 0x61, 0x69, 0x6e, 0x5f, 0x5f, 0x2e, 0x47, 0x52, 0x55,
  0x5f, 0x4e, 0x4e, 0x5f, 0x32, 0x2f, 0x74, 0x6f, 0x72, 0x63, 0x68, 0x2e,
  0x6e, 0x6e, 0x2e, 0x6d, 0x6f, 0x64, 0x75, 0x6c, 0x65, 0x73, 0x2e, 0x72,
  0x6e, 0x6e, 0x2e, 0x47, 0x52, 0x55, 0x5f, 0x67, 0x72, 0x75, 0x3b, 0x35,
  0x36, 0x00, 0x00, 0x00, 0x02, 0x00, 0x00, 0x00, 0x01, 0x00, 0x00, 0x00,
  0x08, 0x00, 0x00, 0x00, 0x86, 0xdd, 0xff, 0xff, 0x00, 0x00, 0x00, 0x01,
  0x10, 0x00, 0x00, 0x00, 0x10, 0x00, 0x00, 0x00, 0x48, 0x00, 0x00, 0x00,
  0x40, 0x00, 0x00, 0x00, 0xcc, 0xdc, 0xff, 0xff, 0x31, 0x00, 0x00, 0x00,
  0x5f, 0x5f, 0x6d, 0x61, 0x69, 0x6e, 0x5f, 0x5f, 0x2e, 0x47, 0x52, 0x55,
  0x5f, 0x4e, 0x4e, 0x5f, 0x32, 0x2f, 0x74, 0x6f, 0x72, 0x63, 0x68, 0x2e,
  0x6e, 0x6e, 0x2e, 0x6d, 0x6f, 0x64, 0x75, 0x6c, 0x65, 0x73, 0x2e, 0x72,
  0x6e, 0x6e, 0x2e, 0x47, 0x52, 0x55, 0x5f, 0x67, 0x72, 0x75, 0x3b, 0x35,
  0x35, 0x00, 0x00, 0x00, 0x02, 0x00, 0x00, 0x00, 0x01, 0x00, 0x00, 0x00,
  0x18, 0x00, 0x00, 0x00, 0xe6, 0xdd, 0xff, 0xff, 0x00, 0x00, 0x00, 0x01,
  0x10, 0x00, 0x00, 0x00, 0x10, 0x00, 0x00, 0x00, 0x47, 0x00, 0x00, 0x00,
  0x40, 0x00, 0x00, 0x00, 0x2c, 0xdd, 0xff, 0xff, 0x31, 0x00, 0x00, 0x00,
  0x5f, 0x5f, 0x6d, 0x61, 0x69, 0x6e, 0x5f, 0x5f, 0x2e, 0x47, 0x52, 0x55,
  0x5f, 0x4e, 0x4e, 0x5f, 0x32, 0x2f, 0x74, 0x6f, 0x72, 0x63, 0x68, 0x2e,
  0x6e, 0x6e, 0x2e, 0x6d, 0x6f, 0x64, 0x75, 0x6c, 0x65, 0x73, 0x2e, 0x72,
  0x6e, 0x6e, 0x2e, 0x47, 0x52, 0x55, 0x5f, 0x67, 0x72, 0x75, 0x3b, 0x35,
  0x34, 0x00, 0x00, 0x00, 0x02, 0x00, 0x00, 0x00, 0x01, 0x00, 0x00, 0x00,
  0x08, 0x00, 0x00, 0x00, 0x46, 0xde, 0xff, 0xff, 0x00, 0x00, 0x00, 0x01,
  0x10, 0x00, 0x00, 0x00, 0x10, 0x00, 0x00, 0x00, 0x46, 0x00, 0x00, 0x00,
  0x40, 0x00, 0x00, 0x00, 0x8c, 0xdd, 0xff, 0xff, 0x31, 0x00, 0x00, 0x00,
  0x5f, 0x5f, 0x6d, 0x61, 0x69, 0x6e, 0x5f, 0x5f, 0x2e, 0x47, 0x52, 0x55,
  0x5f, 0x4e, 0x4e, 0x5f, 0x32, 0x2f, 0x74, 0x6f, 0x72, 0x63, 0x68, 0x2e,
  0x6e, 0x6e, 0x2e, 0x6d, 0x6f, 0x64, 0x75, 0x6c, 0x65, 0x73, 0x2e, 0x72,
  0x6e, 0x6e, 0x2e, 0x47, 0x52, 0x55, 0x5f, 0x67, 0x72, 0x75, 0x3b, 0x35,
  0x33, 0x00, 0x00, 0x00, 0x03, 0x00, 0x00, 0x00, 0x01, 0x00, 0x00, 0x00,
  0x01, 0x00, 0x00, 0x00, 0x08, 0x00, 0x00, 0x00, 0xaa, 0xde, 0xff, 0xff,
  0x00, 0x00, 0x00, 0x01, 0x10, 0x00, 0x00, 0x00, 0x10, 0x00, 0x00, 0x00,
  0x45, 0x00, 0x00, 0x00, 0x40, 0x00, 0x00, 0x00, 0xf0, 0xdd, 0xff, 0xff,
  0x31, 0x00, 0x00, 0x00, 0x5f, 0x5f, 0x6d, 0x61, 0x69, 0x6e, 0x5f, 0x5f,
  0x2e, 0x47, 0x52, 0x55, 0x5f, 0x4e, 0x4e, 0x5f, 0x32, 0x2f, 0x74, 0x6f,
  0x72, 0x63, 0x68, 0x2e, 0x6e, 0x6e, 0x2e, 0x6d, 0x6f, 0x64, 0x75, 0x6c,
  0x65, 0x73, 0x2e, 0x72, 0x6e, 0x6e, 0x2e, 0x47, 0x52, 0x55, 0x5f, 0x67,
  0x72, 0x75, 0x3b, 0x35, 0x32, 0x00, 0x00, 0x00, 0x03, 0x00, 0x00, 0x00,
  0x01, 0x00, 0x00, 0x00, 0x01, 0x00, 0x00, 0x00, 0x08, 0x00, 0x00, 0x00,
  0x0e, 0xdf, 0xff, 0xff, 0x00, 0x00, 0x00, 0x01, 0x10, 0x00, 0x00, 0x00,
  0x10, 0x00, 0x00, 0x00, 0x44, 0x00, 0x00, 0x00, 0x40, 0x00, 0x00, 0x00,
  0x54, 0xde, 0xff, 0xff, 0x31, 0x00, 0x00, 0x00, 0x5f, 0x5f, 0x6d, 0x61,
  0x69, 0x6e, 0x5f, 0x5f, 0x2e, 0x47, 0x52, 0x55, 0x5f, 0x4e, 0x4e, 0x5f,
  0x32, 0x2f, 0x74, 0x6f, 0x72, 0x63, 0x68, 0x2e, 0x6e, 0x6e, 0x2e, 0x6d,
  0x6f, 0x64, 0x75, 0x6c, 0x65, 0x73, 0x2e, 0x72, 0x6e, 0x6e, 0x2e, 0x47,
  0x52, 0x55, 0x5f, 0x67, 0x72, 0x75, 0x3b, 0x35, 0x31, 0x00, 0x00, 0x00,
  0x03, 0x00, 0x00, 0x00, 0x01, 0x00, 0x00, 0x00, 0x01, 0x00, 0x00, 0x00,
  0x08, 0x00, 0x00, 0x00, 0x72, 0xdf, 0xff, 0xff, 0x00, 0x00, 0x00, 0x01,
  0x10, 0x00, 0x00, 0x00, 0x10, 0x00, 0x00, 0x00, 0x43, 0x00, 0x00, 0x00,
  0x40, 0x00, 0x00, 0x00, 0xb8, 0xde, 0xff, 0xff, 0x31, 0x00, 0x00, 0x00,
  0x5f, 0x5f, 0x6d, 0x61, 0x69, 0x6e, 0x5f, 0x5f, 0x2e, 0x47, 0x52, 0x55,
  0x5f, 0x4e, 0x4e, 0x5f, 0x32, 0x2f, 0x74, 0x6f, 0x72, 0x63, 0x68, 0x2e,
  0x6e, 0x6e, 0x2e, 0x6d, 0x6f, 0x64, 0x75, 0x6c, 0x65, 0x73, 0x2e, 0x72,
  0x6e, 0x6e, 0x2e, 0x47, 0x52, 0x55, 0x5f, 0x67, 0x72, 0x75, 0x3b, 0x35,
  0x30, 0x00, 0x00, 0x00, 0x03, 0x00, 0x00, 0x00, 0x01, 0x00, 0x00, 0x00,
  0x01, 0x00, 0x00, 0x00, 0x08, 0x00, 0x00, 0x00, 0xd6, 0xdf, 0xff, 0xff,
  0x00, 0x00, 0x00, 0x01, 0x10, 0x00, 0x00, 0x00, 0x10, 0x00, 0x00, 0x00,
  0x42, 0x00, 0x00, 0x00, 0x40, 0x00, 0x00, 0x00, 0x1c, 0xdf, 0xff, 0xff,
  0x31, 0x00, 0x00, 0x00, 0x5f, 0x5f, 0x6d, 0x61, 0x69, 0x6e, 0x5f, 0x5f,
  0x2e, 0x47, 0x52, 0x55, 0x5f, 0x4e, 0x4e, 0x5f, 0x32, 0x2f, 0x74, 0x6f,
  0x72, 0x63, 0x68, 0x2e, 0x6e, 0x6e, 0x2e, 0x6d, 0x6f, 0x64, 0x75, 0x6c,
  0x65, 0x73, 0x2e, 0x72, 0x6e, 0x6e, 0x2e, 0x47, 0x52, 0x55, 0x5f, 0x67,
  0x72, 0x75, 0x3b, 0x34, 0x39, 0x00, 0x00, 0x00, 0x03, 0x00, 0x00, 0x00,
  0x01, 0x00, 0x00, 0x00, 0x01, 0x00, 0x00, 0x00, 0x08, 0x00, 0x00, 0x00,
  0x3a, 0xe0, 0xff, 0xff, 0x00, 0x00, 0x00, 0x01, 0x10, 0x00, 0x00, 0x00,
  0x10, 0x00, 0x00, 0x00, 0x41, 0x00, 0x00, 0x00, 0x40, 0x00, 0x00, 0x00,
  0x80, 0xdf, 0xff, 0xff, 0x31, 0x00, 0x00, 0x00, 0x5f, 0x5f, 0x6d, 0x61,
  0x69, 0x6e, 0x5f, 0x5f, 0x2e, 0x47, 0x52, 0x55, 0x5f, 0x4e, 0x4e, 0x5f,
  0x32, 0x2f, 0x74, 0x6f, 0x72, 0x63, 0x68, 0x2e, 0x6e, 0x6e, 0x2e, 0x6d,
  0x6f, 0x64, 0x75, 0x6c, 0x65, 0x73, 0x2e, 0x72, 0x6e, 0x6e, 0x2e, 0x47,
  0x52, 0x55, 0x5f, 0x67, 0x72, 0x75, 0x3b, 0x34, 0x38, 0x00, 0x00, 0x00,
  0x03, 0x00, 0x00, 0x00, 0x01, 0x00, 0x00, 0x00, 0x01, 0x00, 0x00, 0x00,
  0x08, 0x00, 0x00, 0x00, 0x9e, 0xe0, 0xff, 0xff, 0x00, 0x00, 0x00, 0x01,
  0x10, 0x00, 0x00, 0x00, 0x10, 0x00, 0x00, 0x00, 0x40, 0x00, 0x00, 0x00,
  0x40, 0x00, 0x00, 0x00, 0xe4, 0xdf, 0xff, 0xff, 0x31, 0x00, 0x00, 0x00,
  0x5f, 0x5f, 0x6d, 0x61, 0x69, 0x6e, 0x5f, 0x5f, 0x2e, 0x47, 0x52, 0x55,
  0x5f, 0x4e, 0x4e, 0x5f, 0x32, 0x2f, 0x74, 0x6f, 0x72, 0x63, 0x68, 0x2e,
  0x6e, 0x6e, 0x2e, 0x6d, 0x6f, 0x64, 0x75, 0x6c, 0x65, 0x73, 0x2e, 0x72,
  0x6e, 0x6e, 0x2e, 0x47, 0x52, 0x55, 0x5f, 0x67, 0x72, 0x75, 0x3b, 0x34,
  0x37, 0x00, 0x00, 0x00, 0x03, 0x00, 0x00, 0x00, 0x01, 0x00, 0x00, 0x00,
  0x01, 0x00, 0x00, 0x00, 0x08, 0x00, 0x00, 0x00, 0x02, 0xe1, 0xff, 0xff,
  0x00, 0x00, 0x00, 0x01, 0x10, 0x00, 0x00, 0x00, 0x10, 0x00, 0x00, 0x00,
  0x3f, 0x00, 0x00, 0x00, 0x40, 0x00, 0x00, 0x00, 0x48, 0xe0, 0xff, 0xff,
  0x31, 0x00, 0x00, 0x00, 0x5f, 0x5f, 0x6d, 0x61, 0x69, 0x6e, 0x5f, 0x5f,
  0x2e, 0x47, 0x52, 0x55, 0x5f, 0x4e, 0x4e, 0x5f, 0x32, 0x2f, 0x74, 0x6f,
  0x72, 0x63, 0x68, 0x2e, 0x6e, 0x6e, 0x2e, 0x6d, 0x6f, 0x64, 0x75, 0x6c,
  0x65, 0x73, 0x2e, 0x72, 0x6e, 0x6e, 0x2e, 0x47, 0x52, 0x55, 0x5f, 0x67,
  0x72, 0x75, 0x3b, 0x34, 0x36, 0x00, 0x00, 0x00, 0x03, 0x00, 0x00, 0x00,
  0x01, 0x00, 0x00, 0x00, 0x01, 0x00, 0x00, 0x00, 0x08, 0x00, 0x00, 0x00,
  0x66, 0xe1, 0xff, 0xff, 0x00, 0x00, 0x00, 0x01, 0x10, 0x00, 0x00, 0x00,
  0x10, 0x00, 0x00, 0x00, 0x3e, 0x00, 0x00, 0x00, 0x40, 0x00, 0x00, 0x00,
  0xac, 0xe0, 0xff, 0xff, 0x31, 0x00, 0x00, 0x00, 0x5f, 0x5f, 0x6d, 0x61,
  0x69, 0x6e, 0x5f, 0x5f, 0x2e, 0x47, 0x52, 0x55, 0x5f, 0x4e, 0x4e, 0x5f,
  0x32, 0x2f, 0x74, 0x6f, 0x72, 0x63, 0x68, 0x2e, 0x6e, 0x6e, 0x2e, 0x6d,
  0x6f, 0x64, 0x75, 0x6c, 0x65, 0x73, 0x2e, 0x72, 0x6e, 0x6e, 0x2e, 0x47,
  0x52, 0x55, 0x5f, 0x67, 0x72, 0x75, 0x3b, 0x34, 0x35, 0x00, 0x00, 0x00,
  0x03, 0x00, 0x00, 0x00, 0x01, 0x00, 0x00, 0x00, 0x01, 0x00, 0x00, 0x00,
  0x08, 0x00, 0x00, 0x00, 0xca, 0xe1, 0xff, 0xff, 0x00, 0x00, 0x00, 0x01,
  0x10, 0x00, 0x00, 0x00, 0x10, 0x00, 0x00, 0x00, 0x3d, 0x00, 0x00, 0x00,
  0x40, 0x00, 0x00, 0x00, 0x10, 0xe1, 0xff, 0xff, 0x31, 0x00, 0x00, 0x00,
  0x5f, 0x5f, 0x6d, 0x61, 0x69, 0x6e, 0x5f, 0x5f, 0x2e, 0x47, 0x52, 0x55,
  0x5f, 0x4e, 0x4e, 0x5f, 0x32, 0x2f, 0x74, 0x6f, 0x72, 0x63, 0x68, 0x2e,
  0x6e, 0x6e, 0x2e, 0x6d, 0x6f, 0x64, 0x75, 0x6c, 0x65, 0x73, 0x2e, 0x72,
  0x6e, 0x6e, 0x2e, 0x47, 0x52, 0x55, 0x5f, 0x67, 0x72, 0x75, 0x3b, 0x34,
  0x34, 0x00, 0x00, 0x00, 0x03, 0x00, 0x00, 0x00, 0x01, 0x00, 0x00, 0x00,
  0x01, 0x00, 0x00, 0x00, 0x08, 0x00, 0x00, 0x00, 0x2e, 0xe2, 0xff, 0xff,
  0x00, 0x00, 0x00, 0x01, 0x10, 0x00, 0x00, 0x00, 0x10, 0x00, 0x00, 0x00,
  0x3c, 0x00, 0x00, 0x00, 0x40, 0x00, 0x00, 0x00, 0x74, 0xe1, 0xff, 0xff,
  0x31, 0x00, 0x00, 0x00, 0x5f, 0x5f, 0x6d, 0x61, 0x69, 0x6e, 0x5f, 0x5f,
  0x2e, 0x47, 0x52, 0x55, 0x5f, 0x4e, 0x4e, 0x5f, 0x32, 0x2f, 0x74, 0x6f,
  0x72, 0x63, 0x68, 0x2e, 0x6e, 0x6e, 0x2e, 0x6d, 0x6f, 0x64, 0x75, 0x6c,
  0x65, 0x73, 0x2e, 0x72, 0x6e, 0x6e, 0x2e, 0x47, 0x52, 0x55, 0x5f, 0x67,
  0x72, 0x75, 0x3b, 0x34, 0x33, 0x00, 0x00, 0x00, 0x03, 0x00, 0x00, 0x00,
  0x01, 0x00, 0x00, 0x00, 0x01, 0x00, 0x00, 0x00, 0x08, 0x00, 0x00, 0x00,
  0x92, 0xe2, 0xff, 0xff, 0x00, 0x00, 0x00, 0x01, 0x10, 0x00, 0x00, 0x00,
  0x10, 0x00, 0x00, 0x00, 0x3b, 0x00, 0x00, 0x00, 0x40, 0x00, 0x00, 0x00,
  0xd8, 0xe1, 0xff, 0xff, 0x31, 0x00, 0x00, 0x00, 0x5f, 0x5f, 0x6d, 0x61,
  0x69, 0x6e, 0x5f, 0x5f, 0x2e, 0x47, 0x52, 0x55, 0x5f, 0x4e, 0x4e, 0x5f,
  0x32, 0x2f, 0x74, 0x6f, 0x72, 0x63, 0x68, 0x2e, 0x6e, 0x6e, 0x2e, 0x6d,
  0x6f, 0x64, 0x75, 0x6c, 0x65, 0x73, 0x2e, 0x72, 0x6e, 0x6e, 0x2e, 0x47,
  0x52, 0x55, 0x5f, 0x67, 0x72, 0x75, 0x3b, 0x34, 0x32, 0x00, 0x00, 0x00,
  0x03, 0x00, 0x00, 0x00, 0x01, 0x00, 0x00, 0x00, 0x01, 0x00, 0x00, 0x00,
  0x08, 0x00, 0x00, 0x00, 0xf6, 0xe2, 0xff, 0xff, 0x00, 0x00, 0x00, 0x01,
  0x10, 0x00, 0x00, 0x00, 0x10, 0x00, 0x00, 0x00, 0x3a, 0x00, 0x00, 0x00,
  0x40, 0x00, 0x00, 0x00, 0x3c, 0xe2, 0xff, 0xff, 0x31, 0x00, 0x00, 0x00,
  0x5f, 0x5f, 0x6d, 0x61, 0x69, 0x6e, 0x5f, 0x5f, 0x2e, 0x47, 0x52, 0x55,
  0x5f, 0x4e, 0x4e, 0x5f, 0x32, 0x2f, 0x74, 0x6f, 0x72, 0x63, 0x68, 0x2e,
  0x6e, 0x6e, 0x2e, 0x6d, 0x6f, 0x64, 0x75, 0x6c, 0x65, 0x73, 0x2e, 0x72,
  0x6e, 0x6e, 0x2e, 0x47, 0x52, 0x55, 0x5f, 0x67, 0x72, 0x75, 0x3b, 0x34,
  0x31, 0x00, 0x00, 0x00, 0x03, 0x00, 0x00, 0x00, 0x01, 0x00, 0x00, 0x00,
  0x01, 0x00, 0x00, 0x00, 0x08, 0x00, 0x00, 0x00, 0x5a, 0xe3, 0xff, 0xff,
  0x00, 0x00, 0x00, 0x01, 0x10, 0x00, 0x00, 0x00, 0x10, 0x00, 0x00, 0x00,
  0x39, 0x00, 0x00, 0x00, 0x40, 0x00, 0x00, 0x00, 0xa0, 0xe2, 0xff, 0xff,
  0x31, 0x00, 0x00, 0x00, 0x5f, 0x5f, 0x6d, 0x61, 0x69, 0x6e, 0x5f, 0x5f,
  0x2e, 0x47, 0x52, 0x55, 0x5f, 0x4e, 0x4e, 0x5f, 0x32, 0x2f, 0x74, 0x6f,
  0x72, 0x63, 0x68, 0x2e, 0x6e, 0x6e, 0x2e, 0x6d, 0x6f, 0x64, 0x75, 0x6c,
  0x65, 0x73, 0x2e, 0x72, 0x6e, 0x6e, 0x2e, 0x47, 0x52, 0x55, 0x5f, 0x67,
  0x72, 0x75, 0x3b, 0x34, 0x30, 0x00, 0x00, 0x00, 0x03, 0x00, 0x00, 0x00,
  0x01, 0x00, 0x00, 0x00, 0x01, 0x00, 0x00, 0x00, 0x18, 0x00, 0x00, 0x00,
  0xbe, 0xe3, 0xff, 0xff, 0x00, 0x00, 0x00, 0x01, 0x10, 0x00, 0x00, 0x00,
  0x10, 0x00, 0x00, 0x00, 0x38, 0x00, 0x00, 0x00, 0x40, 0x00, 0x00, 0x00,
  0x04, 0xe3, 0xff, 0xff, 0x31, 0x00, 0x00, 0x00, 0x5f, 0x5f, 0x6d, 0x61,
  0x69, 0x6e, 0x5f, 0x5f, 0x2e, 0x47, 0x52, 0x55, 0x5f, 0x4e, 0x4e, 0x5f,
  0x32, 0x2f, 0x74, 0x6f, 0x72, 0x63, 0x68, 0x2e, 0x6e, 0x6e, 0x2e, 0x6d,
  0x6f, 0x64, 0x75, 0x6c, 0x65, 0x73, 0x2e, 0x72, 0x6e, 0x6e, 0x2e, 0x47,
  0x52, 0x55, 0x5f, 0x67, 0x72, 0x75, 0x3b, 0x33, 0x39, 0x00, 0x00, 0x00,
  0x02, 0x00, 0x00, 0x00, 0x01, 0x00, 0x00, 0x00, 0x08, 0x00, 0x00, 0x00,
  0x1e, 0xe4, 0xff, 0xff, 0x00, 0x00, 0x00, 0x01, 0x10, 0x00, 0x00, 0x00,
  0x10, 0x00, 0x00, 0x00, 0x37, 0x00, 0x00, 0x00, 0x40, 0x00, 0x00, 0x00,
  0x64, 0xe3, 0xff, 0xff, 0x31, 0x00, 0x00, 0x00, 0x5f, 0x5f, 0x6d, 0x61,
  0x69, 0x6e, 0x5f, 0x5f, 0x2e, 0x47, 0x52, 0x55, 0x5f, 0x4e, 0x4e, 0x5f,
  0x32, 0x2f, 0x74, 0x6f, 0x72, 0x63, 0x68, 0x2e, 0x6e, 0x6e, 0x2e, 0x6d,
  0x6f, 0x64, 0x75, 0x6c, 0x65, 0x73, 0x2e, 0x72, 0x6e, 0x6e, 0x2e, 0x47,
  0x52, 0x55, 0x5f, 0x67, 0x72, 0x75, 0x3b, 0x33, 0x38, 0x00, 0x00, 0x00,
  0x02, 0x00, 0x00, 0x00, 0x01, 0x00, 0x00, 0x00, 0x08, 0x00, 0x00, 0x00,
  0x7e, 0xe4, 0xff, 0xff, 0x00, 0x00, 0x00, 0x01, 0x10, 0x00, 0x00, 0x00,
  0x10, 0x00, 0x00, 0x00, 0x36, 0x00, 0x00, 0x00, 0x40, 0x00, 0x00, 0x00,
  0xc4, 0xe3, 0xff, 0xff, 0x31, 0x00, 0x00, 0x00, 0x5f, 0x5f, 0x6d, 0x61,
  0x69, 0x6e, 0x5f, 0x5f, 0x2e, 0x47, 0x52, 0x55, 0x5f, 0x4e, 0x4e, 0x5f,
  0x32, 0x2f, 0x74, 0x6f, 0x72, 0x63, 0x68, 0x2e, 0x6e, 0x6e, 0x2e, 0x6d,
  0x6f, 0x64, 0x75, 0x6c, 0x65, 0x73, 0x2e, 0x72, 0x6e, 0x6e, 0x2e, 0x47,
  0x52, 0x55, 0x5f, 0x67, 0x72, 0x75, 0x3b, 0x33, 0x37, 0x00, 0x00, 0x00,
  0x02, 0x00, 0x00, 0x00, 0x01, 0x00, 0x00, 0x00, 0x08, 0x00, 0x00, 0x00,
  0xde, 0xe4, 0xff, 0xff, 0x00, 0x00, 0x00, 0x01, 0x10, 0x00, 0x00, 0x00,
  0x10, 0x00, 0x00, 0x00, 0x35, 0x00, 0x00, 0x00, 0x40, 0x00, 0x00, 0x00,
  0x24, 0xe4, 0xff, 0xff, 0x31, 0x00, 0x00, 0x00, 0x5f, 0x5f, 0x6d, 0x61,
  0x69, 0x6e, 0x5f, 0x5f, 0x2e, 0x47, 0x52, 0x55, 0x5f, 0x4e, 0x4e, 0x5f,
  0x32, 0x2f, 0x74, 0x6f, 0x72, 0x63, 0x68, 0x2e, 0x6e, 0x6e, 0x2e, 0x6d,
  0x6f, 0x64, 0x75, 0x6c, 0x65, 0x73, 0x2e, 0x72, 0x6e, 0x6e, 0x2e, 0x47,
  0x52, 0x55, 0x5f, 0x67, 0x72, 0x75, 0x3b, 0x33, 0x36, 0x00, 0x00, 0x00,
  0x02, 0x00, 0x00, 0x00, 0x01, 0x00, 0x00, 0x00, 0x18, 0x00, 0x00, 0x00,
  0x3e, 0xe5, 0xff, 0xff, 0x00, 0x00, 0x00, 0x01, 0x10, 0x00, 0x00, 0x00,
  0x10, 0x00, 0x00, 0x00, 0x34, 0x00, 0x00, 0x00, 0x40, 0x00, 0x00, 0x00,
  0x84, 0xe4, 0xff, 0xff, 0x31, 0x00, 0x00, 0x00, 0x5f, 0x5f, 0x6d, 0x61,
  0x69, 0x6e, 0x5f, 0x5f, 0x2e, 0x47, 0x52, 0x55, 0x5f, 0x4e, 0x4e, 0x5f,
  0x32, 0x2f, 0x74, 0x6f, 0x72, 0x63, 0x68, 0x2e, 0x6e, 0x6e, 0x2e, 0x6d,
  0x6f, 0x64, 0x75, 0x6c, 0x65, 0x73, 0x2e, 0x72, 0x6e, 0x6e, 0x2e, 0x47,
  0x52, 0x55, 0x5f, 0x67, 0x72, 0x75, 0x3b, 0x33, 0x35, 0x00, 0x00, 0x00,
  0x02, 0x00, 0x00, 0x00, 0x01, 0x00, 0x00, 0x00, 0x08, 0x00, 0x00, 0x00,
  0x9e, 0xe5, 0xff, 0xff, 0x00, 0x00, 0x00, 0x01, 0x10, 0x00, 0x00, 0x00,
  0x10, 0x00, 0x00, 0x00, 0x33, 0x00, 0x00, 0x00, 0x40, 0x00, 0x00, 0x00,
  0xe4, 0xe4, 0xff, 0xff, 0x31, 0x00, 0x00, 0x00, 0x5f, 0x5f, 0x6d, 0x61,
  0x69, 0x6e, 0x5f, 0x5f, 0x2e, 0x47, 0x52, 0x55, 0x5f, 0x4e, 0x4e, 0x5f,
  0x32, 0x2f, 0x74, 0x6f, 0x72, 0x63, 0x68, 0x2e, 0x6e, 0x6e, 0x2e, 0x6d,
  0x6f, 0x64, 0x75, 0x6c, 0x65, 0x73, 0x2e, 0x72, 0x6e, 0x6e, 0x2e, 0x47,
  0x52, 0x55, 0x5f, 0x67, 0x72, 0x75, 0x3b, 0x33, 0x34, 0x00, 0x00, 0x00,
  0x03, 0x00, 0x00, 0x00, 0x01, 0x00, 0x00, 0x00, 0x01, 0x00, 0x00, 0x00,
  0x08, 0x00, 0x00, 0x00, 0x02, 0xe6, 0xff, 0xff, 0x00, 0x00, 0x00, 0x01,
  0x10, 0x00, 0x00, 0x00, 0x10, 0x00, 0x00, 0x00, 0x32, 0x00, 0x00, 0x00,
  0x40, 0x00, 0x00, 0x00, 0x48, 0xe5, 0xff, 0xff, 0x31, 0x00, 0x00, 0x00,
  0x5f, 0x5f, 0x6d, 0x61, 0x69, 0x6e, 0x5f, 0x5f, 0x2e, 0x47, 0x52, 0x55,
  0x5f, 0x4e, 0x4e, 0x5f, 0x32, 0x2f, 0x74, 0x6f, 0x72, 0x63, 0x68, 0x2e,
  0x6e, 0x6e, 0x2e, 0x6d, 0x6f, 0x64, 0x75, 0x6c, 0x65, 0x73, 0x2e, 0x72,
  0x6e, 0x6e, 0x2e, 0x47, 0x52, 0x55, 0x5f, 0x67, 0x72, 0x75, 0x3b, 0x33,
  0x33, 0x00, 0x00, 0x00, 0x03, 0x00, 0x00, 0x00, 0x01, 0x00, 0x00, 0x00,
  0x01, 0x00, 0x00, 0x00, 0x08, 0x00, 0x00, 0x00, 0x66, 0xe6, 0xff, 0xff,
  0x00, 0x00, 0x00, 0x01, 0x10, 0x00, 0x00, 0x00, 0x10, 0x00, 0x00, 0x00,
  0x31, 0x00, 0x00, 0x00, 0x40, 0x00, 0x00, 0x00, 0xac, 0xe5, 0xff, 0xff,
  0x31, 0x00, 0x00, 0x00, 0x5f, 0x5f, 0x6d, 0x61, 0x69, 0x6e, 0x5f, 0x5f,
  0x2e, 0x47, 0x52, 0x55, 0x5f, 0x4e, 0x4e, 0x5f, 0x32, 0x2f, 0x74, 0x6f,
  0x72, 0x63, 0x68, 0x2e, 0x6e, 0x6e, 0x2e, 0x6d, 0x6f, 0x64, 0x75, 0x6c,
  0x65, 0x73, 0x2e, 0x72, 0x6e, 0x6e, 0x2e, 0x47, 0x52, 0x55, 0x5f, 0x67,
  0x72, 0x75, 0x3b, 0x33, 0x32, 0x00, 0x00, 0x00, 0x03, 0x00, 0x00, 0x00,
  0x01, 0x00, 0x00, 0x00, 0x01, 0x00, 0x00, 0x00, 0x08, 0x00, 0x00, 0x00,
  0xca, 0xe6, 0xff, 0xff, 0x00, 0x00, 0x00, 0x01, 0x10, 0x00, 0x00, 0x00,
  0x10, 0x00, 0x00, 0x00, 0x30, 0x00, 0x00, 0x00, 0x40, 0x00, 0x00, 0x00,
  0x10, 0xe6, 0xff, 0xff, 0x31, 0x00, 0x00, 0x00, 0x5f, 0x5f, 0x6d, 0x61,
  0x69, 0x6e, 0x5f, 0x5f, 0x2e, 0x47, 0x52, 0x55, 0x5f, 0x4e, 0x4e, 0x5f,
  0x32, 0x2f, 0x74, 0x6f, 0x72, 0x63, 0x68, 0x2e, 0x6e, 0x6e, 0x2e, 0x6d,
  0x6f, 0x64, 0x75, 0x6c, 0x65, 0x73, 0x2e, 0x72, 0x6e, 0x6e, 0x2e, 0x47,
  0x52, 0x55, 0x5f, 0x67, 0x72, 0x75, 0x3b, 0x33, 0x31, 0x00, 0x00, 0x00,
  0x03, 0x00, 0x00, 0x00, 0x01, 0x00, 0x00, 0x00, 0x01, 0x00, 0x00, 0x00,
  0x08, 0x00, 0x00, 0x00, 0x2e, 0xe7, 0xff, 0xff, 0x00, 0x00, 0x00, 0x01,
  0x10, 0x00, 0x00, 0x00, 0x10, 0x00, 0x00, 0x00, 0x2f, 0x00, 0x00, 0x00,
  0x40, 0x00, 0x00, 0x00, 0x74, 0xe6, 0xff, 0xff, 0x31, 0x00, 0x00, 0x00,
  0x5f, 0x5f, 0x6d, 0x61, 0x69, 0x6e, 0x5f, 0x5f, 0x2e, 0x47, 0x52, 0x55,
  0x5f, 0x4e, 0x4e, 0x5f, 0x32, 0x2f, 0x74, 0x6f, 0x72, 0x63, 0x68, 0x2e,
  0x6e, 0x6e, 0x2e, 0x6d, 0x6f, 0x64, 0x75, 0x6c, 0x65, 0x73, 0x2e, 0x72,
  0x6e, 0x6e, 0x2e, 0x47, 0x52, 0x55, 0x5f, 0x67, 0x72, 0x75, 0x3b, 0x33,
  0x30, 0x00, 0x00, 0x00, 0x03, 0x00, 0x00, 0x00, 0x01, 0x00, 0x00, 0x00,
  0x01, 0x00, 0x00, 0x00, 0x08, 0x00, 0x00, 0x00, 0x92, 0xe7, 0xff, 0xff,
  0x00, 0x00, 0x00, 0x01, 0x10, 0x00, 0x00, 0x00, 0x10, 0x00, 0x00, 0x00,
  0x2e, 0x00, 0x00, 0x00, 0x40, 0x00, 0x00, 0x00, 0xd8, 0xe6, 0xff, 0xff,
  0x31, 0x00, 0x00, 0x00, 0x5f, 0x5f, 0x6d, 0x61, 0x69, 0x6e, 0x5f, 0x5f,
  0x2e, 0x47, 0x52, 0x55, 0x5f, 0x4e, 0x4e, 0x5f, 0x32, 0x2f, 0x74, 0x6f,
  0x72, 0x63, 0x68, 0x2e, 0x6e, 0x6e, 0x2e, 0x6d, 0x6f, 0x64, 0x75, 0x6c,
  0x65, 0x73, 0x2e, 0x72, 0x6e, 0x6e, 0x2e, 0x47, 0x52, 0x55, 0x5f, 0x67,
  0x72, 0x75, 0x3b, 0x32, 0x39, 0x00, 0x00, 0x00, 0x03, 0x00, 0x00, 0x00,
  0x01, 0x00, 0x00, 0x00, 0x01, 0x00, 0x00, 0x00, 0x08, 0x00, 0x00, 0x00,
  0xf6, 0xe7, 0xff, 0xff, 0x00, 0x00, 0x00, 0x01, 0x10, 0x00, 0x00, 0x00,
  0x10, 0x00, 0x00, 0x00, 0x2d, 0x00, 0x00, 0x00, 0x40, 0x00, 0x00, 0x00,
  0x3c, 0xe7, 0xff, 0xff, 0x31, 0x00, 0x00, 0x00, 0x5f, 0x5f, 0x6d, 0x61,
  0x69, 0x6e, 0x5f, 0x5f, 0x2e, 0x47, 0x52, 0x55, 0x5f, 0x4e, 0x4e, 0x5f,
  0x32, 0x2f, 0x74, 0x6f, 0x72, 0x63, 0x68, 0x2e, 0x6e, 0x6e, 0x2e, 0x6d,
  0x6f, 0x64, 0x75, 0x6c, 0x65, 0x73, 0x2e, 0x72, 0x6e, 0x6e, 0x2e, 0x47,
  0x52, 0x55, 0x5f, 0x67, 0x72, 0x75, 0x3b, 0x32, 0x38, 0x00, 0x00, 0x00,
  0x03, 0x00, 0x00, 0x00, 0x01, 0x00, 0x00, 0x00, 0x01, 0x00, 0x00, 0x00,
  0x08, 0x00, 0x00, 0x00, 0x5a, 0xe8, 0xff, 0xff, 0x00, 0x00, 0x00, 0x01,
  0x10, 0x00, 0x00, 0x00, 0x10, 0x00, 0x00, 0x00, 0x2c, 0x00, 0x00, 0x00,
  0x40, 0x00, 0x00, 0x00, 0xa0, 0xe7, 0xff, 0xff, 0x31, 0x00, 0x00, 0x00,
  0x5f, 0x5f, 0x6d, 0x61, 0x69, 0x6e, 0x5f, 0x5f, 0x2e, 0x47, 0x52, 0x55,
  0x5f, 0x4e, 0x4e, 0x5f, 0x32, 0x2f, 0x74, 0x6f, 0x72, 0x63, 0x68, 0x2e,
  0x6e, 0x6e, 0x2e, 0x6d, 0x6f, 0x64, 0x75, 0x6c, 0x65, 0x73, 0x2e, 0x72,
  0x6e, 0x6e, 0x2e, 0x47, 0x52, 0x55, 0x5f, 0x67, 0x72, 0x75, 0x3b, 0x32,
  0x37, 0x00, 0x00, 0x00, 0x03, 0x00, 0x00, 0x00, 0x01, 0x00, 0x00, 0x00,
  0x01, 0x00, 0x00, 0x00, 0x08, 0x00, 0x00, 0x00, 0xbe, 0xe8, 0xff, 0xff,
  0x00, 0x00, 0x00, 0x01, 0x10, 0x00, 0x00, 0x00, 0x10, 0x00, 0x00, 0x00,
  0x2b, 0x00, 0x00, 0x00, 0x40, 0x00, 0x00, 0x00, 0x04, 0xe8, 0xff, 0xff,
  0x31, 0x00, 0x00, 0x00, 0x5f, 0x5f, 0x6d, 0x61, 0x69, 0x6e, 0x5f, 0x5f,
  0x2e, 0x47, 0x52, 0x55, 0x5f, 0x4e, 0x4e, 0x5f, 0x32, 0x2f, 0x74, 0x6f,
  0x72, 0x63, 0x68, 0x2e, 0x6e, 0x6e, 0x2e, 0x6d, 0x6f, 0x64, 0x75, 0x6c,
  0x65, 0x73, 0x2e, 0x72, 0x6e, 0x6e, 0x2e, 0x47, 0x52, 0x55, 0x5f, 0x67,
  0x72, 0x75, 0x3b, 0x32, 0x36, 0x00, 0x00, 0x00, 0x03, 0x00, 0x00, 0x00,
  0x01, 0x00, 0x00, 0x00, 0x01, 0x00, 0x00, 0x00, 0x08, 0x00, 0x00, 0x00,
  0x22, 0xe9, 0xff, 0xff, 0x00, 0x00, 0x00, 0x01, 0x10, 0x00, 0x00, 0x00,
  0x10, 0x00, 0x00, 0x00, 0x2a, 0x00, 0x00, 0x00, 0x40, 0x00, 0x00, 0x00,
  0x68, 0xe8, 0xff, 0xff, 0x31, 0x00, 0x00, 0x00, 0x5f, 0x5f, 0x6d, 0x61,
  0x69, 0x6e, 0x5f, 0x5f, 0x2e, 0x47, 0x52, 0x55, 0x5f, 0x4e, 0x4e, 0x5f,
  0x32, 0x2f, 0x74, 0x6f, 0x72, 0x63, 0x68, 0x2e, 0x6e, 0x6e, 0x2e, 0x6d,
  0x6f, 0x64, 0x75, 0x6c, 0x65, 0x73, 0x2e, 0x72, 0x6e, 0x6e, 0x2e, 0x47,
  0x52, 0x55, 0x5f, 0x67, 0x72, 0x75, 0x3b, 0x32, 0x35, 0x00, 0x00, 0x00,
  0x03, 0x00, 0x00, 0x00, 0x01, 0x00, 0x00, 0x00, 0x01, 0x00, 0x00, 0x00,
  0x08, 0x00, 0x00, 0x00, 0x86, 0xe9, 0xff, 0xff, 0x00, 0x00, 0x00, 0x01,
  0x10, 0x00, 0x00, 0x00, 0x10, 0x00, 0x00, 0x00, 0x29, 0x00, 0x00, 0x00,
  0x40, 0x00, 0x00, 0x00, 0xcc, 0xe8, 0xff, 0xff, 0x31, 0x00, 0x00, 0x00,
  0x5f, 0x5f, 0x6d, 0x61, 0x69, 0x6e, 0x5f, 0x5f, 0x2e, 0x47, 0x52, 0x55,
  0x5f, 0x4e, 0x4e, 0x5f, 0x32, 0x2f, 0x74, 0x6f, 0x72, 0x63, 0x68, 0x2e,
  0x6e, 0x6e, 0x2e, 0x6d, 0x6f, 0x64, 0x75, 0x6c, 0x65, 0x73, 0x2e, 0x72,
  0x6e, 0x6e, 0x2e, 0x47, 0x52, 0x55, 0x5f, 0x67, 0x72, 0x75, 0x3b, 0x32,
  0x34, 0x00, 0x00, 0x00, 0x03, 0x00, 0x00, 0x00, 0x01, 0x00, 0x00, 0x00,
  0x01, 0x00, 0x00, 0x00, 0x08, 0x00, 0x00, 0x00, 0xea, 0xe9, 0xff, 0xff,
  0x00, 0x00, 0x00, 0x01, 0x10, 0x00, 0x00, 0x00, 0x10, 0x00, 0x00, 0x00,
  0x28, 0x00, 0x00, 0x00, 0x40, 0x00, 0x00, 0x00, 0x30, 0xe9, 0xff, 0xff,
  0x31, 0x00, 0x00, 0x00, 0x5f, 0x5f, 0x6d, 0x61, 0x69, 0x6e, 0x5f, 0x5f,
  0x2e, 0x47, 0x52, 0x55, 0x5f, 0x4e, 0x4e, 0x5f, 0x32, 0x2f, 0x74, 0x6f,
  0x72, 0x63, 0x68, 0x2e, 0x6e, 0x6e, 0x2e, 0x6d, 0x6f, 0x64, 0x75, 0x6c,
  0x65, 0x73, 0x2e, 0x72, 0x6e, 0x6e, 0x2e, 0x47, 0x52, 0x55, 0x5f, 0x67,
  0x72, 0x75, 0x3b, 0x32, 0x33, 0x00, 0x00, 0x00, 0x03, 0x00, 0x00, 0x00,
  0x01, 0x00, 0x00, 0x00, 0x01, 0x00, 0x00, 0x00, 0x08, 0x00, 0x00, 0x00,
  0x4e, 0xea, 0xff, 0xff, 0x00, 0x00, 0x00, 0x01, 0x10, 0x00, 0x00, 0x00,
  0x10, 0x00, 0x00, 0x00, 0x27, 0x00, 0x00, 0x00, 0x40, 0x00, 0x00, 0x00,
  0x94, 0xe9, 0xff, 0xff, 0x31, 0x00, 0x00, 0x00, 0x5f, 0x5f, 0x6d, 0x61,
  0x69, 0x6e, 0x5f, 0x5f, 0x2e, 0x47, 0x52, 0x55, 0x5f, 0x4e, 0x4e, 0x5f,
  0x32, 0x2f, 0x74, 0x6f, 0x72, 0x63, 0x68, 0x2e, 0x6e, 0x6e, 0x2e, 0x6d,
  0x6f, 0x64, 0x75, 0x6c, 0x65, 0x73, 0x2e, 0x72, 0x6e, 0x6e, 0x2e, 0x47,
  0x52, 0x55, 0x5f, 0x67, 0x72, 0x75, 0x3b, 0x32, 0x32, 0x00, 0x00, 0x00,
  0x03, 0x00, 0x00, 0x00, 0x01, 0x00, 0x00, 0x00, 0x01, 0x00, 0x00, 0x00,
  0x08, 0x00, 0x00, 0x00, 0xb2, 0xea, 0xff, 0xff, 0x00, 0x00, 0x00, 0x01,
  0x10, 0x00, 0x00, 0x00, 0x10, 0x00, 0x00, 0x00, 0x26, 0x00, 0x00, 0x00,
  0x40, 0x00, 0x00, 0x00, 0xf8, 0xe9, 0xff, 0xff, 0x31, 0x00, 0x00, 0x00,
  0x5f, 0x5f, 0x6d, 0x61, 0x69, 0x6e, 0x5f, 0x5f, 0x2e, 0x47, 0x52, 0x55,
  0x5f, 0x4e, 0x4e, 0x5f, 0x32, 0x2f, 0x74, 0x6f, 0x72, 0x63, 0x68, 0x2e,
  0x6e, 0x6e, 0x2e, 0x6d, 0x6f, 0x64, 0x75, 0x6c, 0x65, 0x73, 0x2e, 0x72,
  0x6e, 0x6e, 0x2e, 0x47, 0x52, 0x55, 0x5f, 0x67, 0x72, 0x75, 0x3b, 0x32,
  0x31, 0x00, 0x00, 0x00, 0x03, 0x00, 0x00, 0x00, 0x01, 0x00, 0x00, 0x00,
  0x01, 0x00, 0x00, 0x00, 0x18, 0x00, 0x00, 0x00, 0x16, 0xeb, 0xff, 0xff,
  0x00, 0x00, 0x00, 0x01, 0x10, 0x00, 0x00, 0x00, 0x10, 0x00, 0x00, 0x00,
  0x25, 0x00, 0x00, 0x00, 0x40, 0x00, 0x00, 0x00, 0x5c, 0xea, 0xff, 0xff,
  0x31, 0x00, 0x00, 0x00, 0x5f, 0x5f, 0x6d, 0x61, 0x69, 0x6e, 0x5f, 0x5f,
  0x2e, 0x47, 0x52, 0x55, 0x5f, 0x4e, 0x4e, 0x5f, 0x32, 0x2f, 0x74, 0x6f,
  0x72, 0x63, 0x68, 0x2e, 0x6e, 0x6e, 0x2e, 0x6d, 0x6f, 0x64, 0x75, 0x6c,
  0x65, 0x73, 0x2e, 0x72, 0x6e, 0x6e, 0x2e, 0x47, 0x52, 0x55, 0x5f, 0x67,
  0x72, 0x75, 0x3b, 0x32, 0x30, 0x00, 0x00, 0x00, 0x02, 0x00, 0x00, 0x00,
  0x01, 0x00, 0x00, 0x00, 0x08, 0x00, 0x00, 0x00, 0x76, 0xeb, 0xff, 0xff,
  0x00, 0x00, 0x00, 0x01, 0x10, 0x00, 0x00, 0x00, 0x10, 0x00, 0x00, 0x00,
  0x24, 0x00, 0x00, 0x00, 0x40, 0x00, 0x00, 0x00, 0xbc, 0xea, 0xff, 0xff,
  0x31, 0x00, 0x00, 0x00, 0x5f, 0x5f, 0x6d, 0x61, 0x69, 0x6e, 0x5f, 0x5f,
  0x2e, 0x47, 0x52, 0x55, 0x5f, 0x4e, 0x4e, 0x5f, 0x32, 0x2f, 0x74, 0x6f,
  0x72, 0x63, 0x68, 0x2e, 0x6e, 0x6e, 0x2e, 0x6d, 0x6f, 0x64, 0x75, 0x6c,
  0x65, 0x73, 0x2e, 0x72, 0x6e, 0x6e, 0x2e, 0x47, 0x52, 0x55, 0x5f, 0x67,
  0x72, 0x75, 0x3b, 0x31, 0x39, 0x00, 0x00, 0x00, 0x02, 0x00, 0x00, 0x00,
  0x01, 0x00, 0x00, 0x00, 0x08, 0x00, 0x00, 0x00, 0xd6, 0xeb, 0xff, 0xff,
  0x00, 0x00, 0x00, 0x01, 0x10, 0x00, 0x00, 0x00, 0x10, 0x00, 0x00, 0x00,
  0x23, 0x00, 0x00, 0x00, 0x40, 0x00, 0x00, 0x00, 0x1c, 0xeb, 0xff, 0xff,
  0x31, 0x00, 0x00, 0x00, 0x5f, 0x5f, 0x6d, 0x61, 0x69, 0x6e, 0x5f, 0x5f,
  0x2e, 0x47, 0x52, 0x55, 0x5f, 0x4e, 0x4e, 0x5f, 0x32, 0x2f, 0x74, 0x6f,
  0x72, 0x63, 0x68, 0x2e, 0x6e, 0x6e, 0x2e, 0x6d, 0x6f, 0x64, 0x75, 0x6c,
  0x65, 0x73, 0x2e, 0x72, 0x6e, 0x6e, 0x2e, 0x47, 0x52, 0x55, 0x5f, 0x67,
  0x72, 0x75, 0x3b, 0x31, 0x38, 0x00, 0x00, 0x00, 0x02, 0x00, 0x00, 0x00,
  0x01, 0x00, 0x00, 0x00, 0x08, 0x00, 0x00, 0x00, 0x36, 0xec, 0xff, 0xff,
  0x00, 0x00, 0x00, 0x01, 0x10, 0x00, 0x00, 0x00, 0x10, 0x00, 0x00, 0x00,
  0x22, 0x00, 0x00, 0x00, 0x40, 0x00, 0x00, 0x00, 0x7c, 0xeb, 0xff, 0xff,
  0x31, 0x00, 0x00, 0x00, 0x5f, 0x5f, 0x6d, 0x61, 0x69, 0x6e, 0x5f, 0x5f,
  0x2e, 0x47, 0x52, 0x55, 0x5f, 0x4e, 0x4e, 0x5f, 0x32, 0x2f, 0x74, 0x6f,
  0x72, 0x63, 0x68, 0x2e, 0x6e, 0x6e, 0x2e, 0x6d, 0x6f, 0x64, 0x75, 0x6c,
  0x65, 0x73, 0x2e, 0x72, 0x6e, 0x6e, 0x2e, 0x47, 0x52, 0x55, 0x5f, 0x67,
  0x72, 0x75, 0x3b, 0x31, 0x37, 0x00, 0x00, 0x00, 0x02, 0x00, 0x00, 0x00,
  0x01, 0x00, 0x00, 0x00, 0x18, 0x00, 0x00, 0x00, 0x96, 0xec, 0xff, 0xff,
  0x00, 0x00, 0x00, 0x01, 0x10, 0x00, 0x00, 0x00, 0x10, 0x00, 0x00, 0x00,
  0x21, 0x00, 0x00, 0x00, 0x40, 0x00, 0x00, 0x00, 0xdc, 0xeb, 0xff, 0xff,
  0x31, 0x00, 0x00, 0x00, 0x5f, 0x5f, 0x6d, 0x61, 0x69, 0x6e, 0x5f, 0x5f,
  0x2e, 0x47, 0x52, 0x55, 0x5f, 0x4e, 0x4e, 0x5f, 0x32, 0x2f, 0x74, 0x6f,
  0x72, 0x63, 0x68, 0x2e, 0x6e, 0x6e, 0x2e, 0x6d, 0x6f, 0x64, 0x75, 0x6c,
  0x65, 0x73, 0x2e, 0x72, 0x6e, 0x6e, 0x2e, 0x47, 0x52, 0x55, 0x5f, 0x67,
  0x72, 0x75, 0x3b, 0x31, 0x36, 0x00, 0x00, 0x00, 0x03, 0x00, 0x00, 0x00,
  0x01, 0x00, 0x00, 0x00, 0x01, 0x00, 0x00, 0x00, 0x08, 0x00, 0x00, 0x00,
  0xfa, 0xec, 0xff, 0xff, 0x00, 0x00, 0x00, 0x01, 0x10, 0x00, 0x00, 0x00,
  0x10, 0x00, 0x00, 0x00, 0x20, 0x00, 0x00, 0x00, 0x40, 0x00, 0x00, 0x00,
  0x40, 0xec, 0xff, 0xff, 0x31, 0x00, 0x00, 0x00, 0x5f, 0x5f, 0x6d, 0x61,
  0x69, 0x6e, 0x5f, 0x5f, 0x2e, 0x47, 0x52, 0x55, 0x5f, 0x4e, 0x4e, 0x5f,
  0x32, 0x2f, 0x74, 0x6f, 0x72, 0x63, 0x68, 0x2e, 0x6e, 0x6e, 0x2e, 0x6d,
  0x6f, 0x64, 0x75, 0x6c, 0x65, 0x73, 0x2e, 0x72, 0x6e, 0x6e, 0x2e, 0x47,
  0x52, 0x55, 0x5f, 0x67, 0x72, 0x75, 0x3b, 0x31, 0x35, 0x00, 0x00, 0x00,
  0x03, 0x00, 0x00, 0x00, 0x01, 0x00, 0x00, 0x00, 0x01, 0x00, 0x00, 0x00,
  0x08, 0x00, 0x00, 0x00, 0x5e, 0xed, 0xff, 0xff, 0x00, 0x00, 0x00, 0x01,
  0x10, 0x00, 0x00, 0x00, 0x10, 0x00, 0x00, 0x00, 0x1f, 0x00, 0x00, 0x00,
  0x40, 0x00, 0x00, 0x00, 0xa4, 0xec, 0xff, 0xff, 0x31, 0x00, 0x00, 0x00,
  0x5f, 0x5f, 0x6d, 0x61, 0x69, 0x6e, 0x5f, 0x5f, 0x2e, 0x47, 0x52, 0x55,
  0x5f, 0x4e, 0x4e, 0x5f, 0x32, 0x2f, 0x74, 0x6f, 0x72, 0x63, 0x68, 0x2e,
  0x6e, 0x6e, 0x2e, 0x6d, 0x6f, 0x64, 0x75, 0x6c, 0x65, 0x73, 0x2e, 0x72,
  0x6e, 0x6e, 0x2e, 0x47, 0x52, 0x55, 0x5f, 0x67, 0x72, 0x75, 0x3b, 0x31,
  0x34, 0x00, 0x00, 0x00, 0x03, 0x00, 0x00, 0x00, 0x01, 0x00, 0x00, 0x00,
  0x01, 0x00, 0x00, 0x00, 0x08, 0x00, 0x00, 0x00, 0x62, 0xee, 0xff, 0xff,
  0x00, 0x00, 0x00, 0x01, 0x14, 0x00, 0x00, 0x00, 0x30, 0x00, 0x00, 0x00,
  0x1e, 0x00, 0x00, 0x00, 0x00, 0x00, 0x00, 0x09, 0x9c, 0x00, 0x00, 0x00,
  0x34, 0xf6, 0xff, 0xff, 0x08, 0x00, 0x00, 0x00, 0x10, 0x00, 0x00, 0x00,
  0x01, 0x00, 0x00, 0x00, 0x00, 0x00, 0x00, 0x00, 0x00, 0x00, 0x00, 0x00,
  0x01, 0x00, 0x00, 0x00, 0x20, 0x11, 0x10, 0x3b, 0x73, 0x00, 0x00, 0x00,
  0x74, 0x6f, 0x72, 0x63, 0x68, 0x2e, 0x65, 0x78, 0x70, 0x6f, 0x72, 0x74,
  0x2e, 0x5f, 0x74, 0x72, 0x61, 0x63, 0x65, 0x2e, 0x5f, 0x6e, 0x6f, 0x6e,
  0x5f, 0x73, 0x74, 0x72, 0x69, 0x63, 0x74, 0x5f, 0x65, 0x78, 0x70, 0x6f,
  0x72, 0x74, 0x2e, 0x3c, 0x6c, 0x6f, 0x63, 0x61, 0x6c, 0x73, 0x3e, 0x2e,
  0x5f, 0x74, 0x75, 0x70, 0x6c, 0x69, 0x66, 0x79, 0x5f, 0x6f, 0x75, 0x74,
  0x70, 0x75, 0x74, 0x73, 0x2e, 0x3c, 0x6c, 0x6f, 0x63, 0x61, 0x6c, 0x73,
  0x3e, 0x2e, 0x5f, 0x61, 0x6f, 0x74, 0x5f, 0x65, 0x78, 0x70, 0x6f, 0x72,
  0x74, 0x5f, 0x6e, 0x6f, 0x6e, 0x5f, 0x73, 0x74, 0x72, 0x69, 0x63, 0x74,
  0x2e, 0x3c, 0x6c, 0x6f, 0x63, 0x61, 0x6c, 0x73, 0x3e, 0x2e, 0x57, 0x72,
  0x61, 0x70, 0x70, 0x65, 0x72, 0x3b, 0x31, 0x00, 0x02, 0x00, 0x00, 0x00,
  0x01, 0x00, 0x00, 0x00, 0x08, 0x00, 0x00, 0x00, 0x22, 0xef, 0xff, 0xff,
  0x00, 0x00, 0x00, 0x01, 0x14, 0x00, 0x00, 0x00, 0x88, 0x00, 0x00, 0x00,
  0x1d, 0x00, 0x00, 0x00, 0x00, 0x00, 0x00, 0x09, 0xf4, 0x00, 0x00, 0x00,
  0xf4, 0xf6, 0xff, 0xff, 0x08, 0x00, 0x00, 0x00, 0x4c, 0x00, 0x00, 0x00,
  0x08, 0x00, 0x00, 0x00, 0x00, 0x00, 0x00, 0x00, 0x00, 0x00, 0x00, 0x00,
  0x00, 0x00, 0x00, 0x00, 0x00, 0x00, 0x00, 0x00, 0x00, 0x00, 0x00, 0x00,
  0x00, 0x00, 0x00, 0x00, 0x00, 0x00, 0x00, 0x00, 0x00, 0x00, 0x00, 0x00,
  0x00, 0x00, 0x00, 0x00, 0x00, 0x00, 0x00, 0x00, 0x00, 0x00, 0x00, 0x00,
  0x00, 0x00, 0x00, 0x00, 0x00, 0x00, 0x00, 0x00, 0x00, 0x00, 0x00, 0x00,
  0x00, 0x00, 0x00, 0x00, 0x00, 0x00, 0x00, 0x00, 0x00, 0x00, 0x00, 0x00,
  0x08, 0x00, 0x00, 0x00, 0x36, 0x82, 0xff, 0x3a, 0x3d, 0x4c, 0x0e, 0x3b,
  0x57, 0x02, 0xef, 0x3a, 0x9c, 0x7f, 0x35, 0x3b, 0x38, 0xee, 0x34, 0x3b,
  0x1e, 0x6f, 0x0f, 0x3b, 0x60, 0x5d, 0x03, 0x3b, 0xe2, 0xc7, 0x34, 0x3b,
  0x72, 0x00, 0x00, 0x00, 0x74, 0x6f, 0x72, 0x63, 0x68, 0x2e, 0x65, 0x78,
  0x70, 0x6f, 0x72, 0x74, 0x2e, 0x5f, 0x74, 0x72, 0x61, 0x63, 0x65, 0x2e,
  0x5f, 0x6e, 0x6f, 0x6e, 0x5f, 0x73, 0x74, 0x72, 0x69, 0x63, 0x74, 0x5f,
  0x65, 0x78, 0x70, 0x6f, 0x72, 0x74, 0x2e, 0x3c, 0x6c, 0x6f, 0x63, 0x61,
  0x6c, 0x73, 0x3e, 0x2e, 0x5f, 0x74, 0x75, 0x70, 0x6c, 0x69, 0x66, 0x79,
  0x5f, 0x6f, 0x75, 0x74, 0x70, 0x75, 0x74, 0x73, 0x2e, 0x3c, 0x6c, 0x6f,
  0x63, 0x61, 0x6c, 0x73, 0x3e, 0x2e, 0x5f, 0x61, 0x6f, 0x74, 0x5f, 0x65,
  0x78, 0x70, 0x6f, 0x72, 0x74, 0x5f, 0x6e, 0x6f, 0x6e, 0x5f, 0x73, 0x74,
  0x72, 0x69, 0x63, 0x74, 0x2e, 0x3c, 0x6c, 0x6f, 0x63, 0x61, 0x6c, 0x73,
  0x3e, 0x2e, 0x57, 0x72, 0x61, 0x70, 0x70, 0x65, 0x72, 0x3b, 0x00, 0x00,
  0x02, 0x00, 0x00, 0x00, 0x08, 0x00, 0x00, 0x00, 0x08, 0x00, 0x00, 0x00,
  0x3a, 0xf0, 0xff, 0xff, 0x00, 0x00, 0x00, 0x01, 0x14, 0x00, 0x00, 0x00,
  0x48, 0x01, 0x00, 0x00, 0x1c, 0x00, 0x00, 0x00, 0x00, 0x00, 0x00, 0x09,
  0x74, 0x01, 0x00, 0x00, 0x0c, 0xf8, 0xff, 0xff, 0x08, 0x00, 0x00, 0x00,
  0xcc, 0x00, 0x00, 0x00, 0x18, 0x00, 0x00, 0x00, 0x00, 0x00, 0x00, 0x00,
  0x00, 0x00, 0x00, 0x00, 0x00, 0x00, 0x00, 0x00, 0x00, 0x00, 0x00, 0x00,
  0x00, 0x00, 0x00, 0x00, 0x00, 0x00, 0x00, 0x00, 0x00, 0x00, 0x00, 0x00,
  0x00, 0x00, 0x00, 0x00, 0x00, 0x00, 0x00, 0x00, 0x00, 0x00, 0x00, 0x00,
  0x00, 0x00, 0x00, 0x00, 0x00, 0x00, 0x00, 0x00, 0x00, 0x00, 0x00, 0x00,
  0x00, 0x00, 0x00, 0x00, 0x00, 0x00, 0x00, 0x00, 0x00, 0x00, 0x00, 0x00,
  0x00, 0x00, 0x00, 0x00, 0x00, 0x00, 0x00, 0x00, 0x00, 0x00, 0x00, 0x00,
  0x00, 0x00, 0x00, 0x00, 0x00, 0x00, 0x00, 0x00, 0x00, 0x00, 0x00, 0x00,
  0x00, 0x00, 0x00, 0x00, 0x00, 0x00, 0x00, 0x00, 0x00, 0x00, 0x00, 0x00,
  0x00, 0x00, 0x00, 0x00, 0x00, 0x00, 0x00, 0x00, 0x00, 0x00, 0x00, 0x00,
  0x00, 0x00, 0x00, 0x00, 0x00, 0x00, 0x00, 0x00, 0x00, 0x00, 0x00, 0x00,
  0x00, 0x00, 0x00, 0x00, 0x00, 0x00, 0x00, 0x00, 0x00, 0x00, 0x00, 0x00,
  0x00, 0x00, 0x00, 0x00, 0x00, 0x00, 0x00, 0x00, 0x00, 0x00, 0x00, 0x00,
  0x00, 0x00, 0x00, 0x00, 0x00, 0x00, 0x00, 0x00, 0x00, 0x00, 0x00, 0x00,
  0x00, 0x00, 0x00, 0x00, 0x00, 0x00, 0x00, 0x00, 0x00, 0x00, 0x00, 0x00,
  0x00, 0x00, 0x00, 0x00, 0x00, 0x00, 0x00, 0x00, 0x00, 0x00, 0x00, 0x00,
  0x00, 0x00, 0x00, 0x00, 0x00, 0x00, 0x00, 0x00, 0x00, 0x00, 0x00, 0x00,
  0x18, 0x00, 0x00, 0x00, 0x64, 0x6d, 0x5f, 0x3a, 0xd1, 0xfe, 0xd1, 0x3a,
  0x5d, 0x31, 0x31, 0x3b, 0xb7, 0x79, 0x0e, 0x3b, 0x98, 0x9f, 0x2c, 0x3b,
  0x9f, 0x3b, 0x17, 0x3b, 0x7f, 0x52, 0x21, 0x3b, 0x68, 0xb6, 0x17, 0x3b,
  0x16, 0xb2, 0x11, 0x3b, 0x65, 0x3c, 0x34, 0x3b, 0xc7, 0x5e, 0xde, 0x3a,
  0xbd, 0x05, 0xfa, 0x3a, 0xa8, 0x9d, 0x24, 0x3b, 0x36, 0x35, 0xeb, 0x3a,
  0x48, 0x93, 0x11, 0x3b, 0x33, 0x95, 0x0c, 0x3b, 0xc3, 0x7f, 0x28, 0x3b,
  0x15, 0xe8, 0x04, 0x3b, 0xa2, 0x93, 0x2e, 0x3b, 0x25, 0x66, 0x16, 0x3b,
  0x79, 0x1f, 0x16, 0x3b, 0x9b, 0xb1, 0xe5, 0x3a, 0x32, 0x53, 0xec, 0x3a,
  0x5d, 0x07, 0x0d, 0x3b, 0x31, 0x00, 0x00, 0x00, 0x5f, 0x5f, 0x6d, 0x61,
  0x69, 0x6e, 0x5f, 0x5f, 0x2e, 0x47, 0x52, 0x55, 0x5f, 0x4e, 0x4e, 0x5f,
  0x32, 0x2f, 0x74, 0x6f, 0x72, 0x63, 0x68, 0x2e, 0x6e, 0x6e, 0x2e, 0x6d,
  0x6f, 0x64, 0x75, 0x6c, 0x65, 0x73, 0x2e, 0x72, 0x6e, 0x6e, 0x2e, 0x47,
  0x52, 0x55, 0x5f, 0x67, 0x72, 0x75, 0x3b, 0x31, 0x33, 0x00, 0x00, 0x00,
  0x02, 0x00, 0x00, 0x00, 0x18, 0x00, 0x00, 0x00, 0x04, 0x00, 0x00, 0x00,
  0xd2, 0xf1, 0xff, 0xff, 0x00, 0x00, 0x00, 0x01, 0x14, 0x00, 0x00, 0x00,
  0x48, 0x01, 0x00, 0x00, 0x1b, 0x00, 0x00, 0x00, 0x00, 0x00, 0x00, 0x09,
  0x74, 0x01, 0x00, 0x00, 0xa4, 0xf9, 0xff, 0xff, 0x08, 0x00, 0x00, 0x00,
  0xcc, 0x00, 0x00, 0x00, 0x18, 0x00, 0x00, 0x00, 0x00, 0x00, 0x00, 0x00,
  0x00, 0x00, 0x00, 0x00, 0x00, 0x00, 0x00, 0x00, 0x00, 0x00, 0x00, 0x00,
  0x00, 0x00, 0x00, 0x00, 0x00, 0x00, 0x00, 0x00, 0x00, 0x00, 0x00, 0x00,
  0x00, 0x00, 0x00, 0x00, 0x00, 0x00, 0x00, 0x00, 0x00, 0x00, 0x00, 0x00,
  0x00, 0x00, 0x00, 0x00, 0x00, 0x00, 0x00, 0x00, 0x00, 0x00, 0x00, 0x00,
  0x00, 0x00, 0x00, 0x00, 0x00, 0x00, 0x00, 0x00, 0x00, 0x00, 0x00, 0x00,
  0x00, 0x00, 0x00, 0x00, 0x00, 0x00, 0x00, 0x00, 0x00, 0x00, 0x00, 0x00,
  0x00, 0x00, 0x00, 0x00, 0x00, 0x00, 0x00, 0x00, 0x00, 0x00, 0x00, 0x00,
  0x00, 0x00, 0x00, 0x00, 0x00, 0x00, 0x00, 0x00, 0x00, 0x00, 0x00, 0x00,
  0x00, 0x00, 0x00, 0x00, 0x00, 0x00, 0x00, 0x00, 0x00, 0x00, 0x00, 0x00,
  0x00, 0x00, 0x00, 0x00, 0x00, 0x00, 0x00, 0x00, 0x00, 0x00, 0x00, 0x00,
  0x00, 0x00, 0x00, 0x00, 0x00, 0x00, 0x00, 0x00, 0x00, 0x00, 0x00, 0x00,
  0x00, 0x00, 0x00, 0x00, 0x00, 0x00, 0x00, 0x00, 0x00, 0x00, 0x00, 0x00,
  0x00, 0x00, 0x00, 0x00, 0x00, 0x00, 0x00, 0x00, 0x00, 0x00, 0x00, 0x00,
  0x00, 0x00, 0x00, 0x00, 0x00, 0x00, 0x00, 0x00, 0x00, 0x00, 0x00, 0x00,
  0x00, 0x00, 0x00, 0x00, 0x00, 0x00, 0x00, 0x00, 0x00, 0x00, 0x00, 0x00,
  0x00, 0x00, 0x00, 0x00, 0x00, 0x00, 0x00, 0x00, 0x00, 0x00, 0x00, 0x00,
  0x18, 0x00, 0x00, 0x00, 0xc9, 0x11, 0x26, 0x3b, 0x71, 0xe5, 0x23, 0x3b,
  0xa6, 0x2e, 0x2b, 0x3b, 0x74, 0x62, 0x31, 0x3b, 0x33, 0xc0, 0x2b, 0x3b,
  0x0d, 0xb9, 0x1a, 0x3b, 0xc4, 0xb6, 0x2b, 0x3b, 0xf4, 0xc1, 0x2a, 0x3b,
  0xb3, 0x27, 0x23, 0x3b, 0x22, 0xcf, 0x2a, 0x3b, 0x5a, 0xd5, 0x28, 0x3b,
  0xaa, 0x61, 0x30, 0x3b, 0xf4, 0xee, 0x2e, 0x3b, 0xf3, 0x79, 0x11, 0x3b,
  0x47, 0x41, 0x19, 0x3b, 0xc8, 0x98, 0x0b, 0x3b, 0xbb, 0x64, 0x26, 0x3b,
  0xbe, 0x87, 0x24, 0x3b, 0x41, 0x67, 0x21, 0x3b, 0x30, 0x91, 0x32, 0x3b,
  0x83, 0x03, 0x2e, 0x3b, 0x22, 0x3e, 0xfc, 0x3a, 0xdc, 0x7b, 0x34, 0x3b,
  0xbf, 0xc5, 0xed, 0x3a, 0x31, 0x00, 0x00, 0x00, 0x5f, 0x5f, 0x6d, 0x61,
  0x69, 0x6e, 0x5f, 0x5f, 0x2e, 0x47, 0x52, 0x55, 0x5f, 0x4e, 0x4e, 0x5f,
  0x32, 0x2f, 0x74, 0x6f, 0x72, 0x63, 0x68, 0x2e, 0x6e, 0x6e, 0x2e, 0x6d,
  0x6f, 0x64, 0x75, 0x6c, 0x65, 0x73, 0x2e, 0x72, 0x6e, 0x6e, 0x2e, 0x47,
  0x52, 0x55, 0x5f, 0x67, 0x72, 0x75, 0x3b, 0x31, 0x32, 0x00, 0x00, 0x00,
  0x02, 0x00, 0x00, 0x00, 0x18, 0x00, 0x00, 0x00, 0x08, 0x00, 0x00, 0x00,
  0x6a, 0xf3, 0xff, 0xff, 0x00, 0x00, 0x00, 0x01, 0x14, 0x00, 0x00, 0x00,
  0x48, 0x01, 0x00, 0x00, 0x1a, 0x00, 0x00, 0x00, 0x00, 0x00, 0x00, 0x09,
  0x74, 0x01, 0x00, 0x00, 0x3c, 0xfb, 0xff, 0xff, 0x08, 0x00, 0x00, 0x00,
  0xcc, 0x00, 0x00, 0x00, 0x18, 0x00, 0x00, 0x00, 0x00, 0x00, 0x00, 0x00,
  0x00, 0x00, 0x00, 0x00, 0x00, 0x00, 0x00, 0x00, 0x00, 0x00, 0x00, 0x00,
  0x00, 0x00, 0x00, 0x00, 0x00, 0x00, 0x00, 0x00, 0x00, 0x00, 0x00, 0x00,
  0x00, 0x00, 0x00, 0x00, 0x00, 0x00, 0x00, 0x00, 0x00, 0x00, 0x00, 0x00,
  0x00, 0x00, 0x00, 0x00, 0x00, 0x00, 0x00, 0x00, 0x00, 0x00, 0x00, 0x00,
  0x00, 0x00, 0x00, 0x00, 0x00, 0x00, 0x00, 0x00, 0x00, 0x00, 0x00, 0x00,
  0x00, 0x00, 0x00, 0x00, 0x00, 0x00, 0x00, 0x00, 0x00, 0x00, 0x00, 0x00,
  0x00, 0x00, 0x00, 0x00, 0x00, 0x00, 0x00, 0x00, 0x00, 0x00, 0x00, 0x00,
  0x00, 0x00, 0x00, 0x00, 0x00, 0x00, 0x00, 0x00, 0x00, 0x00, 0x00, 0x00,
  0x00, 0x00, 0x00, 0x00, 0x00, 0x00, 0x00, 0x00, 0x00, 0x00, 0x00, 0x00,
  0x00, 0x00, 0x00, 0x00, 0x00, 0x00, 0x00, 0x00, 0x00, 0x00, 0x00, 0x00,
  0x00, 0x00, 0x00, 0x00, 0x00, 0x00, 0x00, 0x00, 0x00, 0x00, 0x00, 0x00,
  0x00, 0x00, 0x00, 0x00, 0x00, 0x00, 0x00, 0x00, 0x00, 0x00, 0x00, 0x00,
  0x00, 0x00, 0x00, 0x00, 0x00, 0x00, 0x00, 0x00, 0x00, 0x00, 0x00, 0x00,
  0x00, 0x00, 0x00, 0x00, 0x00, 0x00, 0x00, 0x00, 0x00, 0x00, 0x00, 0x00,
  0x00, 0x00, 0x00, 0x00, 0x00, 0x00, 0x00, 0x00, 0x00, 0x00, 0x00, 0x00,
  0x00, 0x00, 0x00, 0x00, 0x00, 0x00, 0x00, 0x00, 0x00, 0x00, 0x00, 0x00,
  0x18, 0x00, 0x00, 0x00, 0xb5, 0x56, 0x1f, 0x3b, 0x24, 0x86, 0x34, 0x3b,
  0x51, 0x04, 0x02, 0x3b, 0xa8, 0x48, 0xc5, 0x3a, 0x3c, 0x9a, 0x23, 0x3b,
  0x75, 0x58, 0x1f, 0x3b, 0x6d, 0xab, 0x35, 0x3b, 0x5a, 0xc1, 0x2b, 0x3b,
  0x5a, 0xa9, 0x1d, 0x3b, 0x2d, 0x5f, 0x1d, 0x3b, 0xa6, 0xeb, 0x28, 0x3b,
  0xee, 0xba, 0x17, 0x3b, 0x2e, 0x59, 0x24, 0x3b, 0x69, 0xae, 0x22, 0x3b,
  0x1c, 0xc9, 0x2a, 0x3b, 0x4b, 0x5c, 0x11, 0x3b, 0x7c, 0x3d, 0x28, 0x3b,
  0xad, 0xca, 0x2d, 0x3b, 0x9a, 0x6a, 0x36, 0x3b, 0xd4, 0x5c, 0x25, 0x3b,
  0x60, 0x12, 0x34, 0x3b, 0xe6, 0x7a, 0x1c, 0x3b, 0xd4, 0x29, 0x2c, 0x3b,
  0xff, 0x87, 0x03, 0x3b, 0x31, 0x00, 0x00, 0x00, 0x5f, 0x5f, 0x6d, 0x61,
  0x69, 0x6e, 0x5f, 0x5f, 0x2e, 0x47, 0x52, 0x55, 0x5f, 0x4e, 0x4e, 0x5f,
  0x32, 0x2f, 0x74, 0x6f, 0x72, 0x63, 0x68, 0x2e, 0x6e, 0x6e, 0x2e, 0x6d,
  0x6f, 0x64, 0x75, 0x6c, 0x65, 0x73, 0x2e, 0x72, 0x6e, 0x6e, 0x2e, 0x47,
  0x52, 0x55, 0x5f, 0x67, 0x72, 0x75, 0x3b, 0x31, 0x31, 0x00, 0x00, 0x00,
  0x02, 0x00, 0x00, 0x00, 0x18, 0x00, 0x00, 0x00, 0x08, 0x00, 0x00, 0x00,
  0x02, 0xf5, 0xff, 0xff, 0x00, 0x00, 0x00, 0x01, 0x14, 0x00, 0x00, 0x00,
  0x48, 0x01, 0x00, 0x00, 0x19, 0x00, 0x00, 0x00, 0x00, 0x00, 0x00, 0x09,
  0x74, 0x01, 0x00, 0x00, 0xd4, 0xfc, 0xff, 0xff, 0x08, 0x00, 0x00, 0x00,
  0xcc, 0x00, 0x00, 0x00, 0x18, 0x00, 0x00, 0x00, 0x00, 0x00, 0x00, 0x00,
  0x00, 0x00, 0x00, 0x00, 0x00, 0x00, 0x00, 0x00, 0x00, 0x00, 0x00, 0x00,
  0x00, 0x00, 0x00, 0x00, 0x00, 0x00, 0x00, 0x00, 0x00, 0x00, 0x00, 0x00,
  0x00, 0x00, 0x00, 0x00, 0x00, 0x00, 0x00, 0x00, 0x00, 0x00, 0x00, 0x00,
  0x00, 0x00, 0x00, 0x00, 0x00, 0x00, 0x00, 0x00, 0x00, 0x00, 0x00, 0x00,
  0x00, 0x00, 0x00, 0x00, 0x00, 0x00, 0x00, 0x00, 0x00, 0x00, 0x00, 0x00,
  0x00, 0x00, 0x00, 0x00, 0x00, 0x00, 0x00, 0x00, 0x00, 0x00, 0x00, 0x00,
  0x00, 0x00, 0x00, 0x00, 0x00, 0x00, 0x00, 0x00, 0x00, 0x00, 0x00, 0x00,
  0x00, 0x00, 0x00, 0x00, 0x00, 0x00, 0x00, 0x00, 0x00, 0x00, 0x00, 0x00,
  0x00, 0x00, 0x00, 0x00, 0x00, 0x00, 0x00, 0x00, 0x00, 0x00, 0x00, 0x00,
  0x00, 0x00, 0x00, 0x00, 0x00, 0x00, 0x00, 0x00, 0x00, 0x00, 0x00, 0x00,
  0x00, 0x00, 0x00, 0x00, 0x00, 0x00, 0x00, 0x00, 0x00, 0x00, 0x00, 0x00,
  0x00, 0x00, 0x00, 0x00, 0x00, 0x00, 0x00, 0x00, 0x00, 0x00, 0x00, 0x00,
  0x00, 0x00, 0x00, 0x00, 0x00, 0x00, 0x00, 0x00, 0x00, 0x00, 0x00, 0x00,
  0x00, 0x00, 0x00, 0x00, 0x00, 0x00, 0x00, 0x00, 0x00, 0x00, 0x00, 0x00,
  0x00, 0x00, 0x00, 0x00, 0x00, 0x00, 0x00, 0x00, 0x00, 0x00, 0x00, 0x00,
  0x00, 0x00, 0x00, 0x00, 0x00, 0x00, 0x00, 0x00, 0x00, 0x00, 0x00, 0x00,
  0x18, 0x00, 0x00, 0x00, 0x9d, 0xb1, 0x2a, 0x3b, 0xbf, 0xf2, 0x1c, 0x3b,
  0x65, 0x8e, 0x2a, 0x3b, 0x1f, 0xe5, 0x16, 0x3b, 0xd3, 0x46, 0x1f, 0x3b,
  0x6f, 0xce, 0x34, 0x3b, 0x04, 0x5c, 0x2c, 0x3b, 0x17, 0x86, 0x2b, 0x3b,
  0xca, 0x39, 0x2d, 0x3b, 0x14, 0xd8, 0x19, 0x3b, 0x64, 0xb9, 0x27, 0x3b,
  0xa5, 0xec, 0x02, 0x3b, 0x5c, 0xb4, 0x27, 0x3b, 0x6d, 0x0b, 0x2b, 0x3b,
  0x86, 0xab, 0x23, 0x3b, 0x50, 0xf0, 0x21, 0x3b, 0x58, 0x2d, 0x29, 0x3b,
  0xe4, 0x17, 0x28, 0x3b, 0xc6, 0x1e, 0x18, 0x3b, 0xd6, 0xe8, 0x2d, 0x3b,
  0x88, 0xb5, 0x1b, 0x3b, 0xc2, 0xc4, 0x21, 0x3b, 0xc2, 0x35, 0x09, 0x3b,
  0x74, 0xdf, 0x2c, 0x3b, 0x31, 0x00, 0x00, 0x00, 0x5f, 0x5f, 0x6d, 0x61,
  0x69, 0x6e, 0x5f, 0x5f, 0x2e, 0x47, 0x52, 0x55, 0x5f, 0x4e, 0x4e, 0x5f,
  0x32, 0x2f, 0x74, 0x6f, 0x72, 0x63, 0x68, 0x2e, 0x6e, 0x6e, 0x2e, 0x6d,
  0x6f, 0x64, 0x75, 0x6c, 0x65, 0x73, 0x2e, 0x72, 0x6e, 0x6e, 0x2e, 0x47,
  0x52, 0x55, 0x5f, 0x67, 0x72, 0x75, 0x3b, 0x31, 0x30, 0x00, 0x00, 0x00,
  0x02, 0x00, 0x00, 0x00, 0x18, 0x00, 0x00, 0x00, 0x08, 0x00, 0x00, 0x00,
  0x9a, 0xf6, 0xff, 0xff, 0x00, 0x00, 0x00, 0x01, 0x14, 0x00, 0x00, 0x00,
  0x44, 0x01, 0x00, 0x00, 0x18, 0x00, 0x00, 0x00, 0x00, 0x00, 0x00, 0x09,
  0x70, 0x01, 0x00, 0x00, 0x6c, 0xfe, 0xff, 0xff, 0x08, 0x00, 0x00, 0x00,
  0xc8, 0x00, 0x00, 0x00, 0x18, 0x00, 0x00, 0x00, 0x00, 0x00, 0x00, 0x00,
  0x00, 0x00, 0x00, 0x00, 0x00, 0x00, 0x00, 0x00, 0x00, 0x00, 0x00, 0x00,
  0x00, 0x00, 0x00, 0x00, 0x00, 0x00, 0x00, 0x00, 0x00, 0x00, 0x00, 0x00,
  0x00, 0x00, 0x00, 0x00, 0x00, 0x00, 0x00, 0x00, 0x00, 0x00, 0x00, 0x00,
  0x00, 0x00, 0x00, 0x00, 0x00, 0x00, 0x00, 0x00, 0x00, 0x00, 0x00, 0x00,
  0x00, 0x00, 0x00, 0x00, 0x00, 0x00, 0x00, 0x00, 0x00, 0x00, 0x00, 0x00,
  0x00, 0x00, 0x00, 0x00, 0x00, 0x00, 0x00, 0x00, 0x00, 0x00, 0x00, 0x00,
  0x00, 0x00, 0x00, 0x00, 0x00, 0x00, 0x00, 0x00, 0x00, 0x00, 0x00, 0x00,
  0x00, 0x00, 0x00, 0x00, 0x00, 0x00, 0x00, 0x00, 0x00, 0x00, 0x00, 0x00,
  0x00, 0x00, 0x00, 0x00, 0x00, 0x00, 0x00, 0x00, 0x00, 0x00, 0x00, 0x00,
  0x00, 0x00, 0x00, 0x00, 0x00, 0x00, 0x00, 0x00, 0x00, 0x00, 0x00, 0x00,
  0x00, 0x00, 0x00, 0x00, 0x00, 0x00, 0x00, 0x00, 0x00, 0x00, 0x00, 0x00,
  0x00, 0x00, 0x00, 0x00, 0x00, 0x00, 0x00, 0x00, 0x00, 0x00, 0x00, 0x00,
  0x00, 0x00, 0x00, 0x00, 0x00, 0x00, 0x00, 0x00, 0x00, 0x00, 0x00, 0x00,
  0x00, 0x00, 0x00, 0x00, 0x00, 0x00, 0x00, 0x00, 0x00, 0x00, 0x00, 0x00,
  0x00, 0x00, 0x00, 0x00, 0x00, 0x00, 0x00, 0x00, 0x00, 0x00, 0x00, 0x00,
  0x00, 0x00, 0x00, 0x00, 0x00, 0x00, 0x00, 0x00, 0x18, 0x00, 0x00, 0x00,
  0x68, 0x11, 0x34, 0x3b, 0xe0, 0x20, 0x1f, 0x3b, 0xe6, 0x9f, 0x33, 0x3b,
  0xb6, 0xb4, 0x2a, 0x3b, 0x8f, 0x2f, 0x27, 0x3b, 0x58, 0xb9, 0x18, 0x3b,
  0xf2, 0x0d, 0x2e, 0x3b, 0xcb, 0x4b, 0x16, 0x3b, 0x97, 0x5e, 0x1d, 0x3b,
  0xca, 0x8f, 0x25, 0x3b, 0xf5, 0x65, 0x1d, 0x3b, 0xae, 0x97, 0x31, 0x3b,
  0x87, 0x49, 0x0a, 0x3b, 0xd0, 0xd4, 0x27, 0x3b, 0xa6, 0xe5, 0x2d, 0x3b,
  0x91, 0x8d, 0x13, 0x3b, 0x52, 0x7c, 0x23, 0x3b, 0x61, 0x67, 0x26, 0x3b,
  0x30, 0x46, 0x2e, 0x3b, 0x09, 0xe6, 0x32, 0x3b, 0xb9, 0x5f, 0x05, 0x3b,
  0x71, 0x35, 0xef, 0x3a, 0x21, 0x6c, 0x23, 0x3b, 0xf8, 0xb7, 0x0f, 0x3b,
  0x30, 0x00, 0x00, 0x00, 0x5f, 0x5f, 0x6d, 0x61, 0x69, 0x6e, 0x5f, 0x5f,
  0x2e, 0x47, 0x52, 0x55, 0x5f, 0x4e, 0x4e, 0x5f, 0x32, 0x2f, 0x74, 0x6f,
  0x72, 0x63, 0x68, 0x2e, 0x6e, 0x6e, 0x2e, 0x6d, 0x6f, 0x64, 0x75, 0x6c,
  0x65, 0x73, 0x2e, 0x72, 0x6e, 0x6e, 0x2e, 0x47, 0x52, 0x55, 0x5f, 0x67,
  0x72, 0x75, 0x3b, 0x39, 0x00, 0x00, 0x00, 0x00, 0x02, 0x00, 0x00, 0x00,
  0x18, 0x00, 0x00, 0x00, 0x08, 0x00, 0x00, 0x00, 0x2e, 0xf8, 0xff, 0xff,
  0x00, 0x00, 0x00, 0x01, 0x20, 0x00, 0x00, 0x00, 0x50, 0x01, 0x00, 0x00,
  0x17, 0x00, 0x00, 0x00, 0x00, 0x00, 0x00, 0x09, 0x7c, 0x01, 0x00, 0x00,
  0x0c, 0x00, 0x0c, 0x00, 0x00, 0x00, 0x00, 0x00, 0x08, 0x00, 0x04, 0x00,
  0x0c, 0x00, 0x00, 0x00, 0x08, 0x00, 0x00, 0x00, 0xc8, 0x00, 0x00, 0x00,
  0x18, 0x00, 0x00, 0x00, 0x00, 0x00, 0x00, 0x00, 0x00, 0x00, 0x00, 0x00,
  0x00, 0x00, 0x00, 0x00, 0x00, 0x00, 0x00, 0x00, 0x00, 0x00, 0x00, 0x00,
  0x00, 0x00, 0x00, 0x00, 0x00, 0x00, 0x00, 0x00, 0x00, 0x00, 0x00, 0x00,
  0x00, 0x00, 0x00, 0x00, 0x00, 0x00, 0x00, 0x00, 0x00, 0x00, 0x00, 0x00,
  0x00, 0x00, 0x00, 0x00, 0x00, 0x00, 0x00, 0x00, 0x00, 0x00, 0x00, 0x00,
  0x00, 0x00, 0x00, 0x00, 0x00, 0x00, 0x00, 0x00, 0x00, 0x00, 0x00, 0x00,
  0x00, 0x00, 0x00, 0x00, 0x00, 0x00, 0x00, 0x00, 0x00, 0x00, 0x00, 0x00,
  0x00, 0x00, 0x00, 0x00, 0x00, 0x00, 0x00, 0x00, 0x00, 0x00, 0x00, 0x00,
  0x00, 0x00, 0x00, 0x00, 0x00, 0x00, 0x00, 0x00, 0x00, 0x00, 0x00, 0x00,
  0x00, 0x00, 0x00, 0x00, 0x00, 0x00, 0x00, 0x00, 0x00, 0x00, 0x00, 0x00,
  0x00, 0x00, 0x00, 0x00, 0x00, 0x00, 0x00, 0x00, 0x00, 0x00, 0x00, 0x00,
  0x00, 0x00, 0x00, 0x00, 0x00, 0x00, 0x00, 0x00, 0x00, 0x00, 0x00, 0x00,
  0x00, 0x00, 0x00, 0x00, 0x00, 0x00, 0x00, 0x00, 0x00, 0x00, 0x00, 0x00,
  0x00, 0x00, 0x00, 0x00, 0x00, 0x00, 0x00, 0x00, 0x00, 0x00, 0x00, 0x00,
