const unsigned int g_float_model_data_size = 19636;

alignas(16) const unsigned char g_float_model_data[] = {
  0x1c, 0x00, 0x00, 0x00, 0x54, 0x46, 0x4c, 0x33, 0x14, 0x00, 0x20, 0x00,
  0x1c, 0x00, 0x18, 0x00, 0x14, 0x00, 0x10, 0x00, 0x0c, 0x00, 0x00, 0x00,
  0x08, 0x00, 0x04, 0x00, 0x14, 0x00, 0x00, 0x00, 0x1c, 0x00, 0x00, 0x00,
  0xc0, 0x00, 0x00, 0x00, 0x18, 0x01, 0x00, 0x00, 0x24, 0x1a, 0x00, 0x00,
  0x34, 0x1a, 0x00, 0x00, 0xd4, 0x4b, 0x00, 0x00, 0x03, 0x00, 0x00, 0x00,
  0x01, 0x00, 0x00, 0x00, 0x04, 0x00, 0x00, 0x00, 0xe6, 0xdb, 0xff, 0xff,
  0x0c, 0x00, 0x00, 0x00, 0x1c, 0x00, 0x00, 0x00, 0x5c, 0x00, 0x00, 0x00,
  0x0f, 0x00, 0x00, 0x00, 0x73, 0x65, 0x72, 0x76, 0x69, 0x6e, 0x67, 0x5f,
  0x64, 0x65, 0x66, 0x61, 0x75, 0x6c, 0x74, 0x00, 0x02, 0x00, 0x00, 0x00,
  0x24, 0x00, 0x00, 0x00, 0x04, 0x00, 0x00, 0x00, 0x60, 0xff, 0xff, 0xff,
  0x5b, 0x00, 0x00, 0x00, 0x04, 0x00, 0x00, 0x00, 0x08, 0x00, 0x00, 0x00,
  0x6f, 0x75, 0x74, 0x70, 0x75, 0x74, 0x5f, 0x31, 0x00, 0x00, 0x00, 0x00,
  0x7c, 0xff, 0xff, 0xff, 0x5e, 0x00, 0x00, 0x00, 0x04, 0x00, 0x00, 0x00,
  0x08, 0x00, 0x00, 0x00, 0x6f, 0x75, 0x74, 0x70, 0x75, 0x74, 0x5f, 0x30,
  0x00, 0x00, 0x00, 0x00, 0x02, 0x00, 0x00, 0x00, 0x20, 0x00, 0x00, 0x00,
  0x04, 0x00, 0x00, 0x00, 0xa4, 0xff, 0xff, 0xff, 0x01, 0x00, 0x00, 0x00,
  0x04, 0x00, 0x00, 0x00, 0x06, 0x00, 0x00, 0x00, 0x61, 0x72, 0x67, 0x73,
  0x5f, 0x31, 0x00, 0x00, 0xa2, 0xe6, 0xff, 0xff, 0x04, 0x00, 0x00, 0x00,
  0x06, 0x00, 0x00, 0x00, 0x61, 0x72, 0x67, 0x73, 0x5f, 0x30, 0x00, 0x00,
  0x02, 0x00, 0x00, 0x00, 0x34, 0x00, 0x00, 0x00, 0x04, 0x00, 0x00, 0x00,
  0xdc, 0xff, 0xff, 0xff, 0x61, 0x00, 0x00, 0x00, 0x04, 0x00, 0x00, 0x00,
  0x13, 0x00, 0x00, 0x00, 0x43, 0x4f, 0x4e, 0x56, 0x45, 0x52, 0x53, 0x49,
  0x4f, 0x4e, 0x5f, 0x4d, 0x45, 0x54, 0x41, 0x44, 0x41, 0x54, 0x41, 0x00,
  0x08, 0x00, 0x0c, 0x00, 0x08, 0x00, 0x04, 0x00, 0x08, 0x00, 0x00, 0x00,
  0x60, 0x00, 0x00, 0x00, 0x04, 0x00, 0x00, 0x00, 0x13, 0x00, 0x00, 0x00,
  0x6d, 0x69, 0x6e, 0x5f, 0x72, 0x75, 0x6e, 0x74, 0x69, 0x6d, 0x65, 0x5f,
  0x76, 0x65, 0x72, 0x73, 0x69, 0x6f, 0x6e, 0x00, 0x62, 0x00, 0x00, 0x00,
  0x08, 0x19, 0x00, 0x00, 0x00, 0x19, 0x00, 0x00, 0xf8, 0x18, 0x00, 0x00,
  0xe4, 0x18, 0x00, 0x00, 0xac, 0x18, 0x00, 0x00, 0x3c, 0x18, 0x00, 0x00,
  0xcc, 0x17, 0x00, 0x00, 0x5c, 0x17, 0x00, 0x00, 0xec, 0x16, 0x00, 0x00,
  0x7c, 0x16, 0x00, 0x00, 0x0c, 0x16, 0x00, 0x00, 0xdc, 0x15, 0x00, 0x00,
  0xcc, 0x14, 0x00, 0x00, 0xbc, 0x11, 0x00, 0x00, 0xac, 0x0e, 0x00, 0x00,
  0x9c, 0x0b, 0x00, 0x00, 0x8c, 0x08, 0x00, 0x00, 0x7c, 0x05, 0x00, 0x00,
  0xec, 0x03, 0x00, 0x00, 0xd0, 0x03, 0x00, 0x00, 0xb4, 0x03, 0x00, 0x00,
  0x9c, 0x03, 0x00, 0x00, 0x84, 0x03, 0x00, 0x00, 0x6c, 0x03, 0x00, 0x00,
  0x50, 0x03, 0x00, 0x00, 0x34, 0x03, 0x00, 0x00, 0x1c, 0x03, 0x00, 0x00,
  0x00, 0x03, 0x00, 0x00, 0xe4, 0x02, 0x00, 0x00, 0xc8, 0x02, 0x00, 0x00,
  0xac, 0x02, 0x00, 0x00, 0xa4, 0x02, 0x00, 0x00, 0x9c, 0x02, 0x00, 0x00,
  0x94, 0x02, 0x00, 0x00, 0x8c, 0x02, 0x00, 0x00, 0x84, 0x02, 0x00, 0x00,
  0x7c, 0x02, 0x00, 0x00, 0x74, 0x02, 0x00, 0x00, 0x6c, 0x02, 0x00, 0x00,
  0x64, 0x02, 0x00, 0x00, 0x5c, 0x02, 0x00, 0x00, 0x54, 0x02, 0x00, 0x00,
  0x4c, 0x02, 0x00, 0x00, 0x44, 0x02, 0x00, 0x00, 0x3c, 0x02, 0x00, 0x00,
  0x34, 0x02, 0x00, 0x00, 0x2c, 0x02, 0x00, 0x00, 0x24, 0x02, 0x00, 0x00,
  0x1c, 0x02, 0x00, 0x00, 0x14, 0x02, 0x00, 0x00, 0x0c, 0x02, 0x00, 0x00,
  0x04, 0x02, 0x00, 0x00, 0xfc, 0x01, 0x00, 0x00, 0xf4, 0x01, 0x00, 0x00,
  0xec, 0x01, 0x00, 0x00, 0xe4, 0x01, 0x00, 0x00, 0xdc, 0x01, 0x00, 0x00,
  0xd4, 0x01, 0x00, 0x00, 0xcc, 0x01, 0x00, 0x00, 0xc4, 0x01, 0x00, 0x00,
  0xbc, 0x01, 0x00, 0x00, 0xb4, 0x01, 0x00, 0x00, 0xac, 0x01, 0x00, 0x00,
  0xa4, 0x01, 0x00, 0x00, 0x9c, 0x01, 0x00, 0x00, 0x94, 0x01, 0x00, 0x00,
  0x8c, 0x01, 0x00, 0x00, 0x84, 0x01, 0x00, 0x00, 0x7c, 0x01, 0x00, 0x00,
  0x74, 0x01, 0x00, 0x00, 0x6c, 0x01, 0x00, 0x00, 0x64, 0x01, 0x00, 0x00,
  0x5c, 0x01, 0x00, 0x00, 0x54, 0x01, 0x00, 0x00, 0x4c, 0x01, 0x00, 0x00,
  0x44, 0x01, 0x00, 0x00, 0x3c, 0x01, 0x00, 0x00, 0x34, 0x01, 0x00, 0x00,
  0x2c, 0x01, 0x00, 0x00, 0x24, 0x01, 0x00, 0x00, 0x1c, 0x01, 0x00, 0x00,
  0x14, 0x01, 0x00, 0x00, 0x0c, 0x01, 0x00, 0x00, 0x04, 0x01, 0x00, 0x00,
  0xfc, 0x00, 0x00, 0x00, 0xf4, 0x00, 0x00, 0x00, 0xec, 0x00, 0x00, 0x00,
  0xe4, 0x00, 0x00, 0x00, 0xdc, 0x00, 0x00, 0x00, 0xd4, 0x00, 0x00, 0x00,
  0xcc, 0x00, 0x00, 0x00, 0xc4, 0x00, 0x00, 0x00, 0xbc, 0x00, 0x00, 0x00,
  0xb4, 0x00, 0x00, 0x00, 0xac, 0x00, 0x00, 0x00, 0xa4, 0x00, 0x00, 0x00,
  0x84, 0x00, 0x00, 0x00, 0x04, 0x00, 0x00, 0x00, 0x9e, 0xe8, 0xff, 0xff,
  0x04, 0x00, 0x00, 0x00, 0x70, 0x00, 0x00, 0x00, 0x10, 0x00, 0x00, 0x00,
  0x00, 0x00, 0x00, 0x00, 0x08, 0x00, 0x0e, 0x00, 0x08, 0x00, 0x04, 0x00,
  0x08, 0x00, 0x00, 0x00, 0x10, 0x00, 0x00, 0x00, 0x24, 0x00, 0x00, 0x00,
  0x00, 0x00, 0x06, 0x00, 0x08, 0x00, 0x04, 0x00, 0x06, 0x00, 0x00, 0x00,
  0x04, 0x00, 0x00, 0x00, 0x00, 0x00, 0x00, 0x00, 0x0c, 0x00, 0x1c, 0x00,
  0x18, 0x00, 0x14, 0x00, 0x10, 0x00, 0x04, 0x00, 0x0c, 0x00, 0x00, 0x00,
  0x90, 0x1e, 0x77, 0x2d, 0xa1, 0xd9, 0x8c, 0x94, 0x00, 0x00, 0x00, 0x00,
  0x01, 0x00, 0x00, 0x00, 0x02, 0x00, 0x00, 0x00, 0x04, 0x00, 0x00, 0x00,
  0x12, 0x00, 0x00, 0x00, 0x32, 0x2e, 0x32, 0x31, 0x2e, 0x30, 0x2d, 0x64,
  0x65, 0x76, 0x32, 0x30, 0x32, 0x35, 0x31, 0x31, 0x31, 0x30, 0x00, 0x00,
  0x1a, 0xe9, 0xff, 0xff, 0x04, 0x00, 0x00, 0x00, 0x10, 0x00, 0x00, 0x00,
  0x32, 0x2e, 0x30, 0x2e, 0x30, 0x00, 0x00, 0x00, 0x00, 0x00, 0x00, 0x00,
  0x00, 0x00, 0x00, 0x00, 0xec, 0xb6, 0xff, 0xff, 0xf0, 0xb6, 0xff, 0xff,
  0xf4, 0xb6, 0xff, 0xff, 0xf8, 0xb6, 0xff, 0xff, 0xfc, 0xb6, 0xff, 0xff,
  0x00, 0xb7, 0xff, 0xff, 0x04, 0xb7, 0xff, 0xff, 0x08, 0xb7, 0xff, 0xff,
  0x0c, 0xb7, 0xff, 0xff, 0x10, 0xb7, 0xff, 0xff, 0x14, 0xb7, 0xff, 0xff,
  0x18, 0xb7, 0xff, 0xff, 0x1c, 0xb7, 0xff, 0xff, 0x20, 0xb7, 0xff, 0xff,
  0x24, 0xb7, 0xff, 0xff, 0x28, 0xb7, 0xff, 0xff, 0x2c, 0xb7, 0xff, 0xff,
  0x30, 0xb7, 0xff, 0xff, 0x34, 0xb7, 0xff, 0xff, 0x38, 0xb7, 0xff, 0xff,
  0x3c, 0xb7, 0xff, 0xff, 0x40, 0xb7, 0xff, 0xff, 0x44, 0xb7, 0xff, 0xff,
  0x48, 0xb7, 0xff, 0xff, 0x4c, 0xb7, 0xff, 0xff, 0x50, 0xb7, 0xff, 0xff,
  0x54, 0xb7, 0xff, 0xff, 0x58, 0xb7, 0xff, 0xff, 0x5c, 0xb7, 0xff, 0xff,
  0x60, 0xb7, 0xff, 0xff, 0x64, 0xb7, 0xff, 0xff, 0x68, 0xb7, 0xff, 0xff,
  0x6c, 0xb7, 0xff, 0xff, 0x70, 0xb7, 0xff, 0xff, 0x74, 0xb7, 0xff, 0xff,
  0x78, 0xb7, 0xff, 0xff, 0x7c, 0xb7, 0xff, 0xff, 0x80, 0xb7, 0xff, 0xff,
  0x84, 0xb7, 0xff, 0xff, 0x88, 0xb7, 0xff, 0xff, 0x8c, 0xb7, 0xff, 0xff,
  0x90, 0xb7, 0xff, 0xff, 0x94, 0xb7, 0xff, 0xff, 0x98, 0xb7, 0xff, 0xff,
  0x9c, 0xb7, 0xff, 0xff, 0xa0, 0xb7, 0xff, 0xff, 0xa4, 0xb7, 0xff, 0xff,
  0xa8, 0xb7, 0xff, 0xff, 0xac, 0xb7, 0xff, 0xff, 0xb0, 0xb7, 0xff, 0xff,
  0xb4, 0xb7, 0xff, 0xff, 0xb8, 0xb7, 0xff, 0xff, 0xbc, 0xb7, 0xff, 0xff,
  0xc0, 0xb7, 0xff, 0xff, 0xc4, 0xb7, 0xff, 0xff, 0xc8, 0xb7, 0xff, 0xff,
  0xcc, 0xb7, 0xff, 0xff, 0xd0, 0xb7, 0xff, 0xff, 0xd4, 0xb7, 0xff, 0xff,
  0xd8, 0xb7, 0xff, 0xff, 0xdc, 0xb7, 0xff, 0xff, 0xe0, 0xb7, 0xff, 0xff,
  0xe4, 0xb7, 0xff, 0xff, 0xe8, 0xb7, 0xff, 0xff, 0xec, 0xb7, 0xff, 0xff,
  0x3a, 0xea, 0xff, 0xff, 0x04, 0x00, 0x00, 0x00, 0x0c, 0x00, 0x00, 0x00,
  0x01, 0x00, 0x00, 0x00, 0x01, 0x00, 0x00, 0x00, 0x08, 0x00, 0x00, 0x00,
  0x52, 0xea, 0xff, 0xff, 0x04, 0x00, 0x00, 0x00, 0x0c, 0x00, 0x00, 0x00,
  0x00, 0x00, 0x00, 0x00, 0x00, 0x00, 0x00, 0x00, 0x00, 0x00, 0x00, 0x00,
  0x6a, 0xea, 0xff, 0xff, 0x04, 0x00, 0x00, 0x00, 0x0c, 0x00, 0x00, 0x00,
  0x01, 0x00, 0x00, 0x00, 0x01, 0x00, 0x00, 0x00, 0x01, 0x00, 0x00, 0x00,
  0x82, 0xea, 0xff, 0xff, 0x04, 0x00, 0x00, 0x00, 0x0c, 0x00, 0x00, 0x00,
  0x03, 0x00, 0x00, 0x00, 0x01, 0x00, 0x00, 0x00, 0x08, 0x00, 0x00, 0x00,
  0x9a, 0xea, 0xff, 0xff, 0x04, 0x00, 0x00, 0x00, 0x08, 0x00, 0x00, 0x00,
  0x01, 0x00, 0x00, 0x00, 0x08, 0x00, 0x00, 0x00, 0xae, 0xea, 0xff, 0xff,
  0x04, 0x00, 0x00, 0x00, 0x0c, 0x00, 0x00, 0x00, 0x01, 0x00, 0x00, 0x00,
  0x00, 0x00, 0x00, 0x00, 0x00, 0x00, 0x00, 0x00, 0xc6, 0xea, 0xff, 0xff,
  0x04, 0x00, 0x00, 0x00, 0x0c, 0x00, 0x00, 0x00, 0x02, 0x00, 0x00, 0x00,
  0x00, 0x00, 0x00, 0x00, 0x00, 0x00, 0x00, 0x00, 0xde, 0xea, 0xff, 0xff,
  0x04, 0x00, 0x00, 0x00, 0x08, 0x00, 0x00, 0x00, 0x00, 0x00, 0x00, 0x00,
  0x00, 0x00, 0x00, 0x00, 0xf2, 0xea, 0xff, 0xff, 0x04, 0x00, 0x00, 0x00,
  0x08, 0x00, 0x00, 0x00, 0x00, 0x00, 0x00, 0x00, 0x08, 0x00, 0x00, 0x00,
  0x06, 0xeb, 0xff, 0xff, 0x04, 0x00, 0x00, 0x00, 0x08, 0x00, 0x00, 0x00,
  0x00, 0x00, 0x00, 0x00, 0x10, 0x00, 0x00, 0x00, 0x1a, 0xeb, 0xff, 0xff,
  0x04, 0x00, 0x00, 0x00, 0x0c, 0x00, 0x00, 0x00, 0x00, 0x00, 0x00, 0x00,
  0x00, 0x00, 0x00, 0x00, 0x08, 0x00, 0x00, 0x00, 0x32, 0xeb, 0xff, 0xff,
  0x04, 0x00, 0x00, 0x00, 0x0c, 0x00, 0x00, 0x00, 0x00, 0x00, 0x00, 0x00,
  0x00, 0x00, 0x00, 0x00, 0x10, 0x00, 0x00, 0x00, 0x4a, 0xeb, 0xff, 0xff,
  0x04, 0x00, 0x00, 0x00, 0x80, 0x01, 0x00, 0x00, 0xab, 0x89, 0x85, 0xbc,
  0x80, 0x3c, 0xcf, 0xbd, 0xcb, 0x7d, 0xa4, 0xbd, 0x89, 0xae, 0xdd, 0x3d,
  0x6a, 0x08, 0xd6, 0xbd, 0x7b, 0xbd, 0xac, 0xbc, 0x0e, 0x57, 0x0a, 0x3e,
  0xd3, 0x5a, 0x50, 0x3e, 0x90, 0xe2, 0x91, 0x3e, 0x5d, 0x28, 0x93, 0x3e,
  0xfa, 0xce, 0xaf, 0x3e, 0x8b, 0xea, 0x42, 0x3d, 0xc4, 0x5c, 0x8d, 0xbe,
  0x18, 0xf6, 0x3b, 0x3e, 0xa4, 0x36, 0xce, 0xbd, 0x6f, 0x67, 0x1f, 0x3e,
  0x59, 0x46, 0xab, 0xbe, 0x61, 0x65, 0x85, 0xbe, 0xbf, 0x1a, 0x9d, 0xbd,
  0x5a, 0x26, 0x89, 0x3e, 0xdc, 0x59, 0x81, 0x3e, 0x28, 0x0d, 0x96, 0x3e,
  0x09, 0x26, 0x8a, 0x3e, 0x73, 0xa7, 0xfa, 0xbd, 0x20, 0x6a, 0xbc, 0xbc,
  0xda, 0x0f, 0xa0, 0x3e, 0xe8, 0x3a, 0xa6, 0x3d, 0xfd, 0x48, 0x69, 0xbe,
  0xed, 0x54, 0x1b, 0x3e, 0xfb, 0x86, 0x96, 0x3e, 0x7e, 0xcf, 0x1b, 0xbe,
  0xee, 0x43, 0x53, 0x3d, 0x86, 0x37, 0x28, 0xbd, 0x6e, 0x1a, 0xad, 0xbd,
  0x7f, 0xd6, 0xa9, 0xbd, 0xb2, 0x8e, 0x90, 0xbe, 0x2b, 0x66, 0xa4, 0xbe,
  0xec, 0xd3, 0xb2, 0x3e, 0x30, 0x3f, 0x30, 0xbe, 0x59, 0xd6, 0x83, 0xbe,
  0x24, 0x66, 0x5e, 0xbd, 0xa3, 0xc9, 0x9d, 0x3d, 0x88, 0x4c, 0x2e, 0xbe,
  0x09, 0xa2, 0x5c, 0xbe, 0x25, 0xe5, 0x69, 0xbc, 0xf1, 0x52, 0xa4, 0xbd,
  0xb2, 0x11, 0x78, 0xbe, 0xc9, 0xed, 0xff, 0xbb, 0xd2, 0x12, 0xa2, 0x3e,
  0x6d, 0x54, 0xa3, 0xbe, 0x7b, 0x2f, 0x80, 0xbe, 0xe6, 0xff, 0x4a, 0x3d,
  0x74, 0x1e, 0xe5, 0xbb, 0xcc, 0x5e, 0x69, 0xbe, 0x02, 0x44, 0xd8, 0xbb,
  0xca, 0xbd, 0xb2, 0xbd, 0xe0, 0xa7, 0x64, 0xbe, 0x21, 0x70, 0x90, 0x3e,
  0x6e, 0x3c, 0x54, 0x3e, 0x23, 0x15, 0x1e, 0xbe, 0x5c, 0x21, 0x33, 0xbd,
  0xe8, 0x52, 0xcd, 0x3d, 0xbd, 0x12, 0x53, 0x3e, 0x09, 0x7c, 0x8b, 0xbe,
  0x33, 0xae, 0x59, 0x3e, 0x9f, 0xf6, 0xda, 0x3d, 0xf8, 0x41, 0x70, 0xbe,
  0xc3, 0x2e, 0xa7, 0xbe, 0xa5, 0xf2, 0x69, 0xbe, 0x5b, 0x12, 0x5b, 0x3e,
  0x1b, 0x7d, 0xc0, 0x3d, 0x45, 0xde, 0x83, 0xbe, 0xc7, 0xa6, 0xa5, 0xbe,
  0x72, 0xf7, 0xa7, 0x3c, 0x17, 0x71, 0x2a, 0xbe, 0x7b, 0x36, 0xad, 0x3e,
  0xc6, 0x02, 0xe3, 0x3d, 0xf2, 0xe0, 0x3b, 0xbd, 0x4e, 0xe8, 0x1d, 0x3e,
  0x59, 0x39, 0x95, 0xbe, 0x85, 0x99, 0xd2, 0xbd, 0x68, 0xf5, 0x68, 0x3e,
  0x27, 0xc9, 0x19, 0xbe, 0x3a, 0xf3, 0x94, 0x3e, 0x62, 0x32, 0x7c, 0xbc,
  0x3a, 0xf6, 0x2f, 0x3e, 0x32, 0x68, 0x0e, 0x3e, 0x38, 0xe6, 0x63, 0xbe,
  0x8c, 0x7a, 0x6a, 0xbe, 0xfc, 0xd8, 0x46, 0xbe, 0xfe, 0xa6, 0x33, 0x3e,
  0x66, 0x05, 0xcb, 0x3d, 0x2f, 0x81, 0xc0, 0xbd, 0x24, 0x03, 0x2c, 0xbe,
  0x4e, 0x06, 0x78, 0xbe, 0x4e, 0xed, 0x8b, 0xbe, 0xd6, 0xec, 0xff, 0xff,
  0x04, 0x00, 0x00, 0x00, 0x00, 0x03, 0x00, 0x00, 0xa5, 0xc5, 0xa4, 0xbe,
  0x6a, 0xee, 0x54, 0x3e, 0x5b, 0x59, 0x96, 0xbe, 0x07, 0x2e, 0x29, 0xbd,
  0xac, 0x78, 0x4b, 0x3e, 0xd2, 0x91, 0x4f, 0x3d, 0xea, 0xa2, 0x22, 0xbe,
  0x24, 0x76, 0x90, 0x3e, 0x84, 0x82, 0x5c, 0x3e, 0xa6, 0x9d, 0xa2, 0x3e,
  0x94, 0xbb, 0x31, 0x3e, 0x14, 0x28, 0x65, 0x3e, 0x7e, 0x57, 0x0c, 0xbd,
  0x8a, 0xf8, 0x92, 0xbe, 0x9d, 0xdf, 0xcf, 0x3d, 0xbe, 0x6a, 0x7c, 0xbe,
  0x91, 0xc4, 0xcf, 0x3d, 0xb6, 0x46, 0xb5, 0xbd, 0x49, 0xd8, 0xa9, 0xbe,
  0xc4, 0x02, 0x06, 0x3e, 0x30, 0x10, 0xa5, 0x3e, 0x05, 0x5c, 0x69, 0xbe,
  0xbf, 0xa2, 0x0c, 0xbc, 0x28, 0x63, 0x47, 0x3e, 0x42, 0x5f, 0x63, 0xbe,
  0x03, 0xd5, 0xb8, 0xbd, 0x64, 0x16, 0xa1, 0xbe, 0xaf, 0xff, 0xaf, 0xbe,
  0xe6, 0xb2, 0x65, 0x3e, 0x67, 0xdf, 0x82, 0xbe, 0xe3, 0x72, 0x9b, 0xbe,
  0x4a, 0x2a, 0x60, 0xbe, 0xb3, 0x68, 0xaa, 0xbe, 0x45, 0x25, 0x50, 0x3d,
  0x45, 0x3b, 0x5d, 0x3d, 0x4e, 0xec, 0x61, 0xbe, 0xe5, 0x64, 0x5d, 0xbe,
  0x9c, 0x27, 0x73, 0x3e, 0xda, 0x75, 0x82, 0x3d, 0xd4, 0x04, 0x92, 0xbe,
  0x1b, 0x37, 0x40, 0xbe, 0x3f, 0xbb, 0x5b, 0x3d, 0x17, 0xf3, 0x13, 0xbe,
  0xc2, 0x46, 0x84, 0xbe, 0x9b, 0x83, 0x99, 0xbe, 0x56, 0x57, 0xca, 0x3d,
  0xe8, 0xf2, 0x30, 0x3e, 0xc7, 0xba, 0x25, 0xbd, 0x43, 0xde, 0x65, 0x3e,
  0x88, 0xed, 0x84, 0x3e, 0xa3, 0x27, 0x81, 0x3e, 0x7a, 0x65, 0xfb, 0xbd,
  0x9c, 0x9d, 0x8b, 0xbd, 0x1b, 0x4c, 0x45, 0x3e, 0x56, 0x5f, 0xaa, 0x3e,
  0x21, 0xdf, 0xeb, 0x3d, 0x34, 0xde, 0x6d, 0x3d, 0x1e, 0xb2, 0xe9, 0xbd,
  0x4c, 0xab, 0xe3, 0xbd, 0x70, 0x6c, 0xa9, 0xbe, 0x15, 0xc1, 0x39, 0x3e,
  0xfa, 0xa2, 0xa7, 0x3e, 0xbf, 0xe8, 0x0a, 0xbc, 0x2d, 0x14, 0xce, 0xbd,
  0xb7, 0x59, 0x41, 0xbe, 0x4a, 0xff, 0x31, 0xbd, 0xf2, 0x87, 0xa1, 0x3e,
  0x64, 0xe1, 0xa1, 0xbe, 0x27, 0xba, 0x84, 0xbe, 0x9d, 0x40, 0x86, 0xbd,
  0xf1, 0xb1, 0xa1, 0x3e, 0xb2, 0xc8, 0x50, 0x3e, 0x72, 0xd9, 0xef, 0xbd,
  0x75, 0x9e, 0xac, 0xbc, 0xc4, 0x39, 0x62, 0xbe, 0x84, 0x79, 0xa9, 0xbe,
  0xeb, 0x5c, 0x0d, 0xbe, 0x24, 0xbe, 0xe4, 0x3d, 0x63, 0x04, 0xa6, 0xbe,
  0xea, 0x3a, 0x67, 0x3d, 0xe6, 0x5c, 0x5e, 0x3e, 0x72, 0x59, 0xa7, 0x3c,
  0x84, 0x76, 0x91, 0x3e, 0x52, 0x19, 0x35, 0xbd, 0xcf, 0x87, 0xa4, 0xbe,
  0xe8, 0x65, 0x8c, 0xbc, 0xaf, 0x83, 0xa7, 0xbe, 0x62, 0x74, 0xc1, 0x3c,
  0x67, 0xb6, 0x94, 0x3d, 0x44, 0x60, 0xf7, 0xbd, 0xe9, 0x97, 0xad, 0xbe,
  0x1c, 0x94, 0xa7, 0x3e, 0xfa, 0xb7, 0x35, 0xbe, 0x3f, 0x42, 0x9a, 0x3d,
  0xe7, 0x00, 0xaf, 0xbe, 0xeb, 0xb7, 0x6a, 0x3e, 0x7c, 0x47, 0x9d, 0x3d,
  0x16, 0x91, 0xad, 0x3e, 0xc4, 0x25, 0x43, 0x3e, 0xd4, 0x0b, 0xb9, 0x3d,
  0x8a, 0xf0, 0x1f, 0xbe, 0xe1, 0x68, 0xac, 0xbe, 0x6c, 0x0e, 0x02, 0x3e,
  0xa9, 0x30, 0x8f, 0xbb, 0xf6, 0xe1, 0x3b, 0x3e, 0x1a, 0x4d, 0x20, 0x3e,
  0x8f, 0xc3, 0x42, 0x3e, 0xff, 0x56, 0x90, 0xbe, 0x6b, 0x6f, 0xe4, 0xbd,
  0xc9, 0x7f, 0x0a, 0xbd, 0xd7, 0x26, 0x0e, 0xbe, 0x4f, 0x3c, 0x42, 0xbd,
  0xc7, 0xee, 0x6c, 0x3e, 0x30, 0xc2, 0xac, 0xbd, 0x33, 0xf0, 0xd8, 0x3d,
  0xc4, 0x0e, 0x98, 0xbe, 0x46, 0x49, 0x91, 0xbc, 0xbd, 0xba, 0x2e, 0xbc,
  0x79, 0x7c, 0x8d, 0xbe, 0x41, 0xac, 0x7e, 0x3d, 0xb3, 0x4b, 0x7e, 0x3b,
  0x57, 0x5c, 0x8e, 0x3c, 0xd6, 0x03, 0x30, 0x3e, 0xc9, 0x26, 0x5c, 0x3e,
  0xf4, 0x2e, 0xd6, 0xbd, 0x96, 0x81, 0x8a, 0x3e, 0x26, 0xc1, 0x6b, 0xbe,
  0xb4, 0xd7, 0x3c, 0x3e, 0x96, 0x8a, 0x01, 0xbe, 0xf2, 0x17, 0xa5, 0x3e,
  0xa6, 0x12, 0x51, 0xbe, 0xb4, 0x77, 0x83, 0xbe, 0x77, 0x03, 0x26, 0x3e,
  0xfd, 0xe5, 0x33, 0xbe, 0x48, 0x02, 0x02, 0x3e, 0x4b, 0xf1, 0x78, 0xbd,
  0xb4, 0xa5, 0x25, 0xbe, 0xe8, 0x82, 0x77, 0x3e, 0x3e, 0xd9, 0xc5, 0xbd,
  0xaf, 0x3e, 0xa3, 0x3e, 0xb3, 0x55, 0x9e, 0x3e, 0x7c, 0x3f, 0x54, 0xbd,
  0x1b, 0x12, 0xe4, 0xbc, 0x33, 0xb3, 0x72, 0x3d, 0x8c, 0x67, 0x50, 0xbe,
  0x72, 0x24, 0xa0, 0xbe, 0x11, 0x56, 0x9c, 0xbe, 0xdc, 0x54, 0xbd, 0x3d,
  0x06, 0x70, 0x3b, 0x3d, 0xa4, 0x87, 0x4f, 0xbe, 0x46, 0xfd, 0x7a, 0x3e,
  0xa0, 0x3d, 0xa2, 0xbd, 0x3c, 0x92, 0x90, 0x3e, 0x52, 0xe8, 0x23, 0xbd,
  0x8f, 0xdb, 0x9e, 0x3e, 0xb4, 0xa9, 0xbc, 0x3d, 0xe1, 0xa6, 0xa1, 0x3d,
  0xcb, 0x49, 0x09, 0xbe, 0x9c, 0x36, 0xaf, 0xbe, 0x0e, 0x2c, 0xb1, 0x3e,
  0x77, 0x2b, 0xb1, 0xbd, 0xbd, 0x3d, 0x7f, 0xbe, 0x37, 0xc1, 0xf3, 0xbd,
  0x4d, 0x73, 0x19, 0x3e, 0xf9, 0x2c, 0x01, 0x3e, 0x7c, 0xa7, 0xac, 0xbe,
  0xa4, 0xa0, 0x75, 0x3e, 0xa7, 0xba, 0x34, 0x3b, 0xa6, 0x45, 0x7a, 0xbe,
  0xa0, 0x38, 0xb1, 0x3d, 0x53, 0x91, 0x48, 0x3d, 0xfe, 0x23, 0x18, 0xbc,
  0x03, 0x79, 0xa4, 0x3d, 0xfc, 0x54, 0x12, 0x3d, 0x58, 0xdd, 0x6e, 0xbe,
  0xc1, 0x01, 0x2b, 0xbe, 0xc8, 0x50, 0x31, 0x3d, 0x86, 0x0a, 0xb3, 0x3e,
  0xc2, 0xbc, 0x8c, 0x3e, 0x9b, 0xd5, 0xdc, 0xbd, 0x0f, 0xc8, 0xc5, 0x3d,
  0x9e, 0xf1, 0xd9, 0xbb, 0xe4, 0x12, 0xb3, 0x3e, 0x7b, 0x5d, 0x1c, 0x3e,
  0xb8, 0x51, 0x0e, 0xbe, 0xb8, 0x34, 0x21, 0x3e, 0xbb, 0x59, 0x5b, 0x3e,
  0x21, 0x09, 0x5f, 0x3e, 0x94, 0xc4, 0x54, 0xbe, 0xd6, 0x13, 0x62, 0xbc,
  0x34, 0xea, 0x6b, 0x3e, 0x33, 0xd4, 0x35, 0x3e, 0xe2, 0xef, 0xff, 0xff,
  0x04, 0x00, 0x00, 0x00, 0x00, 0x03, 0x00, 0x00, 0xbb, 0x9b, 0x56, 0xbe,
  0x08, 0xdb, 0x33, 0xbe, 0xdb, 0xe6, 0xe5, 0xbd, 0xc3, 0x42, 0x7b, 0x3e,
  0x08, 0x18, 0x9e, 0x3e, 0xa0, 0x58, 0x6a, 0x3e, 0x60, 0xfb, 0x23, 0xbe,
  0x6d, 0x3a, 0x9c, 0x3e, 0x27, 0x89, 0xb7, 0x3d, 0x18, 0x1d, 0xb3, 0x3e,
  0x0a, 0xac, 0x8c, 0xbd, 0xb9, 0x96, 0x4d, 0x3e, 0xd8, 0x37, 0x25, 0xbe,
  0x4f, 0x0e, 0xa2, 0x3e, 0x24, 0xe8, 0x7d, 0xbc, 0x0c, 0x0a, 0x28, 0x3e,
  0x67, 0xe8, 0x16, 0xbe, 0xec, 0xf8, 0x1c, 0x3d, 0x0a, 0x34, 0x98, 0x3c,
  0x90, 0x59, 0xc7, 0x3d, 0x75, 0xb9, 0x18, 0x3e, 0xbe, 0xd4, 0xde, 0xbd,
  0x48, 0x00, 0x81, 0x3e, 0x16, 0x1e, 0xe9, 0xbd, 0x03, 0xaf, 0x07, 0xbe,
  0x20, 0x33, 0x6e, 0xbd, 0xac, 0x2e, 0x37, 0xbe, 0xbf, 0xf4, 0xe6, 0x3d,
  0x38, 0x0e, 0x21, 0xbe, 0x17, 0xbe, 0x43, 0x3e, 0x10, 0xe0, 0x9a, 0xbc,
  0x62, 0x8c, 0xf8, 0x3d, 0x01, 0x62, 0x2d, 0x3e, 0x0c, 0x91, 0xeb, 0x39,
  0x08, 0x53, 0xa2, 0xbe, 0x8d, 0xf6, 0x0b, 0x3c, 0x45, 0x22, 0x66, 0x3d,
  0xea, 0x90, 0x51, 0x3d, 0x70, 0xb7, 0x21, 0xbe, 0x10, 0x4d, 0x36, 0xbe,
  0x57, 0x66, 0xe5, 0x3d, 0xc4, 0x19, 0x9e, 0xbe, 0x80, 0x17, 0x1a, 0x3e,
  0x44, 0x01, 0x84, 0xbe, 0xac, 0x12, 0x18, 0xbe, 0x8d, 0xa3, 0x93, 0x3e,
  0xc1, 0x8f, 0x28, 0x3e, 0x0a, 0x9d, 0x9b, 0x3e, 0x5b, 0xd5, 0x0d, 0x3c,
  0x01, 0xfd, 0x0a, 0x3e, 0x5d, 0x00, 0xaf, 0xbe, 0xba, 0xa0, 0x77, 0xbe,
  0xda, 0xc4, 0x21, 0xbe, 0x16, 0x40, 0xb4, 0x3e, 0xa4, 0x08, 0x79, 0xbe,
  0x81, 0xc9, 0x53, 0xbe, 0xd7, 0x69, 0xaa, 0xbe, 0x96, 0x33, 0x7d, 0x3d,
  0xa2, 0x06, 0x9f, 0xbd, 0x2e, 0xd6, 0xc2, 0xbd, 0xc9, 0xee, 0x59, 0xbd,
  0x5a, 0x2f, 0x89, 0xbe, 0x57, 0x39, 0x8d, 0xbd, 0xa9, 0xa4, 0x81, 0xbe,
  0x07, 0x6e, 0x9c, 0xbe, 0xa9, 0xad, 0x74, 0xbe, 0xd3, 0xf5, 0x87, 0x3e,
  0x8d, 0x58, 0xc4, 0x3d, 0x13, 0xf8, 0x69, 0xbd, 0xa9, 0x8c, 0x09, 0x3e,
  0xe3, 0x03, 0x43, 0x3e, 0x73, 0x15, 0x92, 0x3e, 0x34, 0x1e, 0xb0, 0x3d,
  0xcb, 0x8f, 0x49, 0x3e, 0x8e, 0xb3, 0x93, 0xbe, 0x5a, 0x76, 0xd7, 0x3b,
  0x1d, 0x2f, 0xa1, 0xbc, 0x6d, 0xcd, 0xb7, 0x3d, 0x40, 0xa3, 0x9c, 0xbb,
  0x6f, 0x24, 0x9c, 0xbe, 0xbb, 0xe2, 0xee, 0x3d, 0x07, 0xf0, 0x86, 0x3d,
  0x85, 0x81, 0x54, 0x3e, 0xcf, 0x99, 0xa7, 0x3e, 0x31, 0xb4, 0x54, 0x3e,
  0x42, 0x49, 0x47, 0xbe, 0x66, 0xb4, 0x10, 0xbc, 0x28, 0xff, 0x1e, 0x3e,
  0x78, 0x8b, 0x96, 0xbe, 0x70, 0x4e, 0x22, 0x3e, 0xe4, 0xec, 0x7b, 0xbe,
  0x86, 0xf7, 0x80, 0x3e, 0xa9, 0xd7, 0x55, 0xbd, 0x74, 0xfc, 0x79, 0xbe,
  0xa3, 0xc5, 0x93, 0xbe, 0x93, 0x4c, 0x44, 0x3e, 0x75, 0x90, 0x06, 0x3d,
  0xac, 0x17, 0xec, 0x3c, 0xf8, 0xac, 0x2d, 0xbe, 0x52, 0x94, 0x84, 0x3b,
  0xbb, 0xf4, 0x5a, 0xbe, 0x61, 0x85, 0x20, 0x3e, 0x7c, 0x10, 0xa3, 0xbe,
  0x54, 0x28, 0x81, 0xbe, 0xe5, 0x52, 0x52, 0x3d, 0xda, 0xd6, 0x0b, 0x3d,
  0xd3, 0x2f, 0x7f, 0xbe, 0x0c, 0x69, 0xa1, 0xbe, 0xc7, 0x0c, 0x5a, 0x3e,
  0xee, 0x38, 0x9d, 0xbe, 0xcd, 0xeb, 0x87, 0x3c, 0x05, 0x2e, 0x88, 0xbe,
  0x95, 0x34, 0xa9, 0x3e, 0x0b, 0xd8, 0x95, 0xbe, 0x97, 0x04, 0x5c, 0x3e,
  0x1b, 0x64, 0x20, 0xbc, 0x75, 0x75, 0x8a, 0xbe, 0x57, 0xdd, 0x18, 0xbe,
  0x8a, 0x73, 0xa9, 0xbe, 0x26, 0x08, 0xa1, 0x3d, 0xb1, 0xae, 0x01, 0x3e,
  0xd4, 0x5d, 0x2a, 0xbd, 0x83, 0xb2, 0x7d, 0x3e, 0xdd, 0xec, 0xbc, 0xbc,
  0xfb, 0xdd, 0x39, 0x3d, 0x92, 0x39, 0x90, 0xbe, 0x80, 0xce, 0xfe, 0xbc,
  0x47, 0x3e, 0x14, 0xbe, 0x50, 0x53, 0xe7, 0xbd, 0x40, 0xf7, 0x56, 0xbe,
  0x01, 0xed, 0xa6, 0xbe, 0x2e, 0x86, 0xda, 0x3d, 0xd1, 0xa5, 0xee, 0x3c,
  0xee, 0x29, 0x3e, 0x3e, 0xfc, 0x23, 0xa3, 0xbe, 0x40, 0x93, 0x05, 0xbe,
  0x49, 0x77, 0x99, 0x3e, 0x97, 0xda, 0x39, 0x3e, 0x18, 0x6f, 0xac, 0xbe,
  0x36, 0xc7, 0xb6, 0x3b, 0x0e, 0xb9, 0xb0, 0xbd, 0xe6, 0xef, 0xf9, 0xbd,
  0xce, 0x38, 0xa8, 0x3d, 0x13, 0x46, 0x53, 0x3e, 0x9c, 0x4a, 0x00, 0x3e,
  0x07, 0x58, 0x7e, 0x3e, 0x89, 0x3e, 0x80, 0x3e, 0x8d, 0x69, 0x68, 0x3e,
  0xfc, 0x15, 0x9a, 0xbe, 0xc5, 0xfd, 0xb4, 0x3e, 0x06, 0x0e, 0xaa, 0xbe,
  0xcd, 0x42, 0xc7, 0xbd, 0x3a, 0xbb, 0x87, 0xbd, 0x1a, 0x12, 0xa4, 0xbe,
  0xf3, 0x69, 0xc4, 0x3d, 0x3b, 0xf0, 0x56, 0xbe, 0xb5, 0x25, 0xce, 0x3d,
  0xf5, 0x73, 0xa1, 0xbe, 0x78, 0x0e, 0x1a, 0x3e, 0x88, 0x4d, 0x14, 0xbd,
  0x77, 0xc4, 0x6c, 0x3e, 0x20, 0x1c, 0x81, 0x3e, 0x3b, 0xaa, 0xb2, 0x3e,
  0x4a, 0xc4, 0x4a, 0x3e, 0x1d, 0x41, 0x6d, 0x3d, 0x7c, 0xb1, 0x73, 0xbe,
  0x97, 0xcc, 0x92, 0xbe, 0xb9, 0xeb, 0x1a, 0x3e, 0x57, 0xc7, 0x13, 0xbd,
  0x64, 0xb4, 0x6c, 0xbe, 0x40, 0xc9, 0x1f, 0x3e, 0x5f, 0xd6, 0x44, 0x3d,
  0x6c, 0x0a, 0x9d, 0xbc, 0xf0, 0x41, 0x9b, 0xbe, 0x5b, 0x73, 0x42, 0xbe,
  0x1d, 0x5c, 0xd8, 0xbd, 0x84, 0x83, 0x09, 0x3e, 0x80, 0xd1, 0xaa, 0xbe,
  0x97, 0x3a, 0xa7, 0xbe, 0xfd, 0x89, 0x01, 0x3e, 0xba, 0xbd, 0x4e, 0x3e,
  0xd0, 0x5c, 0x81, 0xbe, 0x08, 0xac, 0x8b, 0x3e, 0xeb, 0xd2, 0x7f, 0xbe,
  0xeb, 0xc8, 0x84, 0xbd, 0x8f, 0xac, 0x5a, 0x3c, 0xef, 0x80, 0x82, 0x3e,
  0x50, 0x88, 0x1f, 0x3e, 0xbe, 0xef, 0x00, 0x3b, 0x11, 0x99, 0x65, 0x3e,
  0x48, 0x81, 0xd6, 0xbc, 0x5f, 0x4f, 0x37, 0xbd, 0xee, 0xf2, 0xff, 0xff,
  0x04, 0x00, 0x00, 0x00, 0x00, 0x03, 0x00, 0x00, 0x3f, 0xfc, 0xa8, 0xbe,
  0x3a, 0x5c, 0xa9, 0xbe, 0x22, 0x67, 0x14, 0x3e, 0xbd, 0x62, 0x74, 0xbe,
  0x4f, 0xf0, 0xd5, 0xbd, 0xd0, 0x61, 0x17, 0x3e, 0x7e, 0x99, 0x53, 0x3e,
  0xea, 0xf2, 0xa8, 0xbe, 0x8c, 0x6c, 0x60, 0xbe, 0x6f, 0xc8, 0x54, 0x3e,
  0xd8, 0xda, 0x76, 0x3e, 0x50, 0x81, 0x3b, 0xbb, 0xc3, 0xde, 0x82, 0xbe,
  0x54, 0x85, 0x81, 0x3e, 0x1a, 0x0e, 0x91, 0xbe, 0xda, 0xb8, 0x9b, 0x3e,
  0xca, 0xf2, 0x89, 0x3e, 0x13, 0x77, 0x45, 0x3e, 0x48, 0x04, 0x3f, 0xbe,
  0x64, 0xc3, 0x77, 0x3e, 0x0d, 0x5b, 0xec, 0x3d, 0xa6, 0x20, 0x92, 0xbe,
  0x86, 0x35, 0x9e, 0x3e, 0x48, 0x39, 0xa9, 0x3e, 0xb0, 0xc3, 0xad, 0xbc,
  0xd6, 0x5e, 0x1e, 0x3e, 0x70, 0xca, 0x61, 0xbe, 0x3b, 0x22, 0x84, 0xbd,
  0x55, 0xb7, 0x95, 0xbe, 0xdb, 0xf6, 0xd0, 0xbd, 0x5b, 0xa3, 0x82, 0xbe,
  0xfa, 0xd1, 0x7e, 0x3e, 0x6f, 0x31, 0x3e, 0xbd, 0x25, 0x9f, 0xd4, 0x3a,
  0xa7, 0x64, 0x4e, 0x3e, 0xaf, 0x45, 0x64, 0xbe, 0xb6, 0x67, 0x84, 0x3e,
  0xe3, 0x00, 0xbf, 0x3d, 0x45, 0x08, 0x9e, 0xbe, 0x5e, 0x1f, 0x57, 0xbe,
  0x4d, 0x28, 0x16, 0x3e, 0x9a, 0xad, 0x00, 0x3e, 0xc3, 0x4a, 0x74, 0xbc,
  0xd2, 0x64, 0xb3, 0x3e, 0xf8, 0x82, 0xb0, 0x3d, 0xa7, 0x39, 0x1a, 0x3d,
  0x1f, 0xdb, 0xe3, 0xbd, 0x9d, 0x17, 0x92, 0x3e, 0x7a, 0xfd, 0xd2, 0xbd,
  0x19, 0x62, 0x9d, 0xbe, 0x4c, 0x03, 0xab, 0x3e, 0x34, 0x7d, 0x7c, 0x3d,
  0x27, 0xff, 0x02, 0xbd, 0xc4, 0x56, 0x9d, 0xbe, 0xcb, 0x70, 0x20, 0x3d,
  0xf8, 0xa3, 0x2a, 0x3e, 0x67, 0x96, 0x00, 0x3e, 0x16, 0x73, 0x28, 0x3e,
  0x75, 0x1a, 0xda, 0xbd, 0x3d, 0x08, 0x11, 0xbe, 0x0f, 0x55, 0x93, 0x3e,
  0x0b, 0x2f, 0xaa, 0xbe, 0xf8, 0xc7, 0xf3, 0xbc, 0x46, 0xcf, 0xa8, 0xbd,
  0xca, 0x88, 0x99, 0xbd, 0x20, 0x72, 0x80, 0xbe, 0x98, 0x02, 0x4d, 0xbe,
  0x04, 0x38, 0xa1, 0xbe, 0x56, 0xdf, 0xab, 0x3e, 0xf8, 0xbc, 0xf1, 0xbc,
  0x25, 0x39, 0x11, 0x3d, 0x69, 0x22, 0x50, 0x3e, 0xfb, 0x67, 0x6c, 0xbe,
  0x64, 0xa4, 0x98, 0xbe, 0x23, 0x53, 0x4d, 0x3e, 0x18, 0x3b, 0x63, 0xbd,
  0xc5, 0xc7, 0xd0, 0x3d, 0x0b, 0x57, 0x01, 0xbe, 0xff, 0xae, 0xc8, 0xbd,
  0x4b, 0x34, 0x37, 0x3d, 0x2e, 0xb9, 0x9c, 0x3e, 0x12, 0x64, 0xfc, 0x3d,
  0xf1, 0x69, 0xa6, 0xbe, 0x06, 0xb4, 0x1a, 0xbe, 0xdb, 0x1d, 0x21, 0x3e,
  0xde, 0x0a, 0x72, 0x3e, 0x19, 0x56, 0x12, 0x3e, 0xa0, 0x4d, 0x2b, 0x3e,
  0xec, 0x27, 0x61, 0xbe, 0xcc, 0xe6, 0x81, 0x3e, 0x07, 0x81, 0x49, 0x3e,
  0xcb, 0xe1, 0xa9, 0xbd, 0x62, 0xf2, 0x07, 0x3d, 0xac, 0x50, 0x85, 0x3d,
  0x16, 0x1a, 0xff, 0xbd, 0x2b, 0x22, 0x3c, 0xbd, 0xf3, 0x64, 0xa6, 0x3e,
  0xb1, 0x57, 0x38, 0xbe, 0xc8, 0x5a, 0xfc, 0xbd, 0xf8, 0xe0, 0xbc, 0x3c,
  0xce, 0xa3, 0x9e, 0x3e, 0xff, 0xe8, 0x3b, 0x3e, 0x3e, 0x7d, 0x40, 0xbe,
  0x2c, 0xbd, 0xde, 0x3d, 0x54, 0x20, 0x85, 0x3e, 0x90, 0x63, 0x4c, 0x3b,
  0xc9, 0x98, 0xc9, 0xbd, 0x97, 0x27, 0x6c, 0xbd, 0x56, 0xb5, 0xa9, 0x3e,
  0x98, 0x72, 0x91, 0x3c, 0x17, 0xa4, 0xed, 0x3d, 0x7b, 0x67, 0xa3, 0x3e,
  0x9b, 0x28, 0x04, 0x3e, 0xa5, 0x47, 0xa2, 0x3e, 0x82, 0xc4, 0xbb, 0x3d,
  0x15, 0x84, 0x12, 0x3e, 0x96, 0x1a, 0x02, 0xbe, 0xe5, 0x9c, 0x71, 0x3e,
  0x2f, 0x64, 0xa2, 0x3e, 0xbe, 0x66, 0xba, 0x3d, 0x6f, 0xac, 0xa0, 0x3e,
  0xfa, 0x72, 0xe5, 0xbd, 0x25, 0x3f, 0x79, 0x3b, 0x87, 0xae, 0x03, 0xbd,
  0x7d, 0x23, 0x88, 0xbe, 0x43, 0x61, 0x02, 0x3e, 0x92, 0x73, 0x62, 0xbe,
  0x1a, 0x4f, 0x40, 0x3e, 0x25, 0xd4, 0x18, 0xbd, 0x62, 0x67, 0xbb, 0x3c,
  0x6a, 0xc9, 0xfa, 0x3d, 0x0a, 0x11, 0x29, 0xbe, 0x11, 0x5b, 0x47, 0xbe,
  0x93, 0x63, 0x64, 0x3e, 0xfd, 0xda, 0xa7, 0xbe, 0x53, 0x92, 0x98, 0x3e,
  0xe3, 0x87, 0x8f, 0x3e, 0xb4, 0xc7, 0xa6, 0xbe, 0xa5, 0xe4, 0x7a, 0x3e,
  0xfd, 0x15, 0x2b, 0x3e, 0x30, 0xba, 0x04, 0x3e, 0x76, 0xee, 0x99, 0xbe,
  0x8b, 0x7f, 0x32, 0x3e, 0xc8, 0x71, 0x82, 0x3e, 0x55, 0x29, 0x8c, 0x3d,
  0xf4, 0xf9, 0x41, 0xbe, 0x88, 0xee, 0x96, 0xbe, 0xa3, 0x4c, 0x1c, 0x3e,
  0x6d, 0xf6, 0x59, 0x3e, 0xfe, 0x2e, 0x66, 0x3d, 0x31, 0x92, 0x20, 0xbe,
  0x42, 0x0d, 0x91, 0x3e, 0x76, 0xe8, 0xa6, 0xbd, 0x04, 0x8d, 0xac, 0x3e,
  0x2f, 0x4b, 0xff, 0x3d, 0x2b, 0x44, 0xd8, 0x3d, 0x7e, 0xea, 0x67, 0xbe,
  0xde, 0x46, 0xb1, 0xbd, 0x10, 0xbf, 0xa2, 0x3e, 0xf0, 0xd2, 0xa2, 0x3e,
  0x58, 0x63, 0x90, 0x3e, 0xea, 0x26, 0x12, 0x3e, 0x25, 0xa5, 0x91, 0x3d,
  0x19, 0xe7, 0x92, 0x3e, 0x1d, 0x7e, 0x9a, 0x3e, 0x1e, 0x23, 0x46, 0x3e,
  0x83, 0x9f, 0xf3, 0xbd, 0x58, 0x36, 0x9b, 0xbd, 0x8a, 0xb5, 0x31, 0xbe,
  0x93, 0x7e, 0x8e, 0xbe, 0xc7, 0x0d, 0x8a, 0xbe, 0x05, 0x27, 0x19, 0x3e,
  0xc5, 0x59, 0x3e, 0x3e, 0x38, 0x81, 0xa0, 0xbe, 0x63, 0x52, 0xfe, 0x3c,
  0xd3, 0x48, 0x6d, 0xbe, 0xd4, 0x73, 0x37, 0xbe, 0xc0, 0x9a, 0xe8, 0xbd,
  0xb7, 0x47, 0x52, 0x3e, 0x10, 0xe7, 0x1b, 0xbe, 0x67, 0xca, 0x86, 0xbe,
  0xdc, 0x82, 0x07, 0xbe, 0xbe, 0x33, 0x65, 0xbe, 0x56, 0x23, 0x88, 0x3e,
  0x6b, 0x6c, 0x6c, 0xbe, 0x4d, 0x7b, 0x90, 0xbe, 0xe7, 0x67, 0x8c, 0x3e,
  0xba, 0xa8, 0x7f, 0xbe, 0x0e, 0xfb, 0x67, 0xbd, 0xb5, 0x85, 0xab, 0xbe,
  0xae, 0xbf, 0xb9, 0x3d, 0x99, 0x8c, 0x4f, 0xbd, 0xfa, 0xf5, 0xff, 0xff,
  0x04, 0x00, 0x00, 0x00, 0x00, 0x03, 0x00, 0x00, 0xfd, 0xf7, 0x08, 0x3e,
  0xc8, 0x25, 0x16, 0x3e, 0xaa, 0x63, 0x1b, 0xbe, 0x9b, 0x31, 0x71, 0x3d,
  0x73, 0x2a, 0x0b, 0xbe, 0x45, 0xa9, 0xb2, 0xbe, 0xef, 0x48, 0x22, 0x3e,
  0x9a, 0xa4, 0x81, 0x3b, 0xb6, 0xf4, 0x13, 0x3e, 0x81, 0x04, 0x08, 0x3e,
  0x0a, 0xe4, 0x41, 0x3c, 0x75, 0x02, 0xc0, 0x3d, 0x9e, 0xe2, 0x9d, 0x3e,
  0xf9, 0x8a, 0x53, 0x3e, 0xdf, 0x78, 0x97, 0xbe, 0xf1, 0x4f, 0x87, 0x3e,
  0x17, 0xd0, 0x1d, 0xbd, 0x29, 0xd4, 0x28, 0xbe, 0x16, 0xa3, 0xa9, 0xbe,
  0xac, 0xbe, 0x99, 0xbe, 0x14, 0x00, 0x9a, 0xbe, 0xa6, 0x38, 0xb2, 0x3e,
  0xdb, 0x30, 0x79, 0x3e, 0x5f, 0x43, 0xa4, 0xbe, 0xaf, 0xe5, 0xb1, 0x3d,
  0x66, 0x74, 0x5a, 0x3e, 0x44, 0x46, 0x8c, 0xbd, 0x51, 0xf8, 0xa6, 0xbe,
  0xaa, 0x91, 0x93, 0xbe, 0x4d, 0x5f, 0xa9, 0x3e, 0x0e, 0xd3, 0x24, 0xbe,
  0x13, 0x2b, 0x14, 0xbe, 0x3a, 0x72, 0x39, 0x3e, 0x30, 0xe1, 0xa5, 0xbe,
  0x15, 0xe6, 0x3b, 0x3d, 0x71, 0x67, 0x13, 0x3e, 0x3c, 0xd1, 0x95, 0x3e,
  0x2b, 0x23, 0xe5, 0x3d, 0x7a, 0x46, 0xe8, 0xbd, 0x87, 0x2f, 0x4e, 0xbe,
  0xe5, 0x87, 0x97, 0xbe, 0xb9, 0x21, 0x14, 0x3c, 0xd7, 0x53, 0xfb, 0x3c,
  0x3d, 0x84, 0x80, 0x3e, 0x11, 0x52, 0x72, 0xbe, 0x6b, 0xde, 0x1c, 0xbd,
  0xff, 0xb6, 0x76, 0xbe, 0xaa, 0x80, 0xf9, 0xbc, 0x70, 0xc2, 0x8c, 0x3c,
  0x31, 0x22, 0x9a, 0xbd, 0x20, 0x12, 0x98, 0xbe, 0xd6, 0xb1, 0xac, 0x3e,
  0xf7, 0x91, 0x5f, 0x3e, 0xc2, 0x1b, 0xa2, 0xbe, 0x5c, 0xdb, 0x34, 0xbe,
  0x83, 0xc3, 0x80, 0x3e, 0xd7, 0x69, 0x2e, 0xbe, 0x3a, 0xe8, 0x52, 0xbe,
  0x80, 0x7a, 0x08, 0x3e, 0x18, 0xd1, 0x0a, 0x3e, 0xd6, 0x02, 0x95, 0xbe,
  0x33, 0x1f, 0x95, 0x3e, 0x8c, 0x6d, 0x3f, 0xbe, 0x0c, 0x0b, 0x6e, 0xbe,
  0x10, 0xad, 0x45, 0x3d, 0x2d, 0x41, 0x7c, 0x3e, 0xf2, 0x1a, 0x2e, 0x3d,
  0x9a, 0x42, 0xbe, 0xbd, 0xb1, 0xcb, 0x38, 0xbe, 0x70, 0x87, 0xbf, 0x3b,
  0xda, 0x23, 0x9c, 0xbe, 0x0d, 0xda, 0xb2, 0xbd, 0x1d, 0x1e, 0x97, 0xbe,
  0xbd, 0x6b, 0x8f, 0x3e, 0xe8, 0xe5, 0x28, 0x3e, 0x84, 0x4b, 0xe2, 0xbd,
  0xf9, 0xc2, 0xbf, 0xbd, 0x4b, 0x35, 0x3c, 0xbe, 0xaa, 0x44, 0xa4, 0x3e,
  0x61, 0x1e, 0x3e, 0xbd, 0xa8, 0xd1, 0x6d, 0x3d, 0x29, 0x2b, 0x9c, 0xbe,
  0x37, 0x47, 0x8a, 0xbe, 0xe9, 0x27, 0x73, 0xbd, 0x75, 0x40, 0x0c, 0xbe,
  0x3d, 0xba, 0x8f, 0xbe, 0x8c, 0x3e, 0x5c, 0xbd, 0x88, 0x71, 0x6f, 0x3e,
  0x74, 0x4b, 0x8d, 0x3d, 0x69, 0x84, 0xa7, 0x3e, 0x7f, 0x34, 0xb0, 0x3e,
  0xdd, 0x7d, 0x83, 0xbb, 0xeb, 0xca, 0x70, 0xbe, 0x7b, 0x36, 0x40, 0xbe,
  0xce, 0x0d, 0x0a, 0xbd, 0x8c, 0xd6, 0x82, 0xbe, 0xb3, 0x69, 0x5f, 0x3d,
  0xa6, 0x3f, 0xb2, 0x3d, 0xb6, 0x84, 0xbe, 0xbd, 0xf4, 0x34, 0x89, 0xbe,
  0x1c, 0xb3, 0x78, 0xbe, 0x4f, 0x52, 0x39, 0x3e, 0xf1, 0x52, 0x76, 0xbe,
  0xd3, 0xe3, 0x57, 0x3d, 0x97, 0xe7, 0xd6, 0x3d, 0x61, 0xb5, 0x85, 0x3e,
  0x73, 0xbe, 0xa4, 0x3e, 0x7e, 0x6d, 0x8b, 0xbd, 0x45, 0x9d, 0x71, 0xbe,
  0xc6, 0x2b, 0x10, 0x3e, 0x26, 0x85, 0xa6, 0xbe, 0x08, 0x71, 0xbb, 0x3d,
  0x2a, 0x1d, 0x62, 0x3d, 0x24, 0x34, 0x63, 0x3e, 0xdb, 0x89, 0xac, 0x3e,
  0xe1, 0x60, 0xd3, 0x3d, 0x79, 0x57, 0x4c, 0xbd, 0xbc, 0x33, 0xf0, 0xbd,
  0x4b, 0x05, 0x83, 0xbd, 0x60, 0xa8, 0x45, 0xbd, 0x72, 0xc6, 0xa2, 0x3d,
  0x2e, 0xd2, 0x42, 0x3e, 0x26, 0x79, 0x1e, 0xbb, 0xc0, 0xf7, 0xf7, 0xbd,
  0x4d, 0x6d, 0x61, 0x3e, 0x5f, 0x8f, 0x7b, 0x3e, 0xcd, 0xb8, 0x8e, 0xbc,
  0x76, 0x66, 0x92, 0xbe, 0x5b, 0xae, 0x21, 0xbe, 0xf8, 0x36, 0x96, 0xbe,
  0x9f, 0x33, 0x90, 0x3e, 0x59, 0x35, 0xa2, 0x3e, 0xaa, 0xff, 0x6c, 0xbe,
  0x21, 0x0b, 0xc9, 0x3d, 0xa7, 0x9a, 0x22, 0xbd, 0x03, 0x6b, 0xa4, 0xbd,
  0xf2, 0xfa, 0x87, 0x3e, 0xa4, 0xe7, 0x19, 0x3e, 0xc5, 0xf7, 0x2e, 0x3e,
  0x81, 0x8d, 0x81, 0xbd, 0x3e, 0xaa, 0x9a, 0xbe, 0x2b, 0xa1, 0xcd, 0x3d,
  0xa0, 0xf5, 0x66, 0xbe, 0x92, 0x1a, 0xa5, 0xbe, 0x28, 0x8c, 0x43, 0xbe,
  0xaa, 0x5c, 0xa6, 0xbe, 0xe7, 0x1b, 0x96, 0xbe, 0xa4, 0xe9, 0xac, 0x3e,
  0x9e, 0xd7, 0x87, 0xbd, 0x8c, 0x06, 0xa8, 0x3d, 0x71, 0x13, 0xf1, 0xbd,
  0x33, 0x83, 0x8c, 0x3e, 0x40, 0xec, 0x07, 0x3e, 0x3d, 0x80, 0xb1, 0x3e,
  0x8c, 0x70, 0xa8, 0x3e, 0x03, 0x29, 0x88, 0xbe, 0x85, 0xb2, 0xea, 0x3d,
  0xb0, 0xf5, 0x3a, 0x3e, 0xdc, 0xee, 0x4b, 0x3e, 0xe6, 0x97, 0xb7, 0x3d,
  0x6e, 0xe0, 0x39, 0xbe, 0x76, 0x8c, 0x1a, 0xbe, 0x82, 0xff, 0x96, 0xbd,
  0x45, 0xbf, 0xed, 0x3d, 0xfa, 0x54, 0x84, 0x3e, 0xb7, 0x68, 0x5a, 0x3e,
  0x13, 0x90, 0x04, 0xbe, 0x6f, 0x8d, 0x92, 0xbd, 0xc1, 0xa7, 0x43, 0x3d,
  0xc0, 0x00, 0x05, 0x3e, 0x06, 0x57, 0x6d, 0xbe, 0x82, 0xe9, 0x69, 0xbe,
  0x9a, 0xbe, 0x28, 0xbe, 0x83, 0x60, 0x24, 0x3e, 0x02, 0xa1, 0xf1, 0x3d,
  0x41, 0x01, 0x13, 0xbe, 0x46, 0xd0, 0x1d, 0xbe, 0xff, 0x26, 0x97, 0xbe,
  0x49, 0x25, 0xa2, 0xbe, 0x7f, 0x8f, 0xce, 0xbd, 0xab, 0xcc, 0x83, 0x3e,
  0xf4, 0x44, 0x39, 0xbe, 0x44, 0x6b, 0x23, 0x3d, 0xe7, 0x0e, 0xd8, 0x3d,
  0xf9, 0xb7, 0xe1, 0xbc, 0xae, 0x9c, 0x83, 0x3e, 0xc6, 0x35, 0x35, 0x3d,
  0x88, 0x98, 0x8e, 0x3e, 0x52, 0xb6, 0x33, 0x3e, 0xb9, 0xc0, 0x2c, 0x3e,
  0xbb, 0x6c, 0x05, 0xbe, 0x4b, 0xfb, 0x48, 0x3e, 0x06, 0xf9, 0xff, 0xff,
  0x04, 0x00, 0x00, 0x00, 0x00, 0x03, 0x00, 0x00, 0x67, 0x0c, 0x76, 0x3e,
  0x8b, 0xd6, 0x01, 0xbe, 0xa6, 0xba, 0xd3, 0x3c, 0x8b, 0x3e, 0x5c, 0xbe,
  0x3f, 0x82, 0x84, 0x3a, 0xd2, 0x5c, 0xa9, 0x3e, 0xf1, 0xca, 0x77, 0xbc,
  0x8c, 0x43, 0x7d, 0xbe, 0x75, 0x0a, 0xa6, 0x3e, 0x9b, 0x9d, 0x60, 0xbe,
  0xc1, 0xef, 0x23, 0x3e, 0xaf, 0x1a, 0xa5, 0xbe, 0xd0, 0x4d, 0x6c, 0xbe,
  0x7b, 0xdd, 0x1e, 0xbe, 0xbf, 0x28, 0x6c, 0xbe, 0x10, 0x71, 0x31, 0x3e,
  0xc8, 0xe4, 0xb3, 0x3e, 0x1e, 0x1f, 0x8e, 0x3c, 0xed, 0x86, 0x94, 0x3d,
  0xed, 0xe2, 0x0b, 0x3e, 0x9d, 0xe3, 0xaa, 0xbe, 0x28, 0x02, 0x3c, 0x3e,
  0xb5, 0x2e, 0x9a, 0x3e, 0x74, 0x09, 0x82, 0xbd, 0x33, 0xe5, 0x11, 0x3c,
  0x8c, 0x69, 0x15, 0x3e, 0x81, 0xb1, 0xfa, 0xbd, 0x66, 0x56, 0x45, 0x3e,
  0x75, 0x00, 0x28, 0xbe, 0xe3, 0xe9, 0x42, 0xbd, 0xd7, 0x78, 0x4a, 0xbe,
  0x19, 0x93, 0x6c, 0xbe, 0x02, 0xe4, 0x38, 0xbe, 0x89, 0xf2, 0xf4, 0x3d,
  0x34, 0xb4, 0x42, 0x3e, 0x59, 0x12, 0x12, 0xbe, 0xdf, 0x2e, 0x15, 0xbe,
  0x37, 0xc0, 0xd7, 0x3d, 0xf8, 0x23, 0xa0, 0xbe, 0xe2, 0xc7, 0xa8, 0xbe,
  0xcd, 0xa2, 0x7e, 0x3e, 0x95, 0xb0, 0x9d, 0x3e, 0x44, 0x2a, 0x09, 0x3e,
  0x63, 0xb3, 0x4c, 0xbe, 0x6f, 0xb9, 0x36, 0xbe, 0x87, 0xde, 0x5d, 0xbd,
  0x75, 0xf8, 0x42, 0x3e, 0x27, 0x88, 0x8c, 0x3e, 0x22, 0xca, 0xe5, 0xbd,
  0x2c, 0x96, 0x93, 0x3e, 0x65, 0x57, 0xe5, 0x3d, 0x06, 0x4b, 0x4e, 0x3e,
  0x07, 0x19, 0xb4, 0xbe, 0x9d, 0x11, 0x9b, 0xbe, 0x2e, 0xd6, 0xaf, 0x3e,
  0xa8, 0xc4, 0x8e, 0x3d, 0x05, 0x80, 0xa5, 0xbd, 0x0b, 0xe3, 0x98, 0xbe,
  0xc1, 0xde, 0x7e, 0xbe, 0x55, 0x05, 0x14, 0xbe, 0xea, 0x63, 0x51, 0xbe,
  0x4d, 0xed, 0x84, 0xbe, 0x53, 0x52, 0x5c, 0xbe, 0xb9, 0x06, 0x83, 0xbe,
  0x10, 0xbc, 0xb4, 0x3d, 0xa5, 0x65, 0x08, 0x3e, 0xbd, 0x71, 0x1e, 0xbd,
  0xe6, 0xd9, 0x18, 0x3e, 0x93, 0x77, 0x0f, 0xbd, 0x49, 0xf4, 0x93, 0xbe,
  0x57, 0xa3, 0x14, 0xbe, 0x37, 0x70, 0x97, 0x3e, 0x7b, 0x16, 0x89, 0xbe,
  0xd0, 0x56, 0x15, 0x3e, 0xc8, 0xe9, 0xa8, 0xbe, 0xf0, 0x0a, 0x7f, 0x3e,
  0x15, 0xc5, 0x8b, 0x3e, 0x92, 0xd3, 0x1e, 0x3e, 0x1a, 0x5e, 0xc8, 0x3c,
  0x45, 0x77, 0x39, 0xbe, 0x7e, 0x18, 0x75, 0xbe, 0xb9, 0x03, 0xb1, 0x3d,
  0xec, 0xc6, 0x21, 0x3e, 0x78, 0x8d, 0xd2, 0xbd, 0x03, 0x52, 0x04, 0xbe,
  0x01, 0xbc, 0x5a, 0xbd, 0x55, 0x59, 0xba, 0xbd, 0xdb, 0xef, 0x10, 0xbc,
  0x3a, 0x6e, 0x67, 0x3e, 0xff, 0xcd, 0x3d, 0xbe, 0xaa, 0xb6, 0x4b, 0x3e,
  0x40, 0xb4, 0x62, 0xbd, 0x2f, 0x93, 0x25, 0xbe, 0xa0, 0xea, 0xfc, 0x3d,
  0x59, 0xd8, 0xf0, 0x3d, 0xbd, 0x45, 0x2c, 0x3e, 0x3e, 0x6b, 0x3c, 0xbe,
  0x7c, 0x40, 0x48, 0x3e, 0x78, 0xe2, 0xac, 0x3e, 0x9b, 0x04, 0x32, 0x3e,
  0xe2, 0x72, 0x1e, 0x3c, 0x70, 0x86, 0x84, 0xbd, 0x8c, 0x39, 0xa3, 0xbd,
  0x37, 0xd7, 0x5b, 0x3e, 0x4a, 0x29, 0x9f, 0x3e, 0x61, 0x0e, 0x71, 0xbd,
  0x19, 0x91, 0xe9, 0x3d, 0x36, 0x2a, 0xec, 0x3d, 0xc4, 0xb3, 0xe9, 0xbc,
  0x6e, 0x21, 0xa1, 0x3d, 0x63, 0x96, 0x23, 0xbd, 0xfa, 0xe5, 0x82, 0xbe,
  0xd2, 0x94, 0x9b, 0x3e, 0xe2, 0xd0, 0xa8, 0xbe, 0xf1, 0xc2, 0x3d, 0xbe,
  0x0d, 0xd8, 0x4c, 0xbe, 0xa7, 0x08, 0x94, 0xbe, 0x6f, 0xb6, 0x18, 0x3d,
  0x85, 0xb8, 0xb0, 0xbe, 0x09, 0x06, 0x5c, 0xbe, 0x10, 0x23, 0x74, 0xbe,
  0x7a, 0x07, 0xa3, 0xbd, 0xd0, 0xe3, 0x37, 0xbe, 0x7a, 0x8e, 0x42, 0xbe,
  0xce, 0x70, 0x51, 0x3e, 0x1a, 0x27, 0x4f, 0x3e, 0x2e, 0x99, 0x77, 0x3d,
  0x6c, 0x1a, 0x91, 0x3d, 0x3a, 0x61, 0xcc, 0x3c, 0xbd, 0x97, 0x05, 0x3e,
  0xb8, 0x1f, 0xb0, 0xbe, 0x81, 0x1e, 0xf3, 0xbd, 0xd3, 0x9f, 0x80, 0xbe,
  0x57, 0xad, 0x69, 0x3e, 0x08, 0x71, 0x32, 0xbe, 0x0b, 0x3d, 0xab, 0x3e,
  0x42, 0x8c, 0x0d, 0x3e, 0x1b, 0x1a, 0xce, 0x3d, 0x3b, 0xd4, 0x8b, 0xbe,
  0xe6, 0x61, 0x20, 0xbe, 0xd3, 0x4a, 0x66, 0xbe, 0xe0, 0xa2, 0x2f, 0x3e,
  0xc5, 0x7a, 0x93, 0xbe, 0x54, 0xec, 0xb2, 0x3e, 0xb2, 0x41, 0xae, 0xbc,
  0x41, 0x29, 0x88, 0x3d, 0x18, 0x58, 0xab, 0xbe, 0x66, 0x3f, 0xb2, 0xbe,
  0xa6, 0x1c, 0x62, 0x3d, 0xcd, 0x1c, 0x4c, 0xbe, 0x30, 0x94, 0xc2, 0x3d,
  0xda, 0x22, 0x7f, 0x3e, 0x59, 0x93, 0x48, 0x3e, 0x9d, 0xc3, 0x47, 0x3e,
  0xa0, 0x65, 0x01, 0x3e, 0xf5, 0xac, 0xa6, 0xbe, 0xba, 0xb6, 0x1b, 0xbe,
  0xc9, 0xc8, 0x36, 0x3e, 0x6d, 0xb4, 0x02, 0xbc, 0x13, 0x07, 0x77, 0xbe,
  0x51, 0x2a, 0xf6, 0xbd, 0x4e, 0x8f, 0x12, 0x3c, 0xda, 0x71, 0x05, 0x3d,
  0xf0, 0xd6, 0x57, 0x3e, 0x97, 0xfe, 0x9b, 0x3e, 0x14, 0x88, 0x5d, 0xbe,
  0x1a, 0x41, 0x30, 0xbe, 0x6c, 0x64, 0x42, 0xbe, 0x2c, 0xc8, 0x43, 0x3e,
  0xba, 0xb8, 0xa3, 0x3e, 0x73, 0xbd, 0x60, 0x3e, 0xe9, 0xc4, 0x95, 0xbe,
  0xee, 0x70, 0x4a, 0xbd, 0xbc, 0xe2, 0xa2, 0xbe, 0x4e, 0xc0, 0x7f, 0xbe,
  0x69, 0xfe, 0xb8, 0x3d, 0xcb, 0xb2, 0x8f, 0xbe, 0x5c, 0x8f, 0xa8, 0xbe,
  0x5a, 0xfe, 0x42, 0x3e, 0x06, 0x9b, 0x95, 0x3e, 0x0b, 0x43, 0x4c, 0x3d,
  0xf3, 0x6d, 0x71, 0x3c, 0xfa, 0x7e, 0xa8, 0x3e, 0x6d, 0xca, 0x89, 0xbe,
  0xf1, 0xd2, 0x79, 0x3e, 0x7b, 0x38, 0x62, 0xbd, 0x54, 0x53, 0xc3, 0x3c,
  0x6b, 0xf2, 0xae, 0x3d, 0x7a, 0x73, 0xe3, 0xbd, 0xef, 0x1e, 0xb3, 0x3e,
  0x25, 0xe7, 0x97, 0xbe, 0xe4, 0x04, 0x68, 0x3d, 0x12, 0xfc, 0xff, 0xff,
  0x04, 0x00, 0x00, 0x00, 0x00, 0x01, 0x00, 0x00, 0xaa, 0x78, 0x0b, 0x3e,
  0xcc, 0x7f, 0x79, 0xbe, 0x6e, 0xb2, 0x63, 0x3e, 0xdc, 0x64, 0xcc, 0xbd,
  0x20, 0xf0, 0xae, 0xbd, 0xb0, 0x62, 0x16, 0xbd, 0x8a, 0x7e, 0x0d, 0x3e,
  0x32, 0x83, 0x7d, 0x3e, 0x88, 0x22, 0x2c, 0x3e, 0x0a, 0x38, 0xbc, 0x3d,
  0xc3, 0xd7, 0x0c, 0x3b, 0x6a, 0x45, 0x81, 0x3e, 0x62, 0x27, 0xe4, 0x3d,
  0x58, 0x39, 0x80, 0xbc, 0xa5, 0x2f, 0x8d, 0x3e, 0x7c, 0x69, 0x31, 0x3e,
  0x0e, 0xb7, 0x18, 0x3e, 0x02, 0xeb, 0x10, 0x3e, 0x52, 0x24, 0x6d, 0x3e,
  0x6c, 0x61, 0xa0, 0xbd, 0x52, 0xa0, 0x18, 0x3e, 0xca, 0x13, 0x2a, 0xbe,
  0xbb, 0xdf, 0x27, 0xbe, 0xad, 0xa6, 0x5b, 0xbe, 0x97, 0xbf, 0x4a, 0xbe,
  0x0f, 0x3c, 0x3e, 0xbe, 0x1c, 0xaa, 0x08, 0xbe, 0x12, 0x3e, 0xf1, 0x3d,
  0x62, 0xc3, 0x0a, 0xbe, 0x4b, 0x87, 0x4b, 0x3c, 0x05, 0x78, 0x50, 0xbe,
  0x9d, 0x14, 0xb4, 0x3e, 0x83, 0xf2, 0x79, 0x3e, 0xc1, 0xb8, 0xf7, 0x3d,
  0x68, 0x0d, 0x90, 0x3e, 0x0d, 0xc2, 0xab, 0x3e, 0x5c, 0x84, 0xb3, 0xbe,
  0x49, 0x8f, 0x59, 0x3d, 0xf6, 0x95, 0x19, 0xbe, 0x7b, 0x70, 0x8e, 0xbd,
  0xf1, 0x93, 0x80, 0xbe, 0x40, 0x50, 0x8e, 0xbe, 0x8b, 0xf9, 0x1f, 0xbe,
  0x06, 0x9b, 0x17, 0xbe, 0xf5, 0x98, 0x68, 0x3e, 0x70, 0x42, 0xf9, 0xbd,
  0x81, 0xfb, 0x3f, 0x3e, 0xd9, 0xf0, 0x00, 0xbe, 0x92, 0x90, 0x7c, 0xbe,
  0x80, 0x0c, 0xfe, 0xbc, 0xa5, 0x56, 0x82, 0x3e, 0xea, 0x67, 0x20, 0x3e,
  0x02, 0x98, 0xe7, 0xbd, 0xd4, 0xd3, 0x5a, 0xbe, 0x8e, 0x3c, 0x2f, 0xbe,
  0x50, 0x17, 0x6d, 0xbd, 0x52, 0x5e, 0xb3, 0xbe, 0x04, 0x5e, 0xa3, 0xbe,
  0x3e, 0xcb, 0x1d, 0x3e, 0xb3, 0xce, 0xa6, 0x3e, 0x62, 0x14, 0xe1, 0xbd,
  0x27, 0x6c, 0x85, 0xbe, 0xae, 0x10, 0x5f, 0x3e, 0x6a, 0xcb, 0x07, 0x3e,
  0x1e, 0xfd, 0xff, 0xff, 0x04, 0x00, 0x00, 0x00, 0x20, 0x00, 0x00, 0x00,
  0x1a, 0x01, 0x1c, 0xbe, 0xfe, 0xf0, 0x8e, 0xbe, 0xe0, 0x43, 0x5e, 0x3d,
  0xe0, 0xf3, 0x05, 0x3e, 0xd0, 0x41, 0x35, 0xbe, 0xe0, 0xd2, 0x8e, 0xbe,
  0x0e, 0x4f, 0x68, 0x3e, 0x08, 0x9c, 0xef, 0xbd, 0x4a, 0xfd, 0xff, 0xff,
  0x04, 0x00, 0x00, 0x00, 0x60, 0x00, 0x00, 0x00, 0x3a, 0x86, 0x8b, 0x3e,
  0xa4, 0x23, 0x94, 0xbe, 0x25, 0x47, 0x74, 0xbe, 0xfe, 0xa7, 0x0c, 0x3e,
  0x79, 0xf5, 0x66, 0x3e, 0x91, 0xf7, 0x93, 0xbd, 0xe1, 0xca, 0x04, 0xbe,
  0x33, 0xa5, 0x59, 0xbd, 0xe0, 0x89, 0x1a, 0x3e, 0x2e, 0xe3, 0x2c, 0x3b,
  0xc2, 0xcf, 0x87, 0x3e, 0xe2, 0x8e, 0xab, 0xbe, 0x29, 0x5b, 0x93, 0xbe,
  0x17, 0xc6, 0xe7, 0x3d, 0xea, 0xb3, 0x34, 0xbd, 0x87, 0xc8, 0x93, 0x3d,
  0x62, 0xf8, 0x9f, 0x3e, 0x5d, 0x5c, 0x98, 0x3e, 0xb2, 0x70, 0xaf, 0xbe,
  0x01, 0x34, 0x6b, 0x3e, 0x24, 0x90, 0x22, 0xbe, 0x91, 0xfe, 0x22, 0xbd,
  0xfd, 0xec, 0x86, 0x3d, 0x7e, 0xbf, 0x00, 0xbb, 0xb6, 0xfd, 0xff, 0xff,
  0x04, 0x00, 0x00, 0x00, 0x60, 0x00, 0x00, 0x00, 0xd1, 0xd0, 0xf5, 0xbc,
  0xf9, 0xef, 0x04, 0x3e, 0xe4, 0x44, 0x17, 0xbe, 0xd7, 0xd0, 0x51, 0xbe,
  0xa5, 0x4d, 0x78, 0x3e, 0x69, 0x1c, 0xdd, 0xbc, 0x59, 0xf4, 0x91, 0xbe,
  0x75, 0xf0, 0x17, 0x3e, 0x97, 0x70, 0x62, 0x3d, 0x21, 0x20, 0x9d, 0x3e,
  0x48, 0x01, 0xa0, 0xbe, 0xa9, 0xe3, 0xce, 0x3d, 0xef, 0x24, 0xa7, 0xbe,
  0xc8, 0x0e, 0x91, 0x3e, 0x96, 0x9b, 0x84, 0x3e, 0x90, 0x43, 0xa8, 0x3e,
  0xf8, 0x52, 0xa4, 0xbe, 0xee, 0x22, 0x90, 0xbe, 0xa8, 0xcf, 0xab, 0x3d,
  0xd2, 0x59, 0x65, 0x3d, 0xca, 0x2a, 0x90, 0xbe, 0x3a, 0xce, 0xa6, 0xbc,
  0x35, 0x5c, 0x83, 0xbe, 0x38, 0xbe, 0xa9, 0x3e, 0x22, 0xfe, 0xff, 0xff,
  0x04, 0x00, 0x00, 0x00, 0x60, 0x00, 0x00, 0x00, 0xac, 0xe7, 0x20, 0xbe,
  0x09, 0x05, 0x2b, 0x3e, 0x31, 0xd7, 0x5e, 0x3d, 0x56, 0x46, 0x94, 0xbe,
  0xfb, 0x94, 0x87, 0xbe, 0x58, 0x59, 0x11, 0xbd, 0x9a, 0x8e, 0x58, 0xbe,
  0x8d, 0xb2, 0x8f, 0xbe, 0xba, 0xde, 0xdd, 0xbd, 0x5a, 0x0b, 0xd8, 0x3d,
  0x56, 0xce, 0x6e, 0x3e, 0x9c, 0x1b, 0xd2, 0xbd, 0x7f, 0xa4, 0x9d, 0xbe,
  0x61, 0xb8, 0x32, 0x3e, 0x60, 0xb2, 0x76, 0xbd, 0xbf, 0x53, 0x01, 0xbe,
  0x3b, 0xb5, 0x8b, 0x3e, 0xab, 0x44, 0x48, 0xbe, 0x8e, 0x2d, 0xfd, 0x3d,
  0xb7, 0xdd, 0x55, 0xbe, 0xf6, 0x4e, 0x56, 0xbb, 0xef, 0x10, 0x84, 0x3d,
  0x64, 0x60, 0xe5, 0x3c, 0x2e, 0xed, 0xb2, 0xbe, 0x8e, 0xfe, 0xff, 0xff,
  0x04, 0x00, 0x00, 0x00, 0x60, 0x00, 0x00, 0x00, 0x12, 0xeb, 0x95, 0x3e,
  0xd6, 0x56, 0xde, 0xbd, 0xfc, 0x5c, 0x37, 0x3e, 0x7f, 0xcc, 0x44, 0xbe,
  0xb8, 0xa6, 0x0c, 0x3e, 0xc8, 0x40, 0x60, 0xbd, 0x2a, 0xde, 0xdb, 0x3d,
  0x44, 0xb2, 0x8a, 0x3e, 0x7e, 0x49, 0xec, 0xbd, 0x99, 0x66, 0x45, 0xbe,
  0xfa, 0xe1, 0x63, 0x3e, 0x65, 0x6a, 0xc5, 0xbc, 0x9b, 0x70, 0x98, 0x3e,
  0xfa, 0x2e, 0x14, 0xbc, 0x97, 0x64, 0x37, 0x3e, 0x97, 0x40, 0x5f, 0xbe,
  0x2c, 0x91, 0x07, 0x3e, 0x0f, 0xf3, 0x88, 0xbe, 0x16, 0x62, 0x02, 0xbe,
  0xe5, 0x2f, 0x07, 0x3e, 0x20, 0xc1, 0x54, 0xbe, 0x5e, 0xc2, 0x98, 0x3e,
  0xb9, 0x22, 0x0e, 0x3d, 0x94, 0x76, 0x80, 0xbe, 0xfa, 0xfe, 0xff, 0xff,
  0x04, 0x00, 0x00, 0x00, 0x60, 0x00, 0x00, 0x00, 0x2f, 0x5d, 0x80, 0x3e,
  0x34, 0x39, 0x4c, 0xbe, 0x33, 0xc3, 0xac, 0x3c, 0xdc, 0xee, 0x5c, 0x3e,
  0xdc, 0x5d, 0xde, 0xbc, 0x26, 0x77, 0x36, 0xbe, 0xa9, 0x16, 0xb7, 0xbd,
  0x52, 0x30, 0x8f, 0xbe, 0x44, 0x5c, 0x59, 0x3e, 0xd7, 0xc1, 0xe7, 0x3c,
  0x5f, 0xcd, 0x64, 0xbe, 0x97, 0x8a, 0x05, 0xbe, 0x21, 0xf4, 0x6c, 0xbe,
  0x16, 0x37, 0x9b, 0xbe, 0x1e, 0x55, 0x40, 0xbe, 0x2f, 0xd5, 0x01, 0x3e,
  0xc7, 0xae, 0xb9, 0x3d, 0x21, 0x50, 0x1d, 0x3e, 0x2d, 0xb0, 0x9b, 0xbd,
  0xf7, 0xc0, 0x34, 0x3e, 0xaf, 0xed, 0xa1, 0x3c, 0x4b, 0x5f, 0x38, 0xbe,
  0x6c, 0xfd, 0x2a, 0xbe, 0xfc, 0x4d, 0xb0, 0x3e, 0x66, 0xff, 0xff, 0xff,
  0x04, 0x00, 0x00, 0x00, 0x60, 0x00, 0x00, 0x00, 0xfe, 0xeb, 0x10, 0xbc,
  0x88, 0x7b, 0xa7, 0xbd, 0x8a, 0x23, 0x81, 0xbe, 0xde, 0xdb, 0x9c, 0x3e,
  0x52, 0xe7, 0xba, 0xbd, 0x0a, 0x54, 0x97, 0xbe, 0x72, 0x7b, 0x0c, 0x3e,
  0x9b, 0xd4, 0x8c, 0x3e, 0xd0, 0x09, 0x71, 0xbe, 0x0e, 0xe3, 0xb1, 0x3e,
  0xe8, 0x63, 0x92, 0x3b, 0xc7, 0xeb, 0xd1, 0xbd, 0x6f, 0x07, 0x70, 0x3e,
  0xdd, 0x1b, 0x92, 0x3e, 0xc8, 0x9f, 0xd2, 0xbd, 0x3a, 0x47, 0xb0, 0xbe,
  0x46, 0x87, 0x87, 0x3e, 0xa7, 0xdf, 0x00, 0xbc, 0x31, 0xcb, 0x80, 0xbe,
  0xfa, 0x7b, 0xb0, 0xbe, 0x00, 0x00, 0x3e, 0x3e, 0x76, 0xc9, 0x49, 0xbe,
  0x49, 0xf0, 0x71, 0x3e, 0x73, 0x26, 0x69, 0x3e, 0xd2, 0xff, 0xff, 0xff,
  0x04, 0x00, 0x00, 0x00, 0x20, 0x00, 0x00, 0x00, 0x09, 0xa1, 0x82, 0xbe,
  0x9f, 0xf6, 0x46, 0x3e, 0x2e, 0x0a, 0x17, 0xbe, 0xf1, 0xf9, 0xd0, 0x3d,
  0x1f, 0x67, 0x70, 0x3e, 0x03, 0x41, 0x7a, 0x3e, 0x82, 0x5e, 0x8a, 0xbe,
  0x5c, 0x36, 0xfc, 0xbd, 0x00, 0x00, 0x06, 0x00, 0x08, 0x00, 0x04, 0x00,
  0x06, 0x00, 0x00, 0x00, 0x04, 0x00, 0x00, 0x00, 0x04, 0x00, 0x00, 0x00,
  0xfb, 0x79, 0x29, 0x3e, 0xcc, 0xcd, 0xff, 0xff, 0xd0, 0xcd, 0xff, 0xff,
  0xd4, 0xcd, 0xff, 0xff, 0x0f, 0x00, 0x00, 0x00, 0x4d, 0x4c, 0x49, 0x52,
  0x20, 0x43, 0x6f, 0x6e, 0x76, 0x65, 0x72, 0x74, 0x65, 0x64, 0x2e, 0x00,
  0x01, 0x00, 0x00, 0x00, 0x14, 0x00, 0x00, 0x00, 0x00, 0x00, 0x0e, 0x00,
  0x18, 0x00, 0x14, 0x00, 0x10, 0x00, 0x0c, 0x00, 0x08, 0x00, 0x04, 0x00,
  0x0e, 0x00, 0x00, 0x00, 0x14, 0x00, 0x00, 0x00, 0x1c, 0x00, 0x00, 0x00,
  0x18, 0x0c, 0x00, 0x00, 0x20, 0x0c, 0x00, 0x00, 0x28, 0x0c, 0x00, 0x00,
  0x04, 0x00, 0x00, 0x00, 0x6d, 0x61, 0x69, 0x6e, 0x00, 0x00, 0x00, 0x00,
  0x41, 0x00, 0x00, 0x00, 0xd8, 0x0b, 0x00, 0x00, 0xa4, 0x0b, 0x00, 0x00,
  0x7c, 0x0b, 0x00, 0x00, 0x44, 0x0b, 0x00, 0x00, 0x0c, 0x0b, 0x00, 0x00,
  0xe4, 0x0a, 0x00, 0x00, 0xbc, 0x0a, 0x00, 0x00, 0x74, 0x0a, 0x00, 0x00,
  0x3c, 0x0a, 0x00, 0x00, 0x14, 0x0a, 0x00, 0x00, 0xec, 0x09, 0x00, 0x00,
  0xb8, 0x09, 0x00, 0x00, 0x94, 0x09, 0x00, 0x00, 0x54, 0x09, 0x00, 0x00,
  0x30, 0x09, 0x00, 0x00, 0xfc, 0x08, 0x00, 0x00, 0xc8, 0x08, 0x00, 0x00,
  0xa4, 0x08, 0x00, 0x00, 0x70, 0x08, 0x00, 0x00, 0x3c, 0x08, 0x00, 0x00,
  0x08, 0x08, 0x00, 0x00, 0xe0, 0x07, 0x00, 0x00, 0xa8, 0x07, 0x00, 0x00,
  0x80, 0x07, 0x00, 0x00, 0x58, 0x07, 0x00, 0x00, 0x30, 0x07, 0x00, 0x00,
  0xf4, 0x06, 0x00, 0x00, 0xcc, 0x06, 0x00, 0x00, 0xa4, 0x06, 0x00, 0x00,
  0x7c, 0x06, 0x00, 0x00, 0x48, 0x06, 0x00, 0x00, 0x24, 0x06, 0x00, 0x00,
  0xf0, 0x05, 0x00, 0x00, 0xcc, 0x05, 0x00, 0x00, 0x98, 0x05, 0x00, 0x00,
  0x64, 0x05, 0x00, 0x00, 0x40, 0x05, 0x00, 0x00, 0x0c, 0x05, 0x00, 0x00,
  0xd8, 0x04, 0x00, 0x00, 0xa4, 0x04, 0x00, 0x00, 0x7c, 0x04, 0x00, 0x00,
  0x44, 0x04, 0x00, 0x00, 0x1c, 0x04, 0x00, 0x00, 0xf4, 0x03, 0x00, 0x00,
  0xcc, 0x03, 0x00, 0x00, 0x90, 0x03, 0x00, 0x00, 0x68, 0x03, 0x00, 0x00,
  0x40, 0x03, 0x00, 0x00, 0x18, 0x03, 0x00, 0x00, 0xe4, 0x02, 0x00, 0x00,
  0xc0, 0x02, 0x00, 0x00, 0x8c, 0x02, 0x00, 0x00, 0x68, 0x02, 0x00, 0x00,
  0x34, 0x02, 0x00, 0x00, 0x00, 0x02, 0x00, 0x00, 0xdc, 0x01, 0x00, 0x00,
  0xa8, 0x01, 0x00, 0x00, 0x74, 0x01, 0x00, 0x00, 0x40, 0x01, 0x00, 0x00,
  0x18, 0x01, 0x00, 0x00, 0xe0, 0x00, 0x00, 0x00, 0xb8, 0x00, 0x00, 0x00,
  0x74, 0x00, 0x00, 0x00, 0x2c, 0x00, 0x00, 0x00, 0x04, 0x00, 0x00, 0x00,
  0x4a, 0xf7, 0xff, 0xff, 0x0c, 0x00, 0x00, 0x00, 0x10, 0x00, 0x00, 0x00,
  0x07, 0x00, 0x00, 0x00, 0x01, 0x00, 0x00, 0x00, 0x5e, 0x00, 0x00, 0x00,
  0x02, 0x00, 0x00, 0x00, 0x5d, 0x00, 0x00, 0x00, 0x1b, 0x00, 0x00, 0x00,
  0xa6, 0xf6, 0xff, 0xff, 0x20, 0x00, 0x00, 0x00, 0x00, 0x00, 0x00, 0x08,
  0x20, 0x00, 0x00, 0x00, 0x24, 0x00, 0x00, 0x00, 0x01, 0x00, 0x00, 0x00,
  0x00, 0x00, 0x0a, 0x00, 0x08, 0x00, 0x07, 0x00, 0x00, 0x00, 0x06, 0x00,
  0x0a, 0x00, 0x00, 0x00, 0x00, 0x00, 0x01, 0x01, 0x01, 0x00, 0x00, 0x00,
  0x5d, 0x00, 0x00, 0x00, 0x03, 0x00, 0x00, 0x00, 0x5c, 0x00, 0x00, 0x00,
  0x0a, 0x00, 0x00, 0x00, 0x02, 0x00, 0x00, 0x00, 0xea, 0xf6, 0xff, 0xff,
  0x1c, 0x00, 0x00, 0x00, 0x00, 0x00, 0x00, 0x08, 0x1c, 0x00, 0x00, 0x00,
  0x20, 0x00, 0x00, 0x00, 0x01, 0x00, 0x00, 0x00, 0x00, 0x00, 0x06, 0x00,
  0x08, 0x00, 0x07, 0x00, 0x06, 0x00, 0x00, 0x00, 0x00, 0x00, 0x00, 0x01,
  0x01, 0x00, 0x00, 0x00, 0x5c, 0x00, 0x00, 0x00, 0x03, 0x00, 0x00, 0x00,
  0x58, 0x00, 0x00, 0x00, 0x0b, 0x00, 0x00, 0x00, 0x03, 0x00, 0x00, 0x00,
  0xf2, 0xf7, 0xff, 0xff, 0x0c, 0x00, 0x00, 0x00, 0x10, 0x00, 0x00, 0x00,
  0x07, 0x00, 0x00, 0x00, 0x01, 0x00, 0x00, 0x00, 0x5b, 0x00, 0x00, 0x00,
  0x02, 0x00, 0x00, 0x00, 0x5a, 0x00, 0x00, 0x00, 0x1a, 0x00, 0x00, 0x00,
  0x8e, 0xf6, 0xff, 0xff, 0x14, 0x00, 0x00, 0x00, 0x00, 0x00, 0x00, 0x0a,
  0x10, 0x00, 0x00, 0x00, 0x14, 0x00, 0x00, 0x00, 0x08, 0x00, 0x00, 0x00,
  0x14, 0xd0, 0xff, 0xff, 0x01, 0x00, 0x00, 0x00, 0x5a, 0x00, 0x00, 0x00,
  0x03, 0x00, 0x00, 0x00, 0x33, 0x00, 0x00, 0x00, 0x46, 0x00, 0x00, 0x00,
  0x59, 0x00, 0x00, 0x00, 0x4a, 0xf8, 0xff, 0xff, 0x0c, 0x00, 0x00, 0x00,
  0x10, 0x00, 0x00, 0x00, 0x07, 0x00, 0x00, 0x00, 0x01, 0x00, 0x00, 0x00,
  0x59, 0x00, 0x00, 0x00, 0x02, 0x00, 0x00, 0x00, 0x58, 0x00, 0x00, 0x00,
  0x19, 0x00, 0x00, 0x00, 0xe6, 0xf6, 0xff, 0xff, 0x14, 0x00, 0x00, 0x00,
  0x00, 0x00, 0x00, 0x0b, 0x10, 0x00, 0x00, 0x00, 0x14, 0x00, 0x00, 0x00,
  0x02, 0x00, 0x00, 0x00, 0x6c, 0xd0, 0xff, 0xff, 0x01, 0x00, 0x00, 0x00,
  0x58, 0x00, 0x00, 0x00, 0x02, 0x00, 0x00, 0x00, 0x57, 0x00, 0x00, 0x00,
  0x55, 0x00, 0x00, 0x00, 0x16, 0xf7, 0xff, 0xff, 0x14, 0x00, 0x00, 0x00,
  0x00, 0x00, 0x00, 0x15, 0x10, 0x00, 0x00, 0x00, 0x14, 0x00, 0x00, 0x00,
  0x04, 0x00, 0x00, 0x00, 0x9c, 0xd0, 0xff, 0xff, 0x01, 0x00, 0x00, 0x00,
  0x57, 0x00, 0x00, 0x00, 0x02, 0x00, 0x00, 0x00, 0x56, 0x00, 0x00, 0x00,
  0x52, 0x00, 0x00, 0x00, 0x46, 0xf7, 0xff, 0xff, 0x14, 0x00, 0x00, 0x00,
  0x00, 0x00, 0x00, 0x1c, 0x10, 0x00, 0x00, 0x00, 0x14, 0x00, 0x00, 0x00,
  0x06, 0x00, 0x00, 0x00, 0xcc, 0xd0, 0xff, 0xff, 0x01, 0x00, 0x00, 0x00,
  0x56, 0x00, 0x00, 0x00, 0x02, 0x00, 0x00, 0x00, 0x20, 0x00, 0x00, 0x00,
  0x55, 0x00, 0x00, 0x00, 0xfe, 0xf8, 0xff, 0xff, 0x0c, 0x00, 0x00, 0x00,
  0x10, 0x00, 0x00, 0x00, 0x05, 0x00, 0x00, 0x00, 0x01, 0x00, 0x00, 0x00,
  0x55, 0x00, 0x00, 0x00, 0x01, 0x00, 0x00, 0x00, 0x54, 0x00, 0x00, 0x00,
  0x96, 0xf7, 0xff, 0xff, 0x14, 0x00, 0x00, 0x00, 0x00, 0x00, 0x00, 0x0b,
  0x10, 0x00, 0x00, 0x00, 0x14, 0x00, 0x00, 0x00, 0x02, 0x00, 0x00, 0x00,
  0x1c, 0xd1, 0xff, 0xff, 0x01, 0x00, 0x00, 0x00, 0x54, 0x00, 0x00, 0x00,
  0x02, 0x00, 0x00, 0x00, 0x4a, 0x00, 0x00, 0x00, 0x53, 0x00, 0x00, 0x00,
  0xc6, 0xf7, 0xff, 0xff, 0x14, 0x00, 0x00, 0x00, 0x00, 0x00, 0x00, 0x15,
  0x10, 0x00, 0x00, 0x00, 0x14, 0x00, 0x00, 0x00, 0x04, 0x00, 0x00, 0x00,
  0x4c, 0xd1, 0xff, 0xff, 0x01, 0x00, 0x00, 0x00, 0x53, 0x00, 0x00, 0x00,
  0x02, 0x00, 0x00, 0x00, 0x4e, 0x00, 0x00, 0x00, 0x50, 0x00, 0x00, 0x00,
  0x7e, 0xf9, 0xff, 0xff, 0x0c, 0x00, 0x00, 0x00, 0x10, 0x00, 0x00, 0x00,
  0x03, 0x00, 0x00, 0x00, 0x01, 0x00, 0x00, 0x00, 0x52, 0x00, 0x00, 0x00,
  0x01, 0x00, 0x00, 0x00, 0x51, 0x00, 0x00, 0x00, 0x16, 0xf8, 0xff, 0xff,
  0x14, 0x00, 0x00, 0x00, 0x00, 0x00, 0x00, 0x0b, 0x10, 0x00, 0x00, 0x00,
  0x14, 0x00, 0x00, 0x00, 0x02, 0x00, 0x00, 0x00, 0x9c, 0xd1, 0xff, 0xff,
  0x01, 0x00, 0x00, 0x00, 0x51, 0x00, 0x00, 0x00, 0x02, 0x00, 0x00, 0x00,
  0x4d, 0x00, 0x00, 0x00, 0x49, 0x00, 0x00, 0x00, 0xce, 0xf9, 0xff, 0xff,
  0x0c, 0x00, 0x00, 0x00, 0x10, 0x00, 0x00, 0x00, 0x03, 0x00, 0x00, 0x00,
  0x01, 0x00, 0x00, 0x00, 0x50, 0x00, 0x00, 0x00, 0x01, 0x00, 0x00, 0x00,
  0x4f, 0x00, 0x00, 0x00, 0x66, 0xf8, 0xff, 0xff, 0x14, 0x00, 0x00, 0x00,
  0x00, 0x00, 0x00, 0x0b, 0x10, 0x00, 0x00, 0x00, 0x14, 0x00, 0x00, 0x00,
  0x02, 0x00, 0x00, 0x00, 0xec, 0xd1, 0xff, 0xff, 0x01, 0x00, 0x00, 0x00,
  0x4f, 0x00, 0x00, 0x00, 0x02, 0x00, 0x00, 0x00, 0x4c, 0x00, 0x00, 0x00,
  0x48, 0x00, 0x00, 0x00, 0x0a, 0xf8, 0xff, 0xff, 0x08, 0x00, 0x00, 0x00,
  0x0c, 0x00, 0x00, 0x00, 0x01, 0x00, 0x00, 0x00, 0x4e, 0x00, 0x00, 0x00,
  0x03, 0x00, 0x00, 0x00, 0x4b, 0x00, 0x00, 0x00, 0x12, 0x00, 0x00, 0x00,
  0x1d, 0x00, 0x00, 0x00, 0x2e, 0xf8, 0xff, 0xff, 0x08, 0x00, 0x00, 0x00,
  0x0c, 0x00, 0x00, 0x00, 0x01, 0x00, 0x00, 0x00, 0x4d, 0x00, 0x00, 0x00,
  0x03, 0x00, 0x00, 0x00, 0x4b, 0x00, 0x00, 0x00, 0x13, 0x00, 0x00, 0x00,
  0x1d, 0x00, 0x00, 0x00, 0x52, 0xf8, 0xff, 0xff, 0x08, 0x00, 0x00, 0x00,
  0x0c, 0x00, 0x00, 0x00, 0x01, 0x00, 0x00, 0x00, 0x4c, 0x00, 0x00, 0x00,
  0x03, 0x00, 0x00, 0x00, 0x4b, 0x00, 0x00, 0x00, 0x1c, 0x00, 0x00, 0x00,
  0x1d, 0x00, 0x00, 0x00, 0x02, 0xf9, 0xff, 0xff, 0x14, 0x00, 0x00, 0x00,
  0x00, 0x00, 0x00, 0x08, 0x14, 0x00, 0x00, 0x00, 0x18, 0x00, 0x00, 0x00,
  0x01, 0x00, 0x00, 0x00, 0xb2, 0xf9, 0xff, 0xff, 0x00, 0x00, 0x00, 0x01,
  0x01, 0x00, 0x00, 0x00, 0x4b, 0x00, 0x00, 0x00, 0x03, 0x00, 0x00, 0x00,
  0x20, 0x00, 0x00, 0x00, 0x0c, 0x00, 0x00, 0x00, 0x04, 0x00, 0x00, 0x00,
  0xae, 0xf8, 0xff, 0xff, 0x08, 0x00, 0x00, 0x00, 0x0c, 0x00, 0x00, 0x00,
  0x01, 0x00, 0x00, 0x00, 0x4a, 0x00, 0x00, 0x00, 0x03, 0x00, 0x00, 0x00,
  0x47, 0x00, 0x00, 0x00, 0x14, 0x00, 0x00, 0x00, 0x19, 0x00, 0x00, 0x00,
  0xd2, 0xf8, 0xff, 0xff, 0x08, 0x00, 0x00, 0x00, 0x0c, 0x00, 0x00, 0x00,
  0x01, 0x00, 0x00, 0x00, 0x49, 0x00, 0x00, 0x00, 0x03, 0x00, 0x00, 0x00,
  0x47, 0x00, 0x00, 0x00, 0x15, 0x00, 0x00, 0x00, 0x19, 0x00, 0x00, 0x00,
  0xf6, 0xf8, 0xff, 0xff, 0x08, 0x00, 0x00, 0x00, 0x0c, 0x00, 0x00, 0x00,
  0x01, 0x00, 0x00, 0x00, 0x48, 0x00, 0x00, 0x00, 0x03, 0x00, 0x00, 0x00,
  0x47, 0x00, 0x00, 0x00, 0x16, 0x00, 0x00, 0x00, 0x19, 0x00, 0x00, 0x00,
  0xa6, 0xf9, 0xff, 0xff, 0x14, 0x00, 0x00, 0x00, 0x00, 0x00, 0x00, 0x08,
  0x10, 0x00, 0x00, 0x00, 0x14, 0x00, 0x00, 0x00, 0x01, 0x00, 0x00, 0x00,
  0x2c, 0xd3, 0xff, 0xff, 0x01, 0x00, 0x00, 0x00, 0x47, 0x00, 0x00, 0x00,
  0x03, 0x00, 0x00, 0x00, 0x45, 0x00, 0x00, 0x00, 0x0d, 0x00, 0x00, 0x00,
  0x05, 0x00, 0x00, 0x00, 0x62, 0xfb, 0xff, 0xff, 0x0c, 0x00, 0x00, 0x00,
  0x10, 0x00, 0x00, 0x00, 0x07, 0x00, 0x00, 0x00, 0x01, 0x00, 0x00, 0x00,
  0x46, 0x00, 0x00, 0x00, 0x02, 0x00, 0x00, 0x00, 0x45, 0x00, 0x00, 0x00,
  0x19, 0x00, 0x00, 0x00, 0xfe, 0xf9, 0xff, 0xff, 0x14, 0x00, 0x00, 0x00,
  0x00, 0x00, 0x00, 0x0b, 0x10, 0x00, 0x00, 0x00, 0x14, 0x00, 0x00, 0x00,
  0x02, 0x00, 0x00, 0x00, 0x84, 0xd3, 0xff, 0xff, 0x01, 0x00, 0x00, 0x00,
  0x45, 0x00, 0x00, 0x00, 0x02, 0x00, 0x00, 0x00, 0x44, 0x00, 0x00, 0x00,
  0x42, 0x00, 0x00, 0x00, 0x2e, 0xfa, 0xff, 0xff, 0x14, 0x00, 0x00, 0x00,
  0x00, 0x00, 0x00, 0x15, 0x10, 0x00, 0x00, 0x00, 0x14, 0x00, 0x00, 0x00,
  0x04, 0x00, 0x00, 0x00, 0xb4, 0xd3, 0xff, 0xff, 0x01, 0x00, 0x00, 0x00,
  0x44, 0x00, 0x00, 0x00, 0x02, 0x00, 0x00, 0x00, 0x43, 0x00, 0x00, 0x00,
  0x3f, 0x00, 0x00, 0x00, 0x5e, 0xfa, 0xff, 0xff, 0x14, 0x00, 0x00, 0x00,
  0x00, 0x00, 0x00, 0x1c, 0x10, 0x00, 0x00, 0x00, 0x14, 0x00, 0x00, 0x00,
  0x06, 0x00, 0x00, 0x00, 0xe4, 0xd3, 0xff, 0xff, 0x01, 0x00, 0x00, 0x00,
  0x43, 0x00, 0x00, 0x00, 0x02, 0x00, 0x00, 0x00, 0x1f, 0x00, 0x00, 0x00,
  0x42, 0x00, 0x00, 0x00, 0x16, 0xfc, 0xff, 0xff, 0x0c, 0x00, 0x00, 0x00,
  0x10, 0x00, 0x00, 0x00, 0x05, 0x00, 0x00, 0x00, 0x01, 0x00, 0x00, 0x00,
  0x42, 0x00, 0x00, 0x00, 0x01, 0x00, 0x00, 0x00, 0x41, 0x00, 0x00, 0x00,
  0xae, 0xfa, 0xff, 0xff, 0x14, 0x00, 0x00, 0x00, 0x00, 0x00, 0x00, 0x0b,
  0x10, 0x00, 0x00, 0x00, 0x14, 0x00, 0x00, 0x00, 0x02, 0x00, 0x00, 0x00,
  0x34, 0xd4, 0xff, 0xff, 0x01, 0x00, 0x00, 0x00, 0x41, 0x00, 0x00, 0x00,
  0x02, 0x00, 0x00, 0x00, 0x37, 0x00, 0x00, 0x00, 0x40, 0x00, 0x00, 0x00,
  0xde, 0xfa, 0xff, 0xff, 0x14, 0x00, 0x00, 0x00, 0x00, 0x00, 0x00, 0x15,
  0x10, 0x00, 0x00, 0x00, 0x14, 0x00, 0x00, 0x00, 0x04, 0x00, 0x00, 0x00,
  0x64, 0xd4, 0xff, 0xff, 0x01, 0x00, 0x00, 0x00, 0x40, 0x00, 0x00, 0x00,
  0x02, 0x00, 0x00, 0x00, 0x3b, 0x00, 0x00, 0x00, 0x3d, 0x00, 0x00, 0x00,
  0x96, 0xfc, 0xff, 0xff, 0x0c, 0x00, 0x00, 0x00, 0x10, 0x00, 0x00, 0x00,
  0x03, 0x00, 0x00, 0x00, 0x01, 0x00, 0x00, 0x00, 0x3f, 0x00, 0x00, 0x00,
  0x01, 0x00, 0x00, 0x00, 0x3e, 0x00, 0x00, 0x00, 0x2e, 0xfb, 0xff, 0xff,
  0x14, 0x00, 0x00, 0x00, 0x00, 0x00, 0x00, 0x0b, 0x10, 0x00, 0x00, 0x00,
  0x14, 0x00, 0x00, 0x00, 0x02, 0x00, 0x00, 0x00, 0xb4, 0xd4, 0xff, 0xff,
  0x01, 0x00, 0x00, 0x00, 0x3e, 0x00, 0x00, 0x00, 0x02, 0x00, 0x00, 0x00,
  0x3a, 0x00, 0x00, 0x00, 0x36, 0x00, 0x00, 0x00, 0xe6, 0xfc, 0xff, 0xff,
  0x0c, 0x00, 0x00, 0x00, 0x10, 0x00, 0x00, 0x00, 0x03, 0x00, 0x00, 0x00,
  0x01, 0x00, 0x00, 0x00, 0x3d, 0x00, 0x00, 0x00, 0x01, 0x00, 0x00, 0x00,
  0x3c, 0x00, 0x00, 0x00, 0x7e, 0xfb, 0xff, 0xff, 0x14, 0x00, 0x00, 0x00,
  0x00, 0x00, 0x00, 0x0b, 0x10, 0x00, 0x00, 0x00, 0x14, 0x00, 0x00, 0x00,
  0x02, 0x00, 0x00, 0x00, 0x04, 0xd5, 0xff, 0xff, 0x01, 0x00, 0x00, 0x00,
  0x3c, 0x00, 0x00, 0x00, 0x02, 0x00, 0x00, 0x00, 0x39, 0x00, 0x00, 0x00,
  0x35, 0x00, 0x00, 0x00, 0x22, 0xfb, 0xff, 0xff, 0x08, 0x00, 0x00, 0x00,
  0x0c, 0x00, 0x00, 0x00, 0x01, 0x00, 0x00, 0x00, 0x3b, 0x00, 0x00, 0x00,
  0x03, 0x00, 0x00, 0x00, 0x38, 0x00, 0x00, 0x00, 0x12, 0x00, 0x00, 0x00,
  0x1d, 0x00, 0x00, 0x00, 0x46, 0xfb, 0xff, 0xff, 0x08, 0x00, 0x00, 0x00,
  0x0c, 0x00, 0x00, 0x00, 0x01, 0x00, 0x00, 0x00, 0x3a, 0x00, 0x00, 0x00,
  0x03, 0x00, 0x00, 0x00, 0x38, 0x00, 0x00, 0x00, 0x13, 0x00, 0x00, 0x00,
  0x1d, 0x00, 0x00, 0x00, 0x6a, 0xfb, 0xff, 0xff, 0x08, 0x00, 0x00, 0x00,
  0x0c, 0x00, 0x00, 0x00, 0x01, 0x00, 0x00, 0x00, 0x39, 0x00, 0x00, 0x00,
  0x03, 0x00, 0x00, 0x00, 0x38, 0x00, 0x00, 0x00, 0x1c, 0x00, 0x00, 0x00,
  0x1d, 0x00, 0x00, 0x00, 0x1a, 0xfc, 0xff, 0xff, 0x14, 0x00, 0x00, 0x00,
  0x00, 0x00, 0x00, 0x08, 0x14, 0x00, 0x00, 0x00, 0x18, 0x00, 0x00, 0x00,
  0x01, 0x00, 0x00, 0x00, 0xca, 0xfc, 0xff, 0xff, 0x00, 0x00, 0x00, 0x01,
  0x01, 0x00, 0x00, 0x00, 0x38, 0x00, 0x00, 0x00, 0x03, 0x00, 0x00, 0x00,
  0x1f, 0x00, 0x00, 0x00, 0x0e, 0x00, 0x00, 0x00, 0x06, 0x00, 0x00, 0x00,
  0xc6, 0xfb, 0xff, 0xff, 0x08, 0x00, 0x00, 0x00, 0x0c, 0x00, 0x00, 0x00,
  0x01, 0x00, 0x00, 0x00, 0x37, 0x00, 0x00, 0x00, 0x03, 0x00, 0x00, 0x00,
  0x34, 0x00, 0x00, 0x00, 0x14, 0x00, 0x00, 0x00, 0x19, 0x00, 0x00, 0x00,
  0xea, 0xfb, 0xff, 0xff, 0x08, 0x00, 0x00, 0x00, 0x0c, 0x00, 0x00, 0x00,
  0x01, 0x00, 0x00, 0x00, 0x36, 0x00, 0x00, 0x00, 0x03, 0x00, 0x00, 0x00,
  0x34, 0x00, 0x00, 0x00, 0x15, 0x00, 0x00, 0x00, 0x19, 0x00, 0x00, 0x00,
  0x0e, 0xfc, 0xff, 0xff, 0x08, 0x00, 0x00, 0x00, 0x0c, 0x00, 0x00, 0x00,
  0x01, 0x00, 0x00, 0x00, 0x35, 0x00, 0x00, 0x00, 0x03, 0x00, 0x00, 0x00,
  0x34, 0x00, 0x00, 0x00, 0x16, 0x00, 0x00, 0x00, 0x19, 0x00, 0x00, 0x00,
  0xbe, 0xfc, 0xff, 0xff, 0x14, 0x00, 0x00, 0x00, 0x00, 0x00, 0x00, 0x08,
  0x10, 0x00, 0x00, 0x00, 0x14, 0x00, 0x00, 0x00, 0x01, 0x00, 0x00, 0x00,
  0x44, 0xd6, 0xff, 0xff, 0x01, 0x00, 0x00, 0x00, 0x34, 0x00, 0x00, 0x00,
  0x03, 0x00, 0x00, 0x00, 0x32, 0x00, 0x00, 0x00, 0x0f, 0x00, 0x00, 0x00,
  0x07, 0x00, 0x00, 0x00, 0x7a, 0xfe, 0xff, 0xff, 0x0c, 0x00, 0x00, 0x00,
  0x10, 0x00, 0x00, 0x00, 0x07, 0x00, 0x00, 0x00, 0x01, 0x00, 0x00, 0x00,
  0x33, 0x00, 0x00, 0x00, 0x02, 0x00, 0x00, 0x00, 0x32, 0x00, 0x00, 0x00,
  0x19, 0x00, 0x00, 0x00, 0x16, 0xfd, 0xff, 0xff, 0x14, 0x00, 0x00, 0x00,
  0x00, 0x00, 0x00, 0x0b, 0x10, 0x00, 0x00, 0x00, 0x14, 0x00, 0x00, 0x00,
  0x02, 0x00, 0x00, 0x00, 0x9c, 0xd6, 0xff, 0xff, 0x01, 0x00, 0x00, 0x00,
  0x32, 0x00, 0x00, 0x00, 0x02, 0x00, 0x00, 0x00, 0x31, 0x00, 0x00, 0x00,
  0x2f, 0x00, 0x00, 0x00, 0x46, 0xfd, 0xff, 0xff, 0x14, 0x00, 0x00, 0x00,
  0x00, 0x00, 0x00, 0x15, 0x10, 0x00, 0x00, 0x00, 0x14, 0x00, 0x00, 0x00,
  0x04, 0x00, 0x00, 0x00, 0xcc, 0xd6, 0xff, 0xff, 0x01, 0x00, 0x00, 0x00,
  0x31, 0x00, 0x00, 0x00, 0x02, 0x00, 0x00, 0x00, 0x30, 0x00, 0x00, 0x00,
  0x2c, 0x00, 0x00, 0x00, 0x76, 0xfd, 0xff, 0xff, 0x14, 0x00, 0x00, 0x00,
  0x00, 0x00, 0x00, 0x1c, 0x10, 0x00, 0x00, 0x00, 0x14, 0x00, 0x00, 0x00,
  0x06, 0x00, 0x00, 0x00, 0xfc, 0xd6, 0xff, 0xff, 0x01, 0x00, 0x00, 0x00,
  0x30, 0x00, 0x00, 0x00, 0x02, 0x00, 0x00, 0x00, 0x1e, 0x00, 0x00, 0x00,
  0x2f, 0x00, 0x00, 0x00, 0x2e, 0xff, 0xff, 0xff, 0x0c, 0x00, 0x00, 0x00,
  0x10, 0x00, 0x00, 0x00, 0x05, 0x00, 0x00, 0x00, 0x01, 0x00, 0x00, 0x00,
  0x2f, 0x00, 0x00, 0x00, 0x01, 0x00, 0x00, 0x00, 0x2e, 0x00, 0x00, 0x00,
  0xc6, 0xfd, 0xff, 0xff, 0x14, 0x00, 0x00, 0x00, 0x00, 0x00, 0x00, 0x0b,
  0x10, 0x00, 0x00, 0x00, 0x14, 0x00, 0x00, 0x00, 0x02, 0x00, 0x00, 0x00,
  0x4c, 0xd7, 0xff, 0xff, 0x01, 0x00, 0x00, 0x00, 0x2e, 0x00, 0x00, 0x00,
  0x02, 0x00, 0x00, 0x00, 0x24, 0x00, 0x00, 0x00, 0x2d, 0x00, 0x00, 0x00,
  0xf6, 0xfd, 0xff, 0xff, 0x14, 0x00, 0x00, 0x00, 0x00, 0x00, 0x00, 0x15,
  0x10, 0x00, 0x00, 0x00, 0x14, 0x00, 0x00, 0x00, 0x04, 0x00, 0x00, 0x00,
  0x7c, 0xd7, 0xff, 0xff, 0x01, 0x00, 0x00, 0x00, 0x2d, 0x00, 0x00, 0x00,
  0x02, 0x00, 0x00, 0x00, 0x28, 0x00, 0x00, 0x00, 0x2a, 0x00, 0x00, 0x00,
  0xae, 0xff, 0xff, 0xff, 0x0c, 0x00, 0x00, 0x00, 0x10, 0x00, 0x00, 0x00,
  0x03, 0x00, 0x00, 0x00, 0x01, 0x00, 0x00, 0x00, 0x2c, 0x00, 0x00, 0x00,
  0x01, 0x00, 0x00, 0x00, 0x2b, 0x00, 0x00, 0x00, 0x46, 0xfe, 0xff, 0xff,
  0x14, 0x00, 0x00, 0x00, 0x00, 0x00, 0x00, 0x0b, 0x10, 0x00, 0x00, 0x00,
  0x14, 0x00, 0x00, 0x00, 0x02, 0x00, 0x00, 0x00, 0xcc, 0xd7, 0xff, 0xff,
  0x01, 0x00, 0x00, 0x00, 0x2b, 0x00, 0x00, 0x00, 0x02, 0x00, 0x00, 0x00,
  0x27, 0x00, 0x00, 0x00, 0x23, 0x00, 0x00, 0x00, 0x00, 0x00, 0x0a, 0x00,
  0x10, 0x00, 0x0c, 0x00, 0x08, 0x00, 0x04, 0x00, 0x0a, 0x00, 0x00, 0x00,
  0x0c, 0x00, 0x00, 0x00, 0x10, 0x00, 0x00, 0x00, 0x03, 0x00, 0x00, 0x00,
  0x01, 0x00, 0x00, 0x00, 0x2a, 0x00, 0x00, 0x00, 0x01, 0x00, 0x00, 0x00,
  0x29, 0x00, 0x00, 0x00, 0xa2, 0xfe, 0xff, 0xff, 0x14, 0x00, 0x00, 0x00,
  0x00, 0x00, 0x00, 0x0b, 0x10, 0x00, 0x00, 0x00, 0x14, 0x00, 0x00, 0x00,
  0x02, 0x00, 0x00, 0x00, 0x28, 0xd8, 0xff, 0xff, 0x01, 0x00, 0x00, 0x00,
  0x29, 0x00, 0x00, 0x00, 0x02, 0x00, 0x00, 0x00, 0x26, 0x00, 0x00, 0x00,
  0x22, 0x00, 0x00, 0x00, 0x46, 0xfe, 0xff, 0xff, 0x08, 0x00, 0x00, 0x00,
  0x0c, 0x00, 0x00, 0x00, 0x01, 0x00, 0x00, 0x00, 0x28, 0x00, 0x00, 0x00,
  0x03, 0x00, 0x00, 0x00, 0x25, 0x00, 0x00, 0x00, 0x12, 0x00, 0x00, 0x00,
  0x1d, 0x00, 0x00, 0x00, 0x6a, 0xfe, 0xff, 0xff, 0x08, 0x00, 0x00, 0x00,
  0x0c, 0x00, 0x00, 0x00, 0x01, 0x00, 0x00, 0x00, 0x27, 0x00, 0x00, 0x00,
  0x03, 0x00, 0x00, 0x00, 0x25, 0x00, 0x00, 0x00, 0x13, 0x00, 0x00, 0x00,
  0x1d, 0x00, 0x00, 0x00, 0x8e, 0xfe, 0xff, 0xff, 0x08, 0x00, 0x00, 0x00,
  0x0c, 0x00, 0x00, 0x00, 0x01, 0x00, 0x00, 0x00, 0x26, 0x00, 0x00, 0x00,
  0x03, 0x00, 0x00, 0x00, 0x25, 0x00, 0x00, 0x00, 0x1c, 0x00, 0x00, 0x00,
  0x1d, 0x00, 0x00, 0x00, 0x00, 0x00, 0x0e, 0x00, 0x1a, 0x00, 0x14, 0x00,
  0x10, 0x00, 0x0c, 0x00, 0x0b, 0x00, 0x04, 0x00, 0x0e, 0x00, 0x00, 0x00,
  0x20, 0x00, 0x00, 0x00, 0x00, 0x00, 0x00, 0x08, 0x20, 0x00, 0x00, 0x00,
  0x24, 0x00, 0x00, 0x00, 0x01, 0x00, 0x00, 0x00, 0x00, 0x00, 0x0a, 0x00,
  0x08, 0x00, 0x00, 0x00, 0x00, 0x00, 0x07, 0x00, 0x0a, 0x00, 0x00, 0x00,
  0x00, 0x00, 0x00, 0x01, 0x01, 0x00, 0x00, 0x00, 0x25, 0x00, 0x00, 0x00,
  0x03, 0x00, 0x00, 0x00, 0x1e, 0x00, 0x00, 0x00, 0x10, 0x00, 0x00, 0x00,
  0x08, 0x00, 0x00, 0x00, 0x06, 0xff, 0xff, 0xff, 0x08, 0x00, 0x00, 0x00,
  0x0c, 0x00, 0x00, 0x00, 0x01, 0x00, 0x00, 0x00, 0x24, 0x00, 0x00, 0x00,
  0x03, 0x00, 0x00, 0x00, 0x21, 0x00, 0x00, 0x00, 0x14, 0x00, 0x00, 0x00,
  0x19, 0x00, 0x00, 0x00, 0x2a, 0xff, 0xff, 0xff, 0x08, 0x00, 0x00, 0x00,
  0x0c, 0x00, 0x00, 0x00, 0x01, 0x00, 0x00, 0x00, 0x23, 0x00, 0x00, 0x00,
  0x03, 0x00, 0x00, 0x00, 0x21, 0x00, 0x00, 0x00, 0x15, 0x00, 0x00, 0x00,
  0x19, 0x00, 0x00, 0x00, 0x4e, 0xff, 0xff, 0xff, 0x08, 0x00, 0x00, 0x00,
  0x0c, 0x00, 0x00, 0x00, 0x01, 0x00, 0x00, 0x00, 0x22, 0x00, 0x00, 0x00,
  0x03, 0x00, 0x00, 0x00, 0x21, 0x00, 0x00, 0x00, 0x16, 0x00, 0x00, 0x00,
  0x19, 0x00, 0x00, 0x00, 0x00, 0x00, 0x0e, 0x00, 0x18, 0x00, 0x14, 0x00,
  0x10, 0x00, 0x0c, 0x00, 0x0b, 0x00, 0x04, 0x00, 0x0e, 0x00, 0x00, 0x00,
  0x14, 0x00, 0x00, 0x00, 0x00, 0x00, 0x00, 0x08, 0x10, 0x00, 0x00, 0x00,
  0x14, 0x00, 0x00, 0x00, 0x01, 0x00, 0x00, 0x00, 0x94, 0xd9, 0xff, 0xff,
  0x01, 0x00, 0x00, 0x00, 0x21, 0x00, 0x00, 0x00, 0x03, 0x00, 0x00, 0x00,
  0x00, 0x00, 0x00, 0x00, 0x11, 0x00, 0x00, 0x00, 0x09, 0x00, 0x00, 0x00,
  0xb6, 0xff, 0xff, 0xff, 0x08, 0x00, 0x00, 0x00, 0x0c, 0x00, 0x00, 0x00,
  0x01, 0x00, 0x00, 0x00, 0x20, 0x00, 0x00, 0x00, 0x03, 0x00, 0x00, 0x00,
  0x01, 0x00, 0x00, 0x00, 0x17, 0x00, 0x00, 0x00, 0x1d, 0x00, 0x00, 0x00,
  0xda, 0xff, 0xff, 0xff, 0x08, 0x00, 0x00, 0x00, 0x0c, 0x00, 0x00, 0x00,
  0x01, 0x00, 0x00, 0x00, 0x1f, 0x00, 0x00, 0x00, 0x03, 0x00, 0x00, 0x00,
  0x01, 0x00, 0x00, 0x00, 0x18, 0x00, 0x00, 0x00, 0x1d, 0x00, 0x00, 0x00,
  0x00, 0x00, 0x0a, 0x00, 0x0c, 0x00, 0x00, 0x00, 0x08, 0x00, 0x04, 0x00,
  0x0a, 0x00, 0x00, 0x00, 0x08, 0x00, 0x00, 0x00, 0x0c, 0x00, 0x00, 0x00,
  0x01, 0x00, 0x00, 0x00, 0x1e, 0x00, 0x00, 0x00, 0x03, 0x00, 0x00, 0x00,
  0x01, 0x00, 0x00, 0x00, 0x1c, 0x00, 0x00, 0x00, 0x1d, 0x00, 0x00, 0x00,
  0x02, 0x00, 0x00, 0x00, 0x5b, 0x00, 0x00, 0x00, 0x5e, 0x00, 0x00, 0x00,
  0x02, 0x00, 0x00, 0x00, 0x00, 0x00, 0x00, 0x00, 0x01, 0x00, 0x00, 0x00,
  0x5f, 0x00, 0x00, 0x00, 0x00, 0x25, 0x00, 0x00, 0x98, 0x24, 0x00, 0x00,
  0xfc, 0x23, 0x00, 0x00, 0x60, 0x23, 0x00, 0x00, 0x04, 0x23, 0x00, 0x00,
  0xa4, 0x22, 0x00, 0x00, 0x44, 0x22, 0x00, 0x00, 0xe4, 0x21, 0x00, 0x00,
  0x84, 0x21, 0x00, 0x00, 0x24, 0x21, 0x00, 0x00, 0xbc, 0x20, 0x00, 0x00,
  0x54, 0x20, 0x00, 0x00, 0xf0, 0x1f, 0x00, 0x00, 0x8c, 0x1f, 0x00, 0x00,
  0x28, 0x1f, 0x00, 0x00, 0xc4, 0x1e, 0x00, 0x00, 0x60, 0x1e, 0x00, 0x00,
  0xfc, 0x1d, 0x00, 0x00, 0xbc, 0x1d, 0x00, 0x00, 0x64, 0x1d, 0x00, 0x00,
  0x24, 0x1d, 0x00, 0x00, 0xe4, 0x1c, 0x00, 0x00, 0xa4, 0x1c, 0x00, 0x00,
  0x40, 0x1c, 0x00, 0x00, 0xdc, 0x1b, 0x00, 0x00, 0x9c, 0x1b, 0x00, 0x00,
  0x5c, 0x1b, 0x00, 0x00, 0x1c, 0x1b, 0x00, 0x00, 0xdc, 0x1a, 0x00, 0x00,
  0x9c, 0x1a, 0x00, 0x00, 0x34, 0x1a, 0x00, 0x00, 0xcc, 0x19, 0x00, 0x00,
  0x64, 0x19, 0x00, 0x00, 0x00, 0x19, 0x00, 0x00, 0x9c, 0x18, 0x00, 0x00,
  0x38, 0x18, 0x00, 0x00, 0xd4, 0x17, 0x00, 0x00, 0x6c, 0x17, 0x00, 0x00,
  0x04, 0x17, 0x00, 0x00, 0x9c, 0x16, 0x00, 0x00, 0x34, 0x16, 0x00, 0x00,
  0xcc, 0x15, 0x00, 0x00, 0x64, 0x15, 0x00, 0x00, 0xfc, 0x14, 0x00, 0x00,
  0x94, 0x14, 0x00, 0x00, 0x2c, 0x14, 0x00, 0x00, 0xc4, 0x13, 0x00, 0x00,
  0x5c, 0x13, 0x00, 0x00, 0xf4, 0x12, 0x00, 0x00, 0x8c, 0x12, 0x00, 0x00,
  0x24, 0x12, 0x00, 0x00, 0xc0, 0x11, 0x00, 0x00, 0x5c, 0x11, 0x00, 0x00,
  0xf8, 0x10, 0x00, 0x00, 0x94, 0x10, 0x00, 0x00, 0x30, 0x10, 0x00, 0x00,
  0xc8, 0x0f, 0x00, 0x00, 0x60, 0x0f, 0x00, 0x00, 0xf8, 0x0e, 0x00, 0x00,
  0x90, 0x0e, 0x00, 0x00, 0x28, 0x0e, 0x00, 0x00, 0xc0, 0x0d, 0x00, 0x00,
  0x58, 0x0d, 0x00, 0x00, 0xf0, 0x0c, 0x00, 0x00, 0x88, 0x0c, 0x00, 0x00,
  0x20, 0x0c, 0x00, 0x00, 0xb8, 0x0b, 0x00, 0x00, 0x50, 0x0b, 0x00, 0x00,
  0xe8, 0x0a, 0x00, 0x00, 0x80, 0x0a, 0x00, 0x00, 0x1c, 0x0a, 0x00, 0x00,
  0xb8, 0x09, 0x00, 0x00, 0x54, 0x09, 0x00, 0x00, 0xf0, 0x08, 0x00, 0x00,
  0x8c, 0x08, 0x00, 0x00, 0x24, 0x08, 0x00, 0x00, 0xbc, 0x07, 0x00, 0x00,
  0x54, 0x07, 0x00, 0x00, 0xec, 0x06, 0x00, 0x00, 0x84, 0x06, 0x00, 0x00,
  0x1c, 0x06, 0x00, 0x00, 0xb4, 0x05, 0x00, 0x00, 0x4c, 0x05, 0x00, 0x00,
  0xe4, 0x04, 0x00, 0x00, 0x7c, 0x04, 0x00, 0x00, 0x14, 0x04, 0x00, 0x00,
  0xac, 0x03, 0x00, 0x00, 0x44, 0x03, 0x00, 0x00, 0xdc, 0x02, 0x00, 0x00,
  0x78, 0x02, 0x00, 0x00, 0x14, 0x02, 0x00, 0x00, 0xc4, 0x01, 0x00, 0x00,
  0xf4, 0x00, 0x00, 0x00, 0x54, 0x00, 0x00, 0x00, 0x04, 0x00, 0x00, 0x00,
  0x92, 0xdc, 0xff, 0xff, 0x00, 0x00, 0x00, 0x01, 0x10, 0x00, 0x00, 0x00,
  0x10, 0x00, 0x00, 0x00, 0x5f, 0x00, 0x00, 0x00, 0x28, 0x00, 0x00, 0x00,
  0xd8, 0xdb, 0xff, 0xff, 0x19, 0x00, 0x00, 0x00, 0x53, 0x74, 0x61, 0x74,
  0x65, 0x66, 0x75, 0x6c, 0x50, 0x61, 0x72, 0x74, 0x69, 0x74, 0x69, 0x6f,
  0x6e, 0x65, 0x64, 0x43, 0x61, 0x6c, 0x6c, 0x3a, 0x30, 0x00, 0x00, 0x00,
  0x03, 0x00, 0x00, 0x00, 0x01, 0x00, 0x00, 0x00, 0x01, 0x00, 0x00, 0x00,
  0x01, 0x00, 0x00, 0x00, 0xde, 0xdc, 0xff, 0xff, 0x00, 0x00, 0x00, 0x01,
  0x10, 0x00, 0x00, 0x00, 0x10, 0x00, 0x00, 0x00, 0x5e, 0x00, 0x00, 0x00,
  0x7c, 0x00, 0x00, 0x00, 0x24, 0xdc, 0xff, 0xff, 0x6e, 0x00, 0x00, 0x00,
  0x5f, 0x5f, 0x6d, 0x61, 0x69, 0x6e, 0x5f, 0x5f, 0x2e, 0x47, 0x52, 0x55,
  0x5f, 0x4e, 0x4e, 0x5f, 0x32, 0x2f, 0x74, 0x6f, 0x72, 0x63, 0x68, 0x2e,
  0x6e, 0x6e, 0x2e, 0x6d, 0x6f, 0x64, 0x75, 0x6c, 0x65, 0x73, 0x2e, 0x6c,
  0x69, 0x6e, 0x65, 0x61, 0x72, 0x2e, 0x4c, 0x69, 0x6e, 0x65, 0x61, 0x72,
  0x5f, 0x66, 0x63, 0x32, 0x3b, 0x3b, 0x5f, 0x5f, 0x6d, 0x61, 0x69, 0x6e,
  0x5f, 0x5f, 0x2e, 0x47, 0x52, 0x55, 0x5f, 0x4e, 0x4e, 0x5f, 0x32, 0x2f,
  0x74, 0x6f, 0x72, 0x63, 0x68, 0x2e, 0x6e, 0x6e, 0x2e, 0x6d, 0x6f, 0x64,
  0x75, 0x6c, 0x65, 0x73, 0x2e, 0x61, 0x63, 0x74, 0x69, 0x76, 0x61, 0x74,
  0x69, 0x6f, 0x6e, 0x2e, 0x52, 0x65, 0x4c, 0x55, 0x5f, 0x72, 0x65, 0x6c,
  0x75, 0x3b, 0x00, 0x00, 0x02, 0x00, 0x00, 0x00, 0x01, 0x00, 0x00, 0x00,
  0x01, 0x00, 0x00, 0x00, 0x7a, 0xdd, 0xff, 0xff, 0x00, 0x00, 0x00, 0x01,
  0x10, 0x00, 0x00, 0x00, 0x10, 0x00, 0x00, 0x00, 0x5d, 0x00, 0x00, 0x00,
  0xac, 0x00, 0x00, 0x00, 0xc0, 0xdc, 0xff, 0xff, 0x9e, 0x00, 0x00, 0x00,
  0x5f, 0x5f, 0x6d, 0x61, 0x69, 0x6e, 0x5f, 0x5f, 0x2e, 0x47, 0x52, 0x55,
  0x5f, 0x4e, 0x4e, 0x5f, 0x32, 0x2f, 0x74, 0x6f, 0x72, 0x63, 0x68, 0x2e,
  0x6e, 0x6e, 0x2e, 0x6d, 0x6f, 0x64, 0x75, 0x6c, 0x65, 0x73, 0x2e, 0x6c,
  0x69, 0x6e, 0x65, 0x61, 0x72, 0x2e, 0x4c, 0x69, 0x6e, 0x65, 0x61, 0x72,
  0x5f, 0x66, 0x63, 0x31, 0x3b, 0x3b, 0x5f, 0x5f, 0x6d, 0x61, 0x69, 0x6e,
  0x5f, 0x5f, 0x2e, 0x47, 0x52, 0x55, 0x5f, 0x4e, 0x4e, 0x5f, 0x32, 0x2f,
  0x74, 0x6f, 0x72, 0x63, 0x68, 0x2e, 0x6e, 0x6e, 0x2e, 0x6d, 0x6f, 0x64,
  0x75, 0x6c, 0x65, 0x73, 0x2e, 0x72, 0x6e, 0x6e, 0x2e, 0x47, 0x52, 0x55,
  0x5f, 0x67, 0x72, 0x75, 0x3b, 0x3b, 0x5f, 0x5f, 0x6d, 0x61, 0x69, 0x6e,
  0x5f, 0x5f, 0x2e, 0x47, 0x52, 0x55, 0x5f, 0x4e, 0x4e, 0x5f, 0x32, 0x2f,
  0x74, 0x6f, 0x72, 0x63, 0x68, 0x2e, 0x6e, 0x6e, 0x2e, 0x6d, 0x6f, 0x64,
  0x75, 0x6c, 0x65, 0x73, 0x2e, 0x61, 0x63, 0x74, 0x69, 0x76, 0x61, 0x74,
  0x69, 0x6f, 0x6e, 0x2e, 0x52, 0x65, 0x4c, 0x55, 0x5f, 0x72, 0x65, 0x6c,
  0x75, 0x3b, 0x00, 0x00, 0x02, 0x00, 0x00, 0x00, 0x01, 0x00, 0x00, 0x00,
  0x08, 0x00, 0x00, 0x00, 0x46, 0xde, 0xff, 0xff, 0x00, 0x00, 0x00, 0x01,
  0x10, 0x00, 0x00, 0x00, 0x10, 0x00, 0x00, 0x00, 0x5c, 0x00, 0x00, 0x00,
  0x28, 0x00, 0x00, 0x00, 0x8c, 0xdd, 0xff, 0xff, 0x19, 0x00, 0x00, 0x00,
  0x53, 0x74, 0x61, 0x74, 0x65, 0x66, 0x75, 0x6c, 0x50, 0x61, 0x72, 0x74,
  0x69, 0x74, 0x69, 0x6f, 0x6e, 0x65, 0x64, 0x43, 0x61, 0x6c, 0x6c, 0x3a,
  0x31, 0x00, 0x00, 0x00, 0x03, 0x00, 0x00, 0x00, 0x03, 0x00, 0x00, 0x00,
  0x01, 0x00, 0x00, 0x00, 0x08, 0x00, 0x00, 0x00, 0x92, 0xde, 0xff, 0xff,
  0x00, 0x00, 0x00, 0x01, 0x10, 0x00, 0x00, 0x00, 0x10, 0x00, 0x00, 0x00,
  0x5b, 0x00, 0x00, 0x00, 0x40, 0x00, 0x00, 0x00, 0xd8, 0xdd, 0xff, 0xff,
  0x31, 0x00, 0x00, 0x00, 0x5f, 0x5f, 0x6d, 0x61, 0x69, 0x6e, 0x5f, 0x5f,
  0x2e, 0x47, 0x52, 0x55, 0x5f, 0x4e, 0x4e, 0x5f, 0x32, 0x2f, 0x74, 0x6f,
  0x72, 0x63, 0x68, 0x2e, 0x6e, 0x6e, 0x2e, 0x6d, 0x6f, 0x64, 0x75, 0x6c,
  0x65, 0x73, 0x2e, 0x72, 0x6e, 0x6e, 0x2e, 0x47, 0x52, 0x55, 0x5f, 0x67,
  0x72, 0x75, 0x3b, 0x37, 0x34, 0x00, 0x00, 0x00, 0x02, 0x00, 0x00, 0x00,
  0x03, 0x00, 0x00, 0x00, 0x08, 0x00, 0x00, 0x00, 0xf2, 0xde, 0xff, 0xff,
  0x00, 0x00, 0x00, 0x01, 0x10, 0x00, 0x00, 0x00, 0x10, 0x00, 0x00, 0x00,
  0x5a, 0x00, 0x00, 0x00, 0x40, 0x00, 0x00, 0x00, 0x38, 0xde, 0xff, 0xff,
  0x31, 0x00, 0x00, 0x00, 0x5f, 0x5f, 0x6d, 0x61, 0x69, 0x6e, 0x5f, 0x5f,
  0x2e, 0x47, 0x52, 0x55, 0x5f, 0x4e, 0x4e, 0x5f, 0x32, 0x2f, 0x74, 0x6f,
  0x72, 0x63, 0x68, 0x2e, 0x6e, 0x6e, 0x2e, 0x6d, 0x6f, 0x64, 0x75, 0x6c,
  0x65, 0x73, 0x2e, 0x72, 0x6e, 0x6e, 0x2e, 0x47, 0x52, 0x55, 0x5f, 0x67,
  0x72, 0x75, 0x3b, 0x37, 0x33, 0x00, 0x00, 0x00, 0x02, 0x00, 0x00, 0x00,
  0x01, 0x00, 0x00, 0x00, 0x08, 0x00, 0x00, 0x00, 0x52, 0xdf, 0xff, 0xff,
  0x00, 0x00, 0x00, 0x01, 0x10, 0x00, 0x00, 0x00, 0x10, 0x00, 0x00, 0x00,
  0x59, 0x00, 0x00, 0x00, 0x40, 0x00, 0x00, 0x00, 0x98, 0xde, 0xff, 0xff,
  0x31, 0x00, 0x00, 0x00, 0x5f, 0x5f, 0x6d, 0x61, 0x69, 0x6e, 0x5f, 0x5f,
  0x2e, 0x47, 0x52, 0x55, 0x5f, 0x4e, 0x4e, 0x5f, 0x32, 0x2f, 0x74, 0x6f,
  0x72, 0x63, 0x68, 0x2e, 0x6e, 0x6e, 0x2e, 0x6d, 0x6f, 0x64, 0x75, 0x6c,
  0x65, 0x73, 0x2e, 0x72, 0x6e, 0x6e, 0x2e, 0x47, 0x52, 0x55, 0x5f, 0x67,
  0x72, 0x75, 0x3b, 0x37, 0x32, 0x00, 0x00, 0x00, 0x03, 0x00, 0x00, 0x00,
  0x01, 0x00, 0x00, 0x00, 0x01, 0x00, 0x00, 0x00, 0x08, 0x00, 0x00, 0x00,
  0xb6, 0xdf, 0xff, 0xff, 0x00, 0x00, 0x00, 0x01, 0x10, 0x00, 0x00, 0x00,
  0x10, 0x00, 0x00, 0x00, 0x58, 0x00, 0x00, 0x00, 0x40, 0x00, 0x00, 0x00,
  0xfc, 0xde, 0xff, 0xff, 0x31, 0x00, 0x00, 0x00, 0x5f, 0x5f, 0x6d, 0x61,
  0x69, 0x6e, 0x5f, 0x5f, 0x2e, 0x47, 0x52, 0x55, 0x5f, 0x4e, 0x4e, 0x5f,
  0x32, 0x2f, 0x74, 0x6f, 0x72, 0x63, 0x68, 0x2e, 0x6e, 0x6e, 0x2e, 0x6d,
  0x6f, 0x64, 0x75, 0x6c, 0x65, 0x73, 0x2e, 0x72, 0x6e, 0x6e, 0x2e, 0x47,
  0x52, 0x55, 0x5f, 0x67, 0x72, 0x75, 0x3b, 0x37, 0x31, 0x00, 0x00, 0x00,
  0x03, 0x00, 0x00, 0x00, 0x01, 0x00, 0x00, 0x00, 0x01, 0x00, 0x00, 0x00,
  0x08, 0x00, 0x00, 0x00, 0x1a, 0xe0, 0xff, 0xff, 0x00, 0x00, 0x00, 0x01,
  0x10, 0x00, 0x00, 0x00, 0x10, 0x00, 0x00, 0x00, 0x57, 0x00, 0x00, 0x00,
  0x40, 0x00, 0x00, 0x00, 0x60, 0xdf, 0xff, 0xff, 0x31, 0x00, 0x00, 0x00,
  0x5f, 0x5f, 0x6d, 0x61, 0x69, 0x6e, 0x5f, 0x5f, 0x2e, 0x47, 0x52, 0x55,
  0x5f, 0x4e, 0x4e, 0x5f, 0x32, 0x2f, 0x74, 0x6f, 0x72, 0x63, 0x68, 0x2e,
  0x6e, 0x6e, 0x2e, 0x6d, 0x6f, 0x64, 0x75, 0x6c, 0x65, 0x73, 0x2e, 0x72,
  0x6e, 0x6e, 0x2e, 0x47, 0x52, 0x55, 0x5f, 0x67, 0x72, 0x75, 0x3b, 0x37,
  0x30, 0x00, 0x00, 0x00, 0x03, 0x00, 0x00, 0x00, 0x01, 0x00, 0x00, 0x00,
  0x01, 0x00, 0x00, 0x00, 0x08, 0x00, 0x00, 0x00, 0x7e, 0xe0, 0xff, 0xff,
  0x00, 0x00, 0x00, 0x01, 0x10, 0x00, 0x00, 0x00, 0x10, 0x00, 0x00, 0x00,
  0x56, 0x00, 0x00, 0x00, 0x40, 0x00, 0x00, 0x00, 0xc4, 0xdf, 0xff, 0xff,
  0x31, 0x00, 0x00, 0x00, 0x5f, 0x5f, 0x6d, 0x61, 0x69, 0x6e, 0x5f, 0x5f,
  0x2e, 0x47, 0x52, 0x55, 0x5f, 0x4e, 0x4e, 0x5f, 0x32, 0x2f, 0x74, 0x6f,
  0x72, 0x63, 0x68, 0x2e, 0x6e, 0x6e, 0x2e, 0x6d, 0x6f, 0x64, 0x75, 0x6c,
  0x65, 0x73, 0x2e, 0x72, 0x6e, 0x6e, 0x2e, 0x47, 0x52, 0x55, 0x5f, 0x67,
  0x72, 0x75, 0x3b, 0x36, 0x39, 0x00, 0x00, 0x00, 0x03, 0x00, 0x00, 0x00,
  0x01, 0x00, 0x00, 0x00, 0x01, 0x00, 0x00, 0x00, 0x08, 0x00, 0x00, 0x00,
  0xe2, 0xe0, 0xff, 0xff, 0x00, 0x00, 0x00, 0x01, 0x10, 0x00, 0x00, 0x00,
  0x10, 0x00, 0x00, 0x00, 0x55, 0x00, 0x00, 0x00, 0x40, 0x00, 0x00, 0x00,
  0x28, 0xe0, 0xff, 0xff, 0x31, 0x00, 0x00, 0x00, 0x5f, 0x5f, 0x6d, 0x61,
  0x69, 0x6e, 0x5f, 0x5f, 0x2e, 0x47, 0x52, 0x55, 0x5f, 0x4e, 0x4e, 0x5f,
  0x32, 0x2f, 0x74, 0x6f, 0x72, 0x63, 0x68, 0x2e, 0x6e, 0x6e, 0x2e, 0x6d,
  0x6f, 0x64, 0x75, 0x6c, 0x65, 0x73, 0x2e, 0x72, 0x6e, 0x6e, 0x2e, 0x47,
  0x52, 0x55, 0x5f, 0x67, 0x72, 0x75, 0x3b, 0x36, 0x38, 0x00, 0x00, 0x00,
  0x03, 0x00, 0x00, 0x00, 0x01, 0x00, 0x00, 0x00, 0x01, 0x00, 0x00, 0x00,
  0x08, 0x00, 0x00, 0x00, 0x46, 0xe1, 0xff, 0xff, 0x00, 0x00, 0x00, 0x01,
  0x10, 0x00, 0x00, 0x00, 0x10, 0x00, 0x00, 0x00, 0x54, 0x00, 0x00, 0x00,
  0x40, 0x00, 0x00, 0x00, 0x8c, 0xe0, 0xff, 0xff, 0x31, 0x00, 0x00, 0x00,
  0x5f, 0x5f, 0x6d, 0x61, 0x69, 0x6e, 0x5f, 0x5f, 0x2e, 0x47, 0x52, 0x55,
  0x5f, 0x4e, 0x4e, 0x5f, 0x32, 0x2f, 0x74, 0x6f, 0x72, 0x63, 0x68, 0x2e,
  0x6e, 0x6e, 0x2e, 0x6d, 0x6f, 0x64, 0x75, 0x6c, 0x65, 0x73, 0x2e, 0x72,
  0x6e, 0x6e, 0x2e, 0x47, 0x52, 0x55, 0x5f, 0x67, 0x72, 0x75, 0x3b, 0x36,
  0x37, 0x00, 0x00, 0x00, 0x03, 0x00, 0x00, 0x00, 0x01, 0x00, 0x00, 0x00,
  0x01, 0x00, 0x00, 0x00, 0x08, 0x00, 0x00, 0x00, 0xaa, 0xe1, 0xff, 0xff,
  0x00, 0x00, 0x00, 0x01, 0x10, 0x00, 0x00, 0x00, 0x10, 0x00, 0x00, 0x00,
  0x53, 0x00, 0x00, 0x00, 0x40, 0x00, 0x00, 0x00, 0xf0, 0xe0, 0xff, 0xff,
  0x31, 0x00, 0x00, 0x00, 0x5f, 0x5f, 0x6d, 0x61, 0x69, 0x6e, 0x5f, 0x5f,
  0x2e, 0x47, 0x52, 0x55, 0x5f, 0x4e, 0x4e, 0x5f, 0x32, 0x2f, 0x74, 0x6f,
  0x72, 0x63, 0x68, 0x2e, 0x6e, 0x6e, 0x2e, 0x6d, 0x6f, 0x64, 0x75, 0x6c,
  0x65, 0x73, 0x2e, 0x72, 0x6e, 0x6e, 0x2e, 0x47, 0x52, 0x55, 0x5f, 0x67,
  0x72, 0x75, 0x3b, 0x36, 0x36, 0x00, 0x00, 0x00, 0x03, 0x00, 0x00, 0x00,
  0x01, 0x00, 0x00, 0x00, 0x01, 0x00, 0x00, 0x00, 0x08, 0x00, 0x00, 0x00,
  0x0e, 0xe2, 0xff, 0xff, 0x00, 0x00, 0x00, 0x01, 0x10, 0x00, 0x00, 0x00,
  0x10, 0x00, 0x00, 0x00, 0x52, 0x00, 0x00, 0x00, 0x40, 0x00, 0x00, 0x00,
  0x54, 0xe1, 0xff, 0xff, 0x31, 0x00, 0x00, 0x00, 0x5f, 0x5f, 0x6d, 0x61,
  0x69, 0x6e, 0x5f, 0x5f, 0x2e, 0x47, 0x52, 0x55, 0x5f, 0x4e, 0x4e, 0x5f,
  0x32, 0x2f, 0x74, 0x6f, 0x72, 0x63, 0x68, 0x2e, 0x6e, 0x6e, 0x2e, 0x6d,
  0x6f, 0x64, 0x75, 0x6c, 0x65, 0x73, 0x2e, 0x72, 0x6e, 0x6e, 0x2e, 0x47,
  0x52, 0x55, 0x5f, 0x67, 0x72, 0x75, 0x3b, 0x36, 0x35, 0x00, 0x00, 0x00,
  0x03, 0x00, 0x00, 0x00, 0x01, 0x00, 0x00, 0x00, 0x01, 0x00, 0x00, 0x00,
  0x08, 0x00, 0x00, 0x00, 0x72, 0xe2, 0xff, 0xff, 0x00, 0x00, 0x00, 0x01,
  0x10, 0x00, 0x00, 0x00, 0x10, 0x00, 0x00, 0x00, 0x51, 0x00, 0x00, 0x00,
  0x40, 0x00, 0x00, 0x00, 0xb8, 0xe1, 0xff, 0xff, 0x31, 0x00, 0x00, 0x00,
  0x5f, 0x5f, 0x6d, 0x61, 0x69, 0x6e, 0x5f, 0x5f, 0x2e, 0x47, 0x52, 0x55,
  0x5f, 0x4e, 0x4e, 0x5f, 0x32, 0x2f, 0x74, 0x6f, 0x72, 0x63, 0x68, 0x2e,
  0x6e, 0x6e, 0x2e, 0x6d, 0x6f, 0x64, 0x75, 0x6c, 0x65, 0x73, 0x2e, 0x72,
  0x6e, 0x6e, 0x2e, 0x47, 0x52, 0x55, 0x5f, 0x67, 0x72, 0x75, 0x3b, 0x36,
  0x34, 0x00, 0x00, 0x00, 0x03, 0x00, 0x00, 0x00, 0x01, 0x00, 0x00, 0x00,
  0x01, 0x00, 0x00, 0x00, 0x08, 0x00, 0x00, 0x00, 0xd6, 0xe2, 0xff, 0xff,
  0x00, 0x00, 0x00, 0x01, 0x10, 0x00, 0x00, 0x00, 0x10, 0x00, 0x00, 0x00,
  0x50, 0x00, 0x00, 0x00, 0x40, 0x00, 0x00, 0x00, 0x1c, 0xe2, 0xff, 0xff,
  0x31, 0x00, 0x00, 0x00, 0x5f, 0x5f, 0x6d, 0x61, 0x69, 0x6e, 0x5f, 0x5f,
  0x2e, 0x47, 0x52, 0x55, 0x5f, 0x4e, 0x4e, 0x5f, 0x32, 0x2f, 0x74, 0x6f,
  0x72, 0x63, 0x68, 0x2e, 0x6e, 0x6e, 0x2e, 0x6d, 0x6f, 0x64, 0x75, 0x6c,
  0x65, 0x73, 0x2e, 0x72, 0x6e, 0x6e, 0x2e, 0x47, 0x52, 0x55, 0x5f, 0x67,
  0x72, 0x75, 0x3b, 0x36, 0x33, 0x00, 0x00, 0x00, 0x03, 0x00, 0x00, 0x00,
  0x01, 0x00, 0x00, 0x00, 0x01, 0x00, 0x00, 0x00, 0x08, 0x00, 0x00, 0x00,
  0x3a, 0xe3, 0xff, 0xff, 0x00, 0x00, 0x00, 0x01, 0x10, 0x00, 0x00, 0x00,
  0x10, 0x00, 0x00, 0x00, 0x4f, 0x00, 0x00, 0x00, 0x40, 0x00, 0x00, 0x00,
  0x80, 0xe2, 0xff, 0xff, 0x31, 0x00, 0x00, 0x00, 0x5f, 0x5f, 0x6d, 0x61,
  0x69, 0x6e, 0x5f, 0x5f, 0x2e, 0x47, 0x52, 0x55, 0x5f, 0x4e, 0x4e, 0x5f,
  0x32, 0x2f, 0x74, 0x6f, 0x72, 0x63, 0x68, 0x2e, 0x6e, 0x6e, 0x2e, 0x6d,
  0x6f, 0x64, 0x75, 0x6c, 0x65, 0x73, 0x2e, 0x72, 0x6e, 0x6e, 0x2e, 0x47,
  0x52, 0x55, 0x5f, 0x67, 0x72, 0x75, 0x3b, 0x36, 0x32, 0x00, 0x00, 0x00,
  0x03, 0x00, 0x00, 0x00, 0x01, 0x00, 0x00, 0x00, 0x01, 0x00, 0x00, 0x00,
  0x08, 0x00, 0x00, 0x00, 0x9e, 0xe3, 0xff, 0xff, 0x00, 0x00, 0x00, 0x01,
  0x10, 0x00, 0x00, 0x00, 0x10, 0x00, 0x00, 0x00, 0x4e, 0x00, 0x00, 0x00,
  0x40, 0x00, 0x00, 0x00, 0xe4, 0xe2, 0xff, 0xff, 0x31, 0x00, 0x00, 0x00,
  0x5f, 0x5f, 0x6d, 0x61, 0x69, 0x6e, 0x5f, 0x5f, 0x2e, 0x47, 0x52, 0x55,
  0x5f, 0x4e, 0x4e, 0x5f, 0x32, 0x2f, 0x74, 0x6f, 0x72, 0x63, 0x68, 0x2e,
  0x6e, 0x6e, 0x2e, 0x6d, 0x6f, 0x64, 0x75, 0x6c, 0x65, 0x73, 0x2e, 0x72,
  0x6e, 0x6e, 0x2e, 0x47, 0x52, 0x55, 0x5f, 0x67, 0x72, 0x75, 0x3b, 0x36,
  0x31, 0x00, 0x00, 0x00, 0x03, 0x00, 0x00, 0x00, 0x01, 0x00, 0x00, 0x00,
  0x01, 0x00, 0x00, 0x00, 0x08, 0x00, 0x00, 0x00, 0x02, 0xe4, 0xff, 0xff,
  0x00, 0x00, 0x00, 0x01, 0x10, 0x00, 0x00, 0x00, 0x10, 0x00, 0x00, 0x00,
  0x4d, 0x00, 0x00, 0x00, 0x40, 0x00, 0x00, 0x00, 0x48, 0xe3, 0xff, 0xff,
  0x31, 0x00, 0x00, 0x00, 0x5f, 0x5f, 0x6d, 0x61, 0x69, 0x6e, 0x5f, 0x5f,
  0x2e, 0x47, 0x52, 0x55, 0x5f, 0x4e, 0x4e, 0x5f, 0x32, 0x2f, 0x74, 0x6f,
  0x72, 0x63, 0x68, 0x2e, 0x6e, 0x6e, 0x2e, 0x6d, 0x6f, 0x64, 0x75, 0x6c,
  0x65, 0x73, 0x2e, 0x72, 0x6e, 0x6e, 0x2e, 0x47, 0x52, 0x55, 0x5f, 0x67,
  0x72, 0x75, 0x3b, 0x36, 0x30, 0x00, 0x00, 0x00, 0x03, 0x00, 0x00, 0x00,
  0x01, 0x00, 0x00, 0x00, 0x01, 0x00, 0x00, 0x00, 0x08, 0x00, 0x00, 0x00,
  0x66, 0xe4, 0xff, 0xff, 0x00, 0x00, 0x00, 0x01, 0x10, 0x00, 0x00, 0x00,
  0x10, 0x00, 0x00, 0x00, 0x4c, 0x00, 0x00, 0x00, 0x40, 0x00, 0x00, 0x00,
  0xac, 0xe3, 0xff, 0xff, 0x31, 0x00, 0x00, 0x00, 0x5f, 0x5f, 0x6d, 0x61,
  0x69, 0x6e, 0x5f, 0x5f, 0x2e, 0x47, 0x52, 0x55, 0x5f, 0x4e, 0x4e, 0x5f,
  0x32, 0x2f, 0x74, 0x6f, 0x72, 0x63, 0x68, 0x2e, 0x6e, 0x6e, 0x2e, 0x6d,
  0x6f, 0x64, 0x75, 0x6c, 0x65, 0x73, 0x2e, 0x72, 0x6e, 0x6e, 0x2e, 0x47,
  0x52, 0x55, 0x5f, 0x67, 0x72, 0x75, 0x3b, 0x35, 0x39, 0x00, 0x00, 0x00,
  0x03, 0x00, 0x00, 0x00, 0x01, 0x00, 0x00, 0x00, 0x01, 0x00, 0x00, 0x00,
  0x18, 0x00, 0x00, 0x00, 0xca, 0xe4, 0xff, 0xff, 0x00, 0x00, 0x00, 0x01,
  0x10, 0x00, 0x00, 0x00, 0x10, 0x00, 0x00, 0x00, 0x4b, 0x00, 0x00, 0x00,
  0x40, 0x00, 0x00, 0x00, 0x10, 0xe4, 0xff, 0xff, 0x31, 0x00, 0x00, 0x00,
  0x5f, 0x5f, 0x6d, 0x61, 0x69, 0x6e, 0x5f, 0x5f, 0x2e, 0x47, 0x52, 0x55,
  0x5f, 0x4e, 0x4e, 0x5f, 0x32, 0x2f, 0x74, 0x6f, 0x72, 0x63, 0x68, 0x2e,
  0x6e, 0x6e, 0x2e, 0x6d, 0x6f, 0x64, 0x75, 0x6c, 0x65, 0x73, 0x2e, 0x72,
  0x6e, 0x6e, 0x2e, 0x47, 0x52, 0x55, 0x5f, 0x67, 0x72, 0x75, 0x3b, 0x35,
  0x38, 0x00, 0x00, 0x00, 0x02, 0x00, 0x00, 0x00, 0x01, 0x00, 0x00, 0x00,
  0x08, 0x00, 0x00, 0x00, 0x2a, 0xe5, 0xff, 0xff, 0x00, 0x00, 0x00, 0x01,
  0x10, 0x00, 0x00, 0x00, 0x10, 0x00, 0x00, 0x00, 0x4a, 0x00, 0x00, 0x00,
  0x40, 0x00, 0x00, 0x00, 0x70, 0xe4, 0xff, 0xff, 0x31, 0x00, 0x00, 0x00,
  0x5f, 0x5f, 0x6d, 0x61, 0x69, 0x6e, 0x5f, 0x5f, 0x2e, 0x47, 0x52, 0x55,
  0x5f, 0x4e, 0x4e, 0x5f, 0x32, 0x2f, 0x74, 0x6f, 0x72, 0x63, 0x68, 0x2e,
  0x6e, 0x6e, 0x2e, 0x6d, 0x6f, 0x64, 0x75, 0x6c, 0x65, 0x73, 0x2e, 0x72,
  0x6e, 0x6e, 0x2e, 0x47, 0x52, 0x55, 0x5f, 0x67, 0x72, 0x75, 0x3b, 0x35,
  0x37, 0x00, 0x00, 0x00, 0x02, 0x00, 0x00, 0x00, 0x01, 0x00, 0x00, 0x00,
  0x08, 0x00, 0x00, 0x00, 0x8a, 0xe5, 0xff, 0xff, 0x00, 0x00, 0x00, 0x01,
  0x10, 0x00, 0x00, 0x00, 0x10, 0x00, 0x00, 0x00, 0x49, 0x00, 0x00, 0x00,
  0x40, 0x00, 0x00, 0x00, 0xd0, 0xe4, 0xff, 0xff, 0x31, 0x00, 0x00, 0x00,
  0x5f, 0x5f, 0x6d, 0x61, 0x69, 0x6e, 0x5f, 0x5f, 0x2e, 0x47, 0x52, 0x55,
  0x5f, 0x4e, 0x4e, 0x5f, 0x32, 0x2f, 0x74, 0x6f, 0x72, 0x63, 0x68, 0x2e,
  0x6e, 0x6e, 0x2e, 0x6d, 0x6f, 0x64, 0x75, 0x6c, 0x65, 0x73, 0x2e, 0x72,
  0x6e, 0x6e, 0x2e, 0x47, 0x52, 0x55, 0x5f, 0x67, 0x72, 0x75, 0x3b, 0x35,
  0x36, 0x00, 0x00, 0x00, 0x02, 0x00, 0x00, 0x00, 0x01, 0x00, 0x00, 0x00,
  0x08, 0x00, 0x00, 0x00, 0xea, 0xe5, 0xff, 0xff, 0x00, 0x00, 0x00, 0x01,
  0x10, 0x00, 0x00, 0x00, 0x10, 0x00, 0x00, 0x00, 0x48, 0x00, 0x00, 0x00,
  0x40, 0x00, 0x00, 0x00, 0x30, 0xe5, 0xff, 0xff, 0x31, 0x00, 0x00, 0x00,
  0x5f, 0x5f, 0x6d, 0x61, 0x69, 0x6e, 0x5f, 0x5f, 0x2e, 0x47, 0x52, 0x55,
  0x5f, 0x4e, 0x4e, 0x5f, 0x32, 0x2f, 0x74, 0x6f, 0x72, 0x63, 0x68, 0x2e,
  0x6e, 0x6e, 0x2e, 0x6d, 0x6f, 0x64, 0x75, 0x6c, 0x65, 0x73, 0x2e, 0x72,
  0x6e, 0x6e, 0x2e, 0x47, 0x52, 0x55, 0x5f, 0x67, 0x72, 0x75, 0x3b, 0x35,
  0x35, 0x00, 0x00, 0x00, 0x02, 0x00, 0x00, 0x00, 0x01, 0x00, 0x00, 0x00,
  0x18, 0x00, 0x00, 0x00, 0x4a, 0xe6, 0xff, 0xff, 0x00, 0x00, 0x00, 0x01,
  0x10, 0x00, 0x00, 0x00, 0x10, 0x00, 0x00, 0x00, 0x47, 0x00, 0x00, 0x00,
  0x40, 0x00, 0x00, 0x00, 0x90, 0xe5, 0xff, 0xff, 0x31, 0x00, 0x00, 0x00,
  0x5f, 0x5f, 0x6d, 0x61, 0x69, 0x6e, 0x5f, 0x5f, 0x2e, 0x47, 0x52, 0x55,
  0x5f, 0x4e, 0x4e, 0x5f, 0x32, 0x2f, 0x74, 0x6f, 0x72, 0x63, 0x68, 0x2e,
  0x6e, 0x6e, 0x2e, 0x6d, 0x6f, 0x64, 0x75, 0x6c, 0x65, 0x73, 0x2e, 0x72,
  0x6e, 0x6e, 0x2e, 0x47, 0x52, 0x55, 0x5f, 0x67, 0x72, 0x75, 0x3b, 0x35,
  0x34, 0x00, 0x00, 0x00, 0x02, 0x00, 0x00, 0x00, 0x01, 0x00, 0x00, 0x00,
  0x08, 0x00, 0x00, 0x00, 0xaa, 0xe6, 0xff, 0xff, 0x00, 0x00, 0x00, 0x01,
  0x10, 0x00, 0x00, 0x00, 0x10, 0x00, 0x00, 0x00, 0x46, 0x00, 0x00, 0x00,
  0x40, 0x00, 0x00, 0x00, 0xf0, 0xe5, 0xff, 0xff, 0x31, 0x00, 0x00, 0x00,
  0x5f, 0x5f, 0x6d, 0x61, 0x69, 0x6e, 0x5f, 0x5f, 0x2e, 0x47, 0x52, 0x55,
  0x5f, 0x4e, 0x4e, 0x5f, 0x32, 0x2f, 0x74, 0x6f, 0x72, 0x63, 0x68, 0x2e,
  0x6e, 0x6e, 0x2e, 0x6d, 0x6f, 0x64, 0x75, 0x6c, 0x65, 0x73, 0x2e, 0x72,
  0x6e, 0x6e, 0x2e, 0x47, 0x52, 0x55, 0x5f, 0x67, 0x72, 0x75, 0x3b, 0x35,
  0x33, 0x00, 0x00, 0x00, 0x03, 0x00, 0x00, 0x00, 0x01, 0x00, 0x00, 0x00,
  0x01, 0x00, 0x00, 0x00, 0x08, 0x00, 0x00, 0x00, 0x0e, 0xe7, 0xff, 0xff,
  0x00, 0x00, 0x00, 0x01, 0x10, 0x00, 0x00, 0x00, 0x10, 0x00, 0x00, 0x00,
  0x45, 0x00, 0x00, 0x00, 0x40, 0x00, 0x00, 0x00, 0x54, 0xe6, 0xff, 0xff,
  0x31, 0x00, 0x00, 0x00, 0x5f, 0x5f, 0x6d, 0x61, 0x69, 0x6e, 0x5f, 0x5f,
  0x2e, 0x47, 0x52, 0x55, 0x5f, 0x4e, 0x4e, 0x5f, 0x32, 0x2f, 0x74, 0x6f,
  0x72, 0x63, 0x68, 0x2e, 0x6e, 0x6e, 0x2e, 0x6d, 0x6f, 0x64, 0x75, 0x6c,
  0x65, 0x73, 0x2e, 0x72, 0x6e, 0x6e, 0x2e, 0x47, 0x52, 0x55, 0x5f, 0x67,
  0x72, 0x75, 0x3b, 0x35, 0x32, 0x00, 0x00, 0x00, 0x03, 0x00, 0x00, 0x00,
  0x01, 0x00, 0x00, 0x00, 0x01, 0x00, 0x00, 0x00, 0x08, 0x00, 0x00, 0x00,
  0x72, 0xe7, 0xff, 0xff, 0x00, 0x00, 0x00, 0x01, 0x10, 0x00, 0x00, 0x00,
  0x10, 0x00, 0x00, 0x00, 0x44, 0x00, 0x00, 0x00, 0x40, 0x00, 0x00, 0x00,
  0xb8, 0xe6, 0xff, 0xff, 0x31, 0x00, 0x00, 0x00, 0x5f, 0x5f, 0x6d, 0x61,
  0x69, 0x6e, 0x5f, 0x5f, 0x2e, 0x47, 0x52, 0x55, 0x5f, 0x4e, 0x4e, 0x5f,
  0x32, 0x2f, 0x74, 0x6f, 0x72, 0x63, 0x68, 0x2e, 0x6e, 0x6e, 0x2e, 0x6d,
  0x6f, 0x64, 0x75, 0x6c, 0x65, 0x73, 0x2e, 0x72, 0x6e, 0x6e, 0x2e, 0x47,
  0x52, 0x55, 0x5f, 0x67, 0x72, 0x75, 0x3b, 0x35, 0x31, 0x00, 0x00, 0x00,
  0x03, 0x00, 0x00, 0x00, 0x01, 0x00, 0x00, 0x00, 0x01, 0x00, 0x00, 0x00,
  0x08, 0x00, 0x00, 0x00, 0xd6, 0xe7, 0xff, 0xff, 0x00, 0x00, 0x00, 0x01,
  0x10, 0x00, 0x00, 0x00, 0x10, 0x00, 0x00, 0x00, 0x43, 0x00, 0x00, 0x00,
  0x40, 0x00, 0x00, 0x00, 0x1c, 0xe7, 0xff, 0xff, 0x31, 0x00, 0x00, 0x00,
  0x5f, 0x5f, 0x6d, 0x61, 0x69, 0x6e, 0x5f, 0x5f, 0x2e, 0x47, 0x52, 0x55,
  0x5f, 0x4e, 0x4e, 0x5f, 0x32, 0x2f, 0x74, 0x6f, 0x72, 0x63, 0x68, 0x2e,
  0x6e, 0x6e, 0x2e, 0x6d, 0x6f, 0x64, 0x75, 0x6c, 0x65, 0x73, 0x2e, 0x72,
  0x6e, 0x6e, 0x2e, 0x47, 0x52, 0x55, 0x5f, 0x67, 0x72, 0x75, 0x3b, 0x35,
  0x30, 0x00, 0x00, 0x00, 0x03, 0x00, 0x00, 0x00, 0x01, 0x00, 0x00, 0x00,
  0x01, 0x00, 0x00, 0x00, 0x08, 0x00, 0x00, 0x00, 0x3a, 0xe8, 0xff, 0xff,
  0x00, 0x00, 0x00, 0x01, 0x10, 0x00, 0x00, 0x00, 0x10, 0x00, 0x00, 0x00,
  0x42, 0x00, 0x00, 0x00, 0x40, 0x00, 0x00, 0x00, 0x80, 0xe7, 0xff, 0xff,
  0x31, 0x00, 0x00, 0x00, 0x5f, 0x5f, 0x6d, 0x61, 0x69, 0x6e, 0x5f, 0x5f,
  0x2e, 0x47, 0x52, 0x55, 0x5f, 0x4e, 0x4e, 0x5f, 0x32, 0x2f, 0x74, 0x6f,
  0x72, 0x63, 0x68, 0x2e, 0x6e, 0x6e, 0x2e, 0x6d, 0x6f, 0x64, 0x75, 0x6c,
  0x65, 0x73, 0x2e, 0x72, 0x6e, 0x6e, 0x2e, 0x47, 0x52, 0x55, 0x5f, 0x67,
  0x72, 0x75, 0x3b, 0x34, 0x39, 0x00, 0x00, 0x00, 0x03, 0x00, 0x00, 0x00,
  0x01, 0x00, 0x00, 0x00, 0x01, 0x00, 0x00, 0x00, 0x08, 0x00, 0x00, 0x00,
  0x9e, 0xe8, 0xff, 0xff, 0x00, 0x00, 0x00, 0x01, 0x10, 0x00, 0x00, 0x00,
  0x10, 0x00, 0x00, 0x00, 0x41, 0x00, 0x00, 0x00, 0x40, 0x00, 0x00, 0x00,
  0xe4, 0xe7, 0xff, 0xff, 0x31, 0x00, 0x00, 0x00, 0x5f, 0x5f, 0x6d, 0x61,
  0x69, 0x6e, 0x5f, 0x5f, 0x2e, 0x47, 0x52, 0x55, 0x5f, 0x4e, 0x4e, 0x5f,
  0x32, 0x2f, 0x74, 0x6f, 0x72, 0x63, 0x68, 0x2e, 0x6e, 0x6e, 0x2e, 0x6d,
  0x6f, 0x64, 0x75, 0x6c, 0x65, 0x73, 0x2e, 0x72, 0x6e, 0x6e, 0x2e, 0x47,
  0x52, 0x55, 0x5f, 0x67, 0x72, 0x75, 0x3b, 0x34, 0x38, 0x00, 0x00, 0x00,
  0x03, 0x00, 0x00, 0x00, 0x01, 0x00, 0x00, 0x00, 0x01, 0x00, 0x00, 0x00,
  0x08, 0x00, 0x00, 0x00, 0x02, 0xe9, 0xff, 0xff, 0x00, 0x00, 0x00, 0x01,
  0x10, 0x00, 0x00, 0x00, 0x10, 0x00, 0x00, 0x00, 0x40, 0x00, 0x00, 0x00,
  0x40, 0x00, 0x00, 0x00, 0x48, 0xe8, 0xff, 0xff, 0x31, 0x00, 0x00, 0x00,
  0x5f, 0x5f, 0x6d, 0x61, 0x69, 0x6e, 0x5f, 0x5f, 0x2e, 0x47, 0x52, 0x55,
  0x5f, 0x4e, 0x4e, 0x5f, 0x32, 0x2f, 0x74, 0x6f, 0x72, 0x63, 0x68, 0x2e,
  0x6e, 0x6e, 0x2e, 0x6d, 0x6f, 0x64, 0x75, 0x6c, 0x65, 0x73, 0x2e, 0x72,
  0x6e, 0x6e, 0x2e, 0x47, 0x52, 0x55, 0x5f, 0x67, 0x72, 0x75, 0x3b, 0x34,
  0x37, 0x00, 0x00, 0x00, 0x03, 0x00, 0x00, 0x00, 0x01, 0x00, 0x00, 0x00,
  0x01, 0x00, 0x00, 0x00, 0x08, 0x00, 0x00, 0x00, 0x66, 0xe9, 0xff, 0xff,
  0x00, 0x00, 0x00, 0x01, 0x10, 0x00, 0x00, 0x00, 0x10, 0x00, 0x00, 0x00,
  0x3f, 0x00, 0x00, 0x00, 0x40, 0x00, 0x00, 0x00, 0xac, 0xe8, 0xff, 0xff,
  0x31, 0x00, 0x00, 0x00, 0x5f, 0x5f, 0x6d, 0x61, 0x69, 0x6e, 0x5f, 0x5f,
  0x2e, 0x47, 0x52, 0x55, 0x5f, 0x4e, 0x4e, 0x5f, 0x32, 0x2f, 0x74, 0x6f,
  0x72, 0x63, 0x68, 0x2e, 0x6e, 0x6e, 0x2e, 0x6d, 0x6f, 0x64, 0x75, 0x6c,
  0x65, 0x73, 0x2e, 0x72, 0x6e, 0x6e, 0x2e, 0x47, 0x52, 0x55, 0x5f, 0x67,
  0x72, 0x75, 0x3b, 0x34, 0x36, 0x00, 0x00, 0x00, 0x03, 0x00, 0x00, 0x00,
  0x01, 0x00, 0x00, 0x00, 0x01, 0x00, 0x00, 0x00, 0x08, 0x00, 0x00, 0x00,
  0xca, 0xe9, 0xff, 0xff, 0x00, 0x00, 0x00, 0x01, 0x10, 0x00, 0x00, 0x00,
  0x10, 0x00, 0x00, 0x00, 0x3e, 0x00, 0x00, 0x00, 0x40, 0x00, 0x00, 0x00,
  0x10, 0xe9, 0xff, 0xff, 0x31, 0x00, 0x00, 0x00, 0x5f, 0x5f, 0x6d, 0x61,
  0x69, 0x6e, 0x5f, 0x5f, 0x2e, 0x47, 0x52, 0x55, 0x5f, 0x4e, 0x4e, 0x5f,
  0x32, 0x2f, 0x74, 0x6f, 0x72, 0x63, 0x68, 0x2e, 0x6e, 0x6e, 0x2e, 0x6d,
  0x6f, 0x64, 0x75, 0x6c, 0x65, 0x73, 0x2e, 0x72, 0x6e, 0x6e, 0x2e, 0x47,
  0x52, 0x55, 0x5f, 0x67, 0x72, 0x75, 0x3b, 0x34, 0x35, 0x00, 0x00, 0x00,
  0x03, 0x00, 0x00, 0x00, 0x01, 0x00, 0x00, 0x00, 0x01, 0x00, 0x00, 0x00,
  0x08, 0x00, 0x00, 0x00, 0x2e, 0xea, 0xff, 0xff, 0x00, 0x00, 0x00, 0x01,
  0x10, 0x00, 0x00, 0x00, 0x10, 0x00, 0x00, 0x00, 0x3d, 0x00, 0x00, 0x00,
  0x40, 0x00, 0x00, 0x00, 0x74, 0xe9, 0xff, 0xff, 0x31, 0x00, 0x00, 0x00,
  0x5f, 0x5f, 0x6d, 0x61, 0x69, 0x6e, 0x5f, 0x5f, 0x2e, 0x47, 0x52, 0x55,
  0x5f, 0x4e, 0x4e, 0x5f, 0x32, 0x2f, 0x74, 0x6f, 0x72, 0x63, 0x68, 0x2e,
  0x6e, 0x6e, 0x2e, 0x6d, 0x6f, 0x64, 0x75, 0x6c, 0x65, 0x73, 0x2e, 0x72,
  0x6e, 0x6e, 0x2e, 0x47, 0x52, 0x55, 0x5f, 0x67, 0x72, 0x75, 0x3b, 0x34,
  0x34, 0x00, 0x00, 0x00, 0x03, 0x00, 0x00, 0x00, 0x01, 0x00, 0x00, 0x00,
  0x01, 0x00, 0x00, 0x00, 0x08, 0x00, 0x00, 0x00, 0x92, 0xea, 0xff, 0xff,
  0x00, 0x00, 0x00, 0x01, 0x10, 0x00, 0x00, 0x00, 0x10, 0x00, 0x00, 0x00,
  0x3c, 0x00, 0x00, 0x00, 0x40, 0x00, 0x00, 0x00, 0xd8, 0xe9, 0xff, 0xff,
  0x31, 0x00, 0x00, 0x00, 0x5f, 0x5f, 0x6d, 0x61, 0x69, 0x6e, 0x5f, 0x5f,
  0x2e, 0x47, 0x52, 0x55, 0x5f, 0x4e, 0x4e, 0x5f, 0x32, 0x2f, 0x74, 0x6f,
  0x72, 0x63, 0x68, 0x2e, 0x6e, 0x6e, 0x2e, 0x6d, 0x6f, 0x64, 0x75, 0x6c,
  0x65, 0x73, 0x2e, 0x72, 0x6e, 0x6e, 0x2e, 0x47, 0x52, 0x55, 0x5f, 0x67,
  0x72, 0x75, 0x3b, 0x34, 0x33, 0x00, 0x00, 0x00, 0x03, 0x00, 0x00, 0x00,
  0x01, 0x00, 0x00, 0x00, 0x01, 0x00, 0x00, 0x00, 0x08, 0x00, 0x00, 0x00,
  0xf6, 0xea, 0xff, 0xff, 0x00, 0x00, 0x00, 0x01, 0x10, 0x00, 0x00, 0x00,
  0x10, 0x00, 0x00, 0x00, 0x3b, 0x00, 0x00, 0x00, 0x40, 0x00, 0x00, 0x00,
  0x3c, 0xea, 0xff, 0xff, 0x31, 0x00, 0x00, 0x00, 0x5f, 0x5f, 0x6d, 0x61,
  0x69, 0x6e, 0x5f, 0x5f, 0x2e, 0x47, 0x52, 0x55, 0x5f, 0x4e, 0x4e, 0x5f,
  0x32, 0x2f, 0x74, 0x6f, 0x72, 0x63, 0x68, 0x2e, 0x6e, 0x6e, 0x2e, 0x6d,
  0x6f, 0x64, 0x75, 0x6c, 0x65, 0x73, 0x2e, 0x72, 0x6e, 0x6e, 0x2e, 0x47,
  0x52, 0x55, 0x5f, 0x67, 0x72, 0x75, 0x3b, 0x34, 0x32, 0x00, 0x00, 0x00,
  0x03, 0x00, 0x00, 0x00, 0x01, 0x00, 0x00, 0x00, 0x01, 0x00, 0x00, 0x00,
  0x08, 0x00, 0x00, 0x00, 0x5a, 0xeb, 0xff, 0xff, 0x00, 0x00, 0x00, 0x01,
  0x10, 0x00, 0x00, 0x00, 0x10, 0x00, 0x00, 0x00, 0x3a, 0x00, 0x00, 0x00,
  0x40, 0x00, 0x00, 0x00, 0xa0, 0xea, 0xff, 0xff, 0x31, 0x00, 0x00, 0x00,
  0x5f, 0x5f, 0x6d, 0x61, 0x69, 0x6e, 0x5f, 0x5f, 0x2e, 0x47, 0x52, 0x55,
  0x5f, 0x4e, 0x4e, 0x5f, 0x32, 0x2f, 0x74, 0x6f, 0x72, 0x63, 0x68, 0x2e,
  0x6e, 0x6e, 0x2e, 0x6d, 0x6f, 0x64, 0x75, 0x6c, 0x65, 0x73, 0x2e, 0x72,
  0x6e, 0x6e, 0x2e, 0x47, 0x52, 0x55, 0x5f, 0x67, 0x72, 0x75, 0x3b, 0x34,
  0x31, 0x00, 0x00, 0x00, 0x03, 0x00, 0x00, 0x00, 0x01, 0x00, 0x00, 0x00,
  0x01, 0x00, 0x00, 0x00, 0x08, 0x00, 0x00, 0x00, 0xbe, 0xeb, 0xff, 0xff,
  0x00, 0x00, 0x00, 0x01, 0x10, 0x00, 0x00, 0x00, 0x10, 0x00, 0x00, 0x00,
  0x39, 0x00, 0x00, 0x00, 0x40, 0x00, 0x00, 0x00, 0x04, 0xeb, 0xff, 0xff,
  0x31, 0x00, 0x00, 0x00, 0x5f, 0x5f, 0x6d, 0x61, 0x69, 0x6e, 0x5f, 0x5f,
  0x2e, 0x47, 0x52, 0x55, 0x5f, 0x4e, 0x4e, 0x5f, 0x32, 0x2f, 0x74, 0x6f,
  0x72, 0x63, 0x68, 0x2e, 0x6e, 0x6e, 0x2e, 0x6d, 0x6f, 0x64, 0x75, 0x6c,
  0x65, 0x73, 0x2e, 0x72, 0x6e, 0x6e, 0x2e, 0x47, 0x52, 0x55, 0x5f, 0x67,
  0x72, 0x75, 0x3b, 0x34, 0x30, 0x00, 0x00, 0x00, 0x03, 0x00, 0x00, 0x00,
  0x01, 0x00, 0x00, 0x00, 0x01, 0x00, 0x00, 0x00, 0x18, 0x00, 0x00, 0x00,
  0x22, 0xec, 0xff, 0xff, 0x00, 0x00, 0x00, 0x01, 0x10, 0x00, 0x00, 0x00,
  0x10, 0x00, 0x00, 0x00, 0x38, 0x00, 0x00, 0x00, 0x40, 0x00, 0x00, 0x00,
  0x68, 0xeb, 0xff, 0xff, 0x31, 0x00, 0x00, 0x00, 0x5f, 0x5f, 0x6d, 0x61,
  0x69, 0x6e, 0x5f, 0x5f, 0x2e, 0x47, 0x52, 0x55, 0x5f, 0x4e, 0x4e, 0x5f,
  0x32, 0x2f, 0x74, 0x6f, 0x72, 0x63, 0x68, 0x2e, 0x6e, 0x6e, 0x2e, 0x6d,
  0x6f, 0x64, 0x75, 0x6c, 0x65, 0x73, 0x2e, 0x72, 0x6e, 0x6e, 0x2e, 0x47,
  0x52, 0x55, 0x5f, 0x67, 0x72, 0x75, 0x3b, 0x33, 0x39, 0x00, 0x00, 0x00,
  0x02, 0x00, 0x00, 0x00, 0x01, 0x00, 0x00, 0x00, 0x08, 0x00, 0x00, 0x00,
  0x82, 0xec, 0xff, 0xff, 0x00, 0x00, 0x00, 0x01, 0x10, 0x00, 0x00, 0x00,
  0x10, 0x00, 0x00, 0x00, 0x37, 0x00, 0x00, 0x00, 0x40, 0x00, 0x00, 0x00,
  0xc8, 0xeb, 0xff, 0xff, 0x31, 0x00, 0x00, 0x00, 0x5f, 0x5f, 0x6d, 0x61,
  0x69, 0x6e, 0x5f, 0x5f, 0x2e, 0x47, 0x52, 0x55, 0x5f, 0x4e, 0x4e, 0x5f,
  0x32, 0x2f, 0x74, 0x6f, 0x72, 0x63, 0x68, 0x2e, 0x6e, 0x6e, 0x2e, 0x6d,
  0x6f, 0x64, 0x75, 0x6c, 0x65, 0x73, 0x2e, 0x72, 0x6e, 0x6e, 0x2e, 0x47,
  0x52, 0x55, 0x5f, 0x67, 0x72, 0x75, 0x3b, 0x33, 0x38, 0x00, 0x00, 0x00,
  0x02, 0x00, 0x00, 0x00, 0x01, 0x00, 0x00, 0x00, 0x08, 0x00, 0x00, 0x00,
  0xe2, 0xec, 0xff, 0xff, 0x00, 0x00, 0x00, 0x01, 0x10, 0x00, 0x00, 0x00,
  0x10, 0x00, 0x00, 0x00, 0x36, 0x00, 0x00, 0x00, 0x40, 0x00, 0x00, 0x00,
  0x28, 0xec, 0xff, 0xff, 0x31, 0x00, 0x00, 0x00, 0x5f, 0x5f, 0x6d, 0x61,
  0x69, 0x6e, 0x5f, 0x5f, 0x2e, 0x47, 0x52, 0x55, 0x5f, 0x4e, 0x4e, 0x5f,
  0x32, 0x2f, 0x74, 0x6f, 0x72, 0x63, 0x68, 0x2e, 0x6e, 0x6e, 0x2e, 0x6d,
  0x6f, 0x64, 0x75, 0x6c, 0x65, 0x73, 0x2e, 0x72, 0x6e, 0x6e, 0x2e, 0x47,
  0x52, 0x55, 0x5f, 0x67, 0x72, 0x75, 0x3b, 0x33, 0x37, 0x00, 0x00, 0x00,
  0x02, 0x00, 0x00, 0x00, 0x01, 0x00, 0x00, 0x00, 0x08, 0x00, 0x00, 0x00,
  0x42, 0xed, 0xff, 0xff, 0x00, 0x00, 0x00, 0x01, 0x10, 0x00, 0x00, 0x00,
  0x10, 0x00, 0x00, 0x00, 0x35, 0x00, 0x00, 0x00, 0x40, 0x00, 0x00, 0x00,
  0x88, 0xec, 0xff, 0xff, 0x31, 0x00, 0x00, 0x00, 0x5f, 0x5f, 0x6d, 0x61,
  0x69, 0x6e, 0x5f, 0x5f, 0x2e, 0x47, 0x52, 0x55, 0x5f, 0x4e, 0x4e, 0x5f,
  0x32, 0x2f, 0x74, 0x6f, 0x72, 0x63, 0x68, 0x2e, 0x6e, 0x6e, 0x2e, 0x6d,
  0x6f, 0x64, 0x75, 0x6c, 0x65, 0x73, 0x2e, 0x72, 0x6e, 0x6e, 0x2e, 0x47,
  0x52, 0x55, 0x5f, 0x67, 0x72, 0x75, 0x3b, 0x33, 0x36, 0x00, 0x00, 0x00,
  0x02, 0x00, 0x00, 0x00, 0x01, 0x00, 0x00, 0x00, 0x18, 0x00, 0x00, 0x00,
  0xa2, 0xed, 0xff, 0xff, 0x00, 0x00, 0x00, 0x01, 0x10, 0x00, 0x00, 0x00,
  0x10, 0x00, 0x00, 0x00, 0x34, 0x00, 0x00, 0x00, 0x40, 0x00, 0x00, 0x00,
  0xe8, 0xec, 0xff, 0xff, 0x31, 0x00, 0x00, 0x00, 0x5f, 0x5f, 0x6d, 0x61,
  0x69, 0x6e, 0x5f, 0x5f, 0x2e, 0x47, 0x52, 0x55, 0x5f, 0x4e, 0x4e, 0x5f,
  0x32, 0x2f, 0x74, 0x6f, 0x72, 0x63, 0x68, 0x2e, 0x6e, 0x6e, 0x2e, 0x6d,
  0x6f, 0x64, 0x75, 0x6c, 0x65, 0x73, 0x2e, 0x72, 0x6e, 0x6e, 0x2e, 0x47,
  0x52, 0x55, 0x5f, 0x67, 0x72, 0x75, 0x3b, 0x33, 0x35, 0x00, 0x00, 0x00,
  0x02, 0x00, 0x00, 0x00, 0x01, 0x00, 0x00, 0x00, 0x08, 0x00, 0x00, 0x00,
  0x02, 0xee, 0xff, 0xff, 0x00, 0x00, 0x00, 0x01, 0x10, 0x00, 0x00, 0x00,
  0x10, 0x00, 0x00, 0x00, 0x33, 0x00, 0x00, 0x00, 0x40, 0x00, 0x00, 0x00,
  0x48, 0xed, 0xff, 0xff, 0x31, 0x00, 0x00, 0x00, 0x5f, 0x5f, 0x6d, 0x61,
  0x69, 0x6e, 0x5f, 0x5f, 0x2e, 0x47, 0x52, 0x55, 0x5f, 0x4e, 0x4e, 0x5f,
  0x32, 0x2f, 0x74, 0x6f, 0x72, 0x63, 0x68, 0x2e, 0x6e, 0x6e, 0x2e, 0x6d,
  0x6f, 0x64, 0x75, 0x6c, 0x65, 0x73, 0x2e, 0x72, 0x6e, 0x6e, 0x2e, 0x47,
  0x52, 0x55, 0x5f, 0x67, 0x72, 0x75, 0x3b, 0x33, 0x34, 0x00, 0x00, 0x00,
  0x03, 0x00, 0x00, 0x00, 0x01, 0x00, 0x00, 0x00, 0x01, 0x00, 0x00, 0x00,
  0x08, 0x00, 0x00, 0x00, 0x66, 0xee, 0xff, 0xff, 0x00, 0x00, 0x00, 0x01,
  0x10, 0x00, 0x00, 0x00, 0x10, 0x00, 0x00, 0x00, 0x32, 0x00, 0x00, 0x00,
  0x40, 0x00, 0x00, 0x00, 0xac, 0xed, 0xff, 0xff, 0x31, 0x00, 0x00, 0x00,
  0x5f, 0x5f, 0x6d, 0x61, 0x69, 0x6e, 0x5f, 0x5f, 0x2e, 0x47, 0x52, 0x55,
  0x5f, 0x4e, 0x4e, 0x5f, 0x32, 0x2f, 0x74, 0x6f, 0x72, 0x63, 0x68, 0x2e,
  0x6e, 0x6e, 0x2e, 0x6d, 0x6f, 0x64, 0x75, 0x6c, 0x65, 0x73, 0x2e, 0x72,
  0x6e, 0x6e, 0x2e, 0x47, 0x52, 0x55, 0x5f, 0x67, 0x72, 0x75, 0x3b, 0x33,
  0x33, 0x00, 0x00, 0x00, 0x03, 0x00, 0x00, 0x00, 0x01, 0x00, 0x00, 0x00,
  0x01, 0x00, 0x00, 0x00, 0x08, 0x00, 0x00, 0x00, 0xca, 0xee, 0xff, 0xff,
  0x00, 0x00, 0x00, 0x01, 0x10, 0x00, 0x00, 0x00, 0x10, 0x00, 0x00, 0x00,
  0x31, 0x00, 0x00, 0x00, 0x40, 0x00, 0x00, 0x00, 0x10, 0xee, 0xff, 0xff,
  0x31, 0x00, 0x00, 0x00, 0x5f, 0x5f, 0x6d, 0x61, 0x69, 0x6e, 0x5f, 0x5f,
  0x2e, 0x47, 0x52, 0x55, 0x5f, 0x4e, 0x4e, 0x5f, 0x32, 0x2f, 0x74, 0x6f,
  0x72, 0x63, 0x68, 0x2e, 0x6e, 0x6e, 0x2e, 0x6d, 0x6f, 0x64, 0x75, 0x6c,
  0x65, 0x73, 0x2e, 0x72, 0x6e, 0x6e, 0x2e, 0x47, 0x52, 0x55, 0x5f, 0x67,
  0x72, 0x75, 0x3b, 0x33, 0x32, 0x00, 0x00, 0x00, 0x03, 0x00, 0x00, 0x00,
  0x01, 0x00, 0x00, 0x00, 0x01, 0x00, 0x00, 0x00, 0x08, 0x00, 0x00, 0x00,
  0x2e, 0xef, 0xff, 0xff, 0x00, 0x00, 0x00, 0x01, 0x10, 0x00, 0x00, 0x00,
  0x10, 0x00, 0x00, 0x00, 0x30, 0x00, 0x00, 0x00, 0x40, 0x00, 0x00, 0x00,
  0x74, 0xee, 0xff, 0xff, 0x31, 0x00, 0x00, 0x00, 0x5f, 0x5f, 0x6d, 0x61,
  0x69, 0x6e, 0x5f, 0x5f, 0x2e, 0x47, 0x52, 0x55, 0x5f, 0x4e, 0x4e, 0x5f,
  0x32, 0x2f, 0x74, 0x6f, 0x72, 0x63, 0x68, 0x2e, 0x6e, 0x6e, 0x2e, 0x6d,
  0x6f, 0x64, 0x75, 0x6c, 0x65, 0x73, 0x2e, 0x72, 0x6e, 0x6e, 0x2e, 0x47,
  0x52, 0x55, 0x5f, 0x67, 0x72, 0x75, 0x3b, 0x33, 0x31, 0x00, 0x00, 0x00,
  0x03, 0x00, 0x00, 0x00, 0x01, 0x00, 0x00, 0x00, 0x01, 0x00, 0x00, 0x00,
  0x08, 0x00, 0x00, 0x00, 0x92, 0xef, 0xff, 0xff, 0x00, 0x00, 0x00, 0x01,
  0x10, 0x00, 0x00, 0x00, 0x10, 0x00, 0x00, 0x00, 0x2f, 0x00, 0x00, 0x00,
  0x40, 0x00, 0x00, 0x00, 0xd8, 0xee, 0xff, 0xff, 0x31, 0x00, 0x00, 0x00,
  0x5f, 0x5f, 0x6d, 0x61, 0x69, 0x6e, 0x5f, 0x5f, 0x2e, 0x47, 0x52, 0x55,
  0x5f, 0x4e, 0x4e, 0x5f, 0x32, 0x2f, 0x74, 0x6f, 0x72, 0x63, 0x68, 0x2e,
  0x6e, 0x6e, 0x2e, 0x6d, 0x6f, 0x64, 0x75, 0x6c, 0x65, 0x73, 0x2e, 0x72,
  0x6e, 0x6e, 0x2e, 0x47, 0x52, 0x55, 0x5f, 0x67, 0x72, 0x75, 0x3b, 0x33,
  0x30, 0x00, 0x00, 0x00, 0x03, 0x00, 0x00, 0x00, 0x01, 0x00, 0x00, 0x00,
  0x01, 0x00, 0x00, 0x00, 0x08, 0x00, 0x00, 0x00, 0xf6, 0xef, 0xff, 0xff,
  0x00, 0x00, 0x00, 0x01, 0x10, 0x00, 0x00, 0x00, 0x10, 0x00, 0x00, 0x00,
  0x2e, 0x00, 0x00, 0x00, 0x40, 0x00, 0x00, 0x00, 0x3c, 0xef, 0xff, 0xff,
  0x31, 0x00, 0x00, 0x00, 0x5f, 0x5f, 0x6d, 0x61, 0x69, 0x6e, 0x5f, 0x5f,
  0x2e, 0x47, 0x52, 0x55, 0x5f, 0x4e, 0x4e, 0x5f, 0x32, 0x2f, 0x74, 0x6f,
  0x72, 0x63, 0x68, 0x2e, 0x6e, 0x6e, 0x2e, 0x6d, 0x6f, 0x64, 0x75, 0x6c,
  0x65, 0x73, 0x2e, 0x72, 0x6e, 0x6e, 0x2e, 0x47, 0x52, 0x55, 0x5f, 0x67,
  0x72, 0x75, 0x3b, 0x32, 0x39, 0x00, 0x00, 0x00, 0x03, 0x00, 0x00, 0x00,
  0x01, 0x00, 0x00, 0x00, 0x01, 0x00, 0x00, 0x00, 0x08, 0x00, 0x00, 0x00,
  0x5a, 0xf0, 0xff, 0xff, 0x00, 0x00, 0x00, 0x01, 0x10, 0x00, 0x00, 0x00,
  0x10, 0x00, 0x00, 0x00, 0x2d, 0x00, 0x00, 0x00, 0x40, 0x00, 0x00, 0x00,
  0xa0, 0xef, 0xff, 0xff, 0x31, 0x00, 0x00, 0x00, 0x5f, 0x5f, 0x6d, 0x61,
  0x69, 0x6e, 0x5f, 0x5f, 0x2e, 0x47, 0x52, 0x55, 0x5f, 0x4e, 0x4e, 0x5f,
  0x32, 0x2f, 0x74, 0x6f, 0x72, 0x63, 0x68, 0x2e, 0x6e, 0x6e, 0x2e, 0x6d,
  0x6f, 0x64, 0x75, 0x6c, 0x65, 0x73, 0x2e, 0x72, 0x6e, 0x6e, 0x2e, 0x47,
  0x52, 0x55, 0x5f, 0x67, 0x72, 0x75, 0x3b, 0x32, 0x38, 0x00, 0x00, 0x00,
  0x03, 0x00, 0x00, 0x00, 0x01, 0x00, 0x00, 0x00, 0x01, 0x00, 0x00, 0x00,
  0x08, 0x00, 0x00, 0x00, 0xbe, 0xf0, 0xff, 0xff, 0x00, 0x00, 0x00, 0x01,
  0x10, 0x00, 0x00, 0x00, 0x10, 0x00, 0x00, 0x00, 0x2c, 0x00, 0x00, 0x00,
  0x40, 0x00, 0x00, 0x00, 0x04, 0xf0, 0xff, 0xff, 0x31, 0x00, 0x00, 0x00,
  0x5f, 0x5f, 0x6d, 0x61, 0x69, 0x6e, 0x5f, 0x5f, 0x2e, 0x47, 0x52, 0x55,
  0x5f, 0x4e, 0x4e, 0x5f, 0x32, 0x2f, 0x74, 0x6f, 0x72, 0x63, 0x68, 0x2e,
  0x6e, 0x6e, 0x2e, 0x6d, 0x6f, 0x64, 0x75, 0x6c, 0x65, 0x73, 0x2e, 0x72,
  0x6e, 0x6e, 0x2e, 0x47, 0x52, 0x55, 0x5f, 0x67, 0x72, 0x75, 0x3b, 0x32,
  0x37, 0x00, 0x00, 0x00, 0x03, 0x00, 0x00, 0x00, 0x01, 0x00, 0x00, 0x00,
  0x01, 0x00, 0x00, 0x00, 0x08, 0x00, 0x00, 0x00, 0x22, 0xf1, 0xff, 0xff,
  0x00, 0x00, 0x00, 0x01, 0x10, 0x00, 0x00, 0x00, 0x10, 0x00, 0x00, 0x00,
  0x2b, 0x00, 0x00, 0x00, 0x40, 0x00, 0x00, 0x00, 0x68, 0xf0, 0xff, 0xff,
  0x31, 0x00, 0x00, 0x00, 0x5f, 0x5f, 0x6d, 0x61, 0x69, 0x6e, 0x5f, 0x5f,
  0x2e, 0x47, 0x52, 0x55, 0x5f, 0x4e, 0x4e, 0x5f, 0x32, 0x2f, 0x74, 0x6f,
  0x72, 0x63, 0x68, 0x2e, 0x6e, 0x6e, 0x2e, 0x6d, 0x6f, 0x64, 0x75, 0x6c,
  0x65, 0x73, 0x2e, 0x72, 0x6e, 0x6e, 0x2e, 0x47, 0x52, 0x55, 0x5f, 0x67,
  0x72, 0x75, 0x3b, 0x32, 0x36, 0x00, 0x00, 0x00, 0x03, 0x00, 0x00, 0x00,
  0x01, 0x00, 0x00, 0x00, 0x01, 0x00, 0x00, 0x00, 0x08, 0x00, 0x00, 0x00,
  0x86, 0xf1, 0xff, 0xff, 0x00, 0x00, 0x00, 0x01, 0x10, 0x00, 0x00, 0x00,
  0x10, 0x00, 0x00, 0x00, 0x2a, 0x00, 0x00, 0x00, 0x40, 0x00, 0x00, 0x00,
  0xcc, 0xf0, 0xff, 0xff, 0x31, 0x00, 0x00, 0x00, 0x5f, 0x5f, 0x6d, 0x61,
  0x69, 0x6e, 0x5f, 0x5f, 0x2e, 0x47, 0x52, 0x55, 0x5f, 0x4e, 0x4e, 0x5f,
  0x32, 0x2f, 0x74, 0x6f, 0x72, 0x63, 0x68, 0x2e, 0x6e, 0x6e, 0x2e, 0x6d,
  0x6f, 0x64, 0x75, 0x6c, 0x65, 0x73, 0x2e, 0x72, 0x6e, 0x6e, 0x2e, 0x47,
  0x52, 0x55, 0x5f, 0x67, 0x72, 0x75, 0x3b, 0x32, 0x35, 0x00, 0x00, 0x00,
  0x03, 0x00, 0x00, 0x00, 0x01, 0x00, 0x00, 0x00, 0x01, 0x00, 0x00, 0x00,
  0x08, 0x00, 0x00, 0x00, 0xea, 0xf1, 0xff, 0xff, 0x00, 0x00, 0x00, 0x01,
  0x10, 0x00, 0x00, 0x00, 0x10, 0x00, 0x00, 0x00, 0x29, 0x00, 0x00, 0x00,
  0x40, 0x00, 0x00, 0x00, 0x30, 0xf1, 0xff, 0xff, 0x31, 0x00, 0x00, 0x00,
  0x5f, 0x5f, 0x6d, 0x61, 0x69, 0x6e, 0x5f, 0x5f, 0x2e, 0x47, 0x52, 0x55,
  0x5f, 0x4e, 0x4e, 0x5f, 0x32, 0x2f, 0x74, 0x6f, 0x72, 0x63, 0x68, 0x2e,
  0x6e, 0x6e, 0x2e, 0x6d, 0x6f, 0x64, 0x75, 0x6c, 0x65, 0x73, 0x2e, 0x72,
  0x6e, 0x6e, 0x2e, 0x47, 0x52, 0x55, 0x5f, 0x67, 0x72, 0x75, 0x3b, 0x32,
  0x34, 0x00, 0x00, 0x00, 0x03, 0x00, 0x00, 0x00, 0x01, 0x00, 0x00, 0x00,
  0x01, 0x00, 0x00, 0x00, 0x08, 0x00, 0x00, 0x00, 0x4e, 0xf2, 0xff, 0xff,
  0x00, 0x00, 0x00, 0x01, 0x10, 0x00, 0x00, 0x00, 0x10, 0x00, 0x00, 0x00,
  0x28, 0x00, 0x00, 0x00, 0x40, 0x00, 0x00, 0x00, 0x94, 0xf1, 0xff, 0xff,
  0x31, 0x00, 0x00, 0x00, 0x5f, 0x5f, 0x6d, 0x61, 0x69, 0x6e, 0x5f, 0x5f,
  0x2e, 0x47, 0x52, 0x55, 0x5f, 0x4e, 0x4e, 0x5f, 0x32, 0x2f, 0x74, 0x6f,
  0x72, 0x63, 0x68, 0x2e, 0x6e, 0x6e, 0x2e, 0x6d, 0x6f, 0x64, 0x75, 0x6c,
  0x65, 0x73, 0x2e, 0x72, 0x6e, 0x6e, 0x2e, 0x47, 0x52, 0x55, 0x5f, 0x67,
  0x72, 0x75, 0x3b, 0x32, 0x33, 0x00, 0x00, 0x00, 0x03, 0x00, 0x00, 0x00,
  0x01, 0x00, 0x00, 0x00, 0x01, 0x00, 0x00, 0x00, 0x08, 0x00, 0x00, 0x00,
  0xb2, 0xf2, 0xff, 0xff, 0x00, 0x00, 0x00, 0x01, 0x10, 0x00, 0x00, 0x00,
  0x10, 0x00, 0x00, 0x00, 0x27, 0x00, 0x00, 0x00, 0x40, 0x00, 0x00, 0x00,
  0xf8, 0xf1, 0xff, 0xff, 0x31, 0x00, 0x00, 0x00, 0x5f, 0x5f, 0x6d, 0x61,
  0x69, 0x6e, 0x5f, 0x5f, 0x2e, 0x47, 0x52, 0x55, 0x5f, 0x4e, 0x4e, 0x5f,
  0x32, 0x2f, 0x74, 0x6f, 0x72, 0x63, 0x68, 0x2e, 0x6e, 0x6e, 0x2e, 0x6d,
  0x6f, 0x64, 0x75, 0x6c, 0x65, 0x73, 0x2e, 0x72, 0x6e, 0x6e, 0x2e, 0x47,
  0x52, 0x55, 0x5f, 0x67, 0x72, 0x75, 0x3b, 0x32, 0x32, 0x00, 0x00, 0x00,
  0x03, 0x00, 0x00, 0x00, 0x01, 0x00, 0x00, 0x00, 0x01, 0x00, 0x00, 0x00,
  0x08, 0x00, 0x00, 0x00, 0x16, 0xf3, 0xff, 0xff, 0x00, 0x00, 0x00, 0x01,
  0x10, 0x00, 0x00, 0x00, 0x10, 0x00, 0x00, 0x00, 0x26, 0x00, 0x00, 0x00,
  0x40, 0x00, 0x00, 0x00, 0x5c, 0xf2, 0xff, 0xff, 0x31, 0x00, 0x00, 0x00,
  0x5f, 0x5f, 0x6d, 0x61, 0x69, 0x6e, 0x5f, 0x5f, 0x2e, 0x47, 0x52, 0x55,
  0x5f, 0x4e, 0x4e, 0x5f, 0x32, 0x2f, 0x74, 0x6f, 0x72, 0x63, 0x68, 0x2e,
  0x6e, 0x6e, 0x2e, 0x6d, 0x6f, 0x64, 0x75, 0x6c, 0x65, 0x73, 0x2e, 0x72,
  0x6e, 0x6e, 0x2e, 0x47, 0x52, 0x55, 0x5f, 0x67, 0x72, 0x75, 0x3b, 0x32,
  0x31, 0x00, 0x00, 0x00, 0x03, 0x00, 0x00, 0x00, 0x01, 0x00, 0x00, 0x00,
  0x01, 0x00, 0x00, 0x00, 0x18, 0x00, 0x00, 0x00, 0x7a, 0xf3, 0xff, 0xff,
  0x00, 0x00, 0x00, 0x01, 0x10, 0x00, 0x00, 0x00, 0x10, 0x00, 0x00, 0x00,
  0x25, 0x00, 0x00, 0x00, 0x40, 0x00, 0x00, 0x00, 0xc0, 0xf2, 0xff, 0xff,
